<unk>	0
<s>	0
</s>	0
<pad>	0
▁de	-3.12541
,	-3.15408
'	-3.19067
.	-3.4931
▁la	-3.61947
▁et	-3.90121
▁l	-3.91425
▁le	-4.04878
▁à	-4.12269
▁les	-4.12645
▁des	-4.15336
▁d	-4.28167
▁que	-4.31362
▁en	-4.54115
’	-4.71255
▁du	-4.78994
▁dans	-4.91743
▁nous	-4.92726
▁pour	-4.94043
▁qui	-4.95563
▁une	-5.07433
▁un	-5.12522
▁ce	-5.15018
▁est	-5.167
▁pas	-5.23173
▁sur	-5.25117
▁au	-5.25121
-	-5.26534
▁par	-5.35524
▁ne	-5.41081
▁a	-5.42701
▁qu	-5.43024
s	-5.53853
▁plus	-5.60956
▁je	-5.66073
est	-5.70896
▁n	-5.84176
▁cette	-5.87513
▁Je	-5.8808
▁aux	-5.8808
▁Commission	-5.93125
▁-	-5.93418
▁il	-5.93779
▁européenne	-5.95477
▁sont	-5.96563
▁s	-5.97286
▁avec	-6.08263
il	-6.08505
▁Nous	-6.14614
▁Il	-6.15174
Union	-6.17567
▁se	-6.18049
une	-6.18125
▁mais	-6.19141
▁pays	-6.1942
▁Monsieur	-6.21418
▁être	-6.23353
▁ces	-6.25188
un	-6.27728
▁ont	-6.29189
▁été	-6.2933
▁Parlement	-6.30312
▁rapport	-6.30501
▁La	-6.33266
▁États	-6.33402
▁fait	-6.36201
▁Président	-6.37652
▁politique	-6.38525
▁vous	-6.3905
▁comme	-6.43445
▁tout	-6.44543
▁Conseil	-6.44689
▁Le	-6.44751
▁membres	-6.44792
▁C	-6.46033
▁européen	-6.49965
▁c	-6.5041
▁également	-6.50815
▁ou	-6.51483
▁aussi	-6.57767
▁faire	-6.63176
▁M	-6.63704
▁notre	-6.64013
▁si	-6.67806
a	-6.69869
▁avons	-6.7022
▁leur	-6.70611
▁doit	-6.71065
▁tous	-6.72017
▁bien	-6.73506
▁très	-6.7513
▁Les	-6.76212
▁question	-6.76358
▁même	-6.77245
▁son	-6.77413
▁y	-6.78328
▁	-6.79684
▁L	-6.80178
▁En	-6.80633
▁peut	-6.82784
▁entre	-6.83144
▁j	-6.84097
ai	-6.85954
▁devons	-6.8689
▁droits	-6.91355
▁nos	-6.92105
:	-6.96011
▁contre	-7.01324
▁(	-7.02213
▁J	-7.02233
▁voudrais	-7.02559
Europe	-7.02624
▁non	-7.04147
▁cela	-7.05311
▁donc	-7.07422
▁développement	-7.09003
▁travail	-7.09116
▁proposition	-7.09556
▁dont	-7.10475
▁soit	-7.12148
▁sans	-7.12716
UE	-7.13793
▁encore	-7.14379
▁deux	-7.16388
hui	-7.1832
▁ainsi	-7.19016
▁commission	-7.19292
▁ses	-7.20559
▁sécurité	-7.21271
▁faut	-7.22797
▁suis	-7.24093
▁cas	-7.24166
?	-7.25417
▁me	-7.25857
▁mesures	-7.25939
▁point	-7.25981
▁marché	-7.26354
▁matière	-7.26593
on	-7.26691
▁sa	-7.26823
▁situation	-7.27288
▁citoyens	-7.28707
▁elle	-7.29665
▁pense	-7.30308
elle	-7.3083
▁dire	-7.31023
▁leurs	-7.3147
)	-7.32112
▁groupe	-7.32948
▁doivent	-7.33391
▁cet	-7.33657
▁afin	-7.33798
▁Ce	-7.34727
autres	-7.35835
▁déjà	-7.35956
▁sommes	-7.35964
en	-7.36042
▁politiques	-7.36141
▁où	-7.37497
▁manière	-7.38346
▁cadre	-7.38668
▁important	-7.39729
▁car	-7.39819
▁aujourd	-7.40051
▁"	-7.40225
▁droit	-7.40291
▁économique	-7.40347
▁concerne	-7.41569
à	-7.42068
▁mon	-7.42077
▁Madame	-7.42616
e	-7.44064
▁niveau	-7.46174
▁tant	-7.4649
▁directive	-7.4694
▁sera	-7.46993
être	-7.47163
▁temps	-7.47291
▁problème	-7.48973
▁débat	-7.50586
▁personnes	-7.51241
▁part	-7.52432
ils	-7.53478
▁on	-7.54123
▁lors	-7.54825
▁dit	-7.55969
agit	-7.55972
▁toute	-7.57109
▁fois	-7.57809
▁Dan	-7.59305
▁questions	-7.59498
▁autres	-7.59584
▁parce	-7.60049
▁Europe	-7.60383
▁toutes	-7.60394
▁concernant	-7.60429
▁sein	-7.60813
▁certains	-7.60814
▁domaine	-7.6156
▁coopération	-7.62109
▁Mme	-7.62634
▁protection	-7.62663
▁vue	-7.63016
;	-7.63692
▁moins	-7.6414
ont	-7.64145
▁système	-7.64548
accord	-7.64698
▁monde	-7.66065
homme	-7.6694
▁seulement	-7.67455
▁problèmes	-7.68016
▁mettre	-7.69186
▁ceux	-7.69575
▁européens	-7.6961
▁raison	-7.70246
▁compte	-7.70738
▁pourquoi	-7.71682
▁mise	-7.71684
▁programme	-7.71968
▁nom	-7.73314
▁savoir	-7.73537
▁secteur	-7.73655
▁nombre	-7.74242
▁processus	-7.74628
▁rapporteur	-7.74744
▁particulier	-7.75329
y	-7.7533
▁Pour	-7.75523
▁avoir	-7.75835
▁possible	-7.76427
▁avant	-7.76505
▁toujours	-7.7669
▁exemple	-7.7702
▁grande	-7.77221
▁Mais	-7.77424
▁base	-7.77662
▁devrait	-7.77885
▁résolution	-7.78557
▁Si	-7.79381
▁sujet	-7.80028
▁entreprises	-7.80097
▁notamment	-7.80677
▁demande	-7.80827
▁laquelle	-7.80909
▁À	-7.80935
ette	-7.81409
▁cours	-7.81417
▁gouvernement	-7.82274
▁services	-7.82424
▁prendre	-7.82443
▁rôle	-7.83414
▁beaucoup	-7.83712
▁partie	-7.83805
▁Commissaire	-7.84388
▁Cela	-7.84668
▁collègues	-7.84678
▁règlement	-7.84692
▁mesure	-7.8551
▁propositions	-7.85675
▁faveur	-7.85697
▁santé	-7.86091
▁sous	-7.86371
▁effet	-7.86385
▁m	-7.86425
▁commune	-7.86447
▁jour	-7.8671
▁besoin	-7.87005
▁pouvons	-7.87247
▁accord	-7.87479
▁soient	-7.87744
▁soutien	-7.8785
▁lieu	-7.87931
▁femmes	-7.88832
▁votre	-7.89668
▁serait	-7.90343
ci	-7.9056
▁position	-7.90853
▁traité	-7.91178
▁années	-7.91303
t	-7.91359
▁nouvelle	-7.91593
▁amendements	-7.91738
▁nécessaire	-7.91983
▁décision	-7.92248
▁président	-7.92667
▁objectifs	-7.92896
▁pouvoir	-7.93242
▁nouveau	-7.94574
▁ici	-7.95235
▁était	-7.95411
▁autre	-7.95444
▁peuvent	-7.95593
▁lui	-7.95737
▁peu	-7.95872
▁%	-7.96468
▁budget	-7.9692
▁place	-7.9746
▁commissaire	-7.98247
▁conditions	-7.98376
▁produits	-7.98924
"	-7.99238
▁présent	-7.99249
ès	-7.99992
▁depuis	-8.00226
▁ils	-8.00391
▁alors	-8.01346
▁vote	-8.01601
▁crise	-8.02303
▁contrôle	-8.02356
▁après	-8.02402
▁vie	-8.03378
▁ans	-8.03712
▁stratégie	-8.03732
▁façon	-8.0396
▁principe	-8.04056
environnement	-8.04191
▁:	-8.04218
▁crois	-8.04845
▁quelques	-8.04926
▁sociale	-8.04943
▁présidence	-8.0515
▁députés	-8.05219
▁Messieurs	-8.05614
▁première	-8.06494
▁Par	-8.0669
▁règles	-8.06909
▁régions	-8.06942
emploi	-8.0784
▁Mesdames	-8.08411
▁recherche	-8.09296
▁Présidente	-8.09658
▁fonds	-8.09779
▁plan	-8.09961
▁bonne	-8.10198
espère	-8.10199
▁moi	-8.10346
avenir	-8.10537
▁projet	-8.10616
▁institutions	-8.11085
▁eu	-8.11373
▁nouveaux	-8.11386
ticulièrement	-8.1181
▁fin	-8.11856
▁mes	-8.11898
▁là	-8.12121
▁millions	-8.12996
▁législation	-8.13306
▁qualité	-8.13745
▁trois	-8.13955
▁grand	-8.13992
▁terme	-8.14021
▁garantir	-8.143
▁ni	-8.14369
▁négociations	-8.14582
▁lutte	-8.14601
▁européennes	-8.14769
▁selon	-8.15165
▁clairement	-8.15263
▁sens	-8.16082
▁pourrait	-8.16106
▁communautaire	-8.16114
aide	-8.16183
▁De	-8.16343
▁remercier	-8.16533
▁nouvelles	-8.16646
▁bon	-8.17141
▁consommateurs	-8.17759
▁nombreux	-8.18113
▁mois	-8.18235
▁procédure	-8.18464
▁va	-8.18598
▁?	-8.18617
▁seront	-8.18878
▁moment	-8.19097
▁vers	-8.19298
Unis	-8.2003
nt	-8.20312
▁D	-8.20322
énergie	-8.20474
▁œuvre	-8.20519
▁nécessité	-8.20898
▁celle	-8.212
▁celui	-8.21303
▁Assemblée	-8.22138
▁région	-8.2268
▁«	-8.22921
haque	-8.23171
▁pêche	-8.23682
▁chose	-8.24337
▁plusieurs	-8.24381
▁maintenant	-8.24577
abord	-8.24691
▁trop	-8.24722
▁membre	-8.24892
autre	-8.24903
ment	-8.24943
▁respect	-8.25079
ait	-8.25195
▁société	-8.25201
▁autorités	-8.25454
▁efforts	-8.25714
▁points	-8.26321
▁ma	-8.26359
▁premier	-8.26794
▁visant	-8.27073
▁prix	-8.27915
▁surtout	-8.2829
▁voté	-8.284
▁aucun	-8.28626
▁reste	-8.28716
▁ressources	-8.28789
▁juridique	-8.28863
▁certaines	-8.28871
▁Une	-8.29125
▁liberté	-8.29223
▁démocratie	-8.29396
▁Ces	-8.29587
es	-8.30153
▁voulons	-8.31615
▁elles	-8.31732
▁tiens	-8.31802
▁avez	-8.32043
▁économiques	-8.3245
▁importante	-8.32478
État	-8.32511
▁solution	-8.32862
▁responsabilité	-8.32906
▁Elle	-8.32956
▁voir	-8.33289
▁conséquent	-8.33424
▁croissance	-8.33934
▁jusqu	-8.33952
ensemble	-8.34441
▁réponse	-8.34787
▁semble	-8.34956
▁davantage	-8.34965
▁donner	-8.3502
▁travailleurs	-8.35272
▁soutenir	-8.35658
▁relations	-8.35961
▁concurrence	-8.36222
▁Et	-8.36412
action	-8.37113
▁donné	-8.37124
▁dernier	-8.3715
▁Comme	-8.37169
▁internationale	-8.37695
▁actuellement	-8.38118
▁lorsque	-8.38191
▁création	-8.39153
▁État	-8.40342
ordre	-8.40381
▁sorte	-8.40487
▁face	-8.40488
▁constitue	-8.40599
▁progrès	-8.40882
▁Au	-8.4113
▁domaines	-8.41181
▁souligner	-8.41428
▁différents	-8.41752
▁programmes	-8.419
▁outre	-8.41923
▁paix	-8.41951
▁propos	-8.42467
▁dernière	-8.42923
▁souvent	-8.43087
▁termes	-8.43368
▁mis	-8.43521
▁toutefois	-8.43779
▁texte	-8.43819
▁avait	-8.4391
▁production	-8.44104
▁On	-8.44185
▁affaires	-8.4457
article	-8.44684
▁écrit	-8.45173
▁rien	-8.45208
▁mieux	-8.45592
▁égard	-8.45911
▁gestion	-8.46136
▁transport	-8.46308
▁décisions	-8.46481
▁population	-8.46554
elles	-8.46692
▁avis	-8.46699
▁données	-8.46887
▁ait	-8.47264
▁efficace	-8.47342
ons	-8.4737
▁aucune	-8.47394
amendement	-8.47557
▁lequel	-8.4821
▁compris	-8.48269
même	-8.48283
▁possibilité	-8.48343
▁long	-8.48449
▁telle	-8.48484
▁Lisbonne	-8.48505
▁existe	-8.48571
▁enfants	-8.48602
▁Un	-8.4862
▁moyens	-8.48979
▁commerce	-8.49154
▁demander	-8.49182
▁résultats	-8.49236
▁Toutefois	-8.49309
▁étant	-8.49383
▁souhaite	-8.49563
▁pris	-8.49625
▁nécessaires	-8.49675
▁sûr	-8.50001
▁choses	-8.50301
▁objectif	-8.50592
▁voie	-8.50598
▁justice	-8.50729
▁période	-8.51268
▁renforcer	-8.51278
▁financement	-8.5156
▁dialogue	-8.51849
r	-8.52146
▁nombreuses	-8.52147
▁permettre	-8.52384
▁devraient	-8.52641
application	-8.52905
▁actuelle	-8.52916
▁majorité	-8.5304
▁normes	-8.53103
▁général	-8.53257
▁créer	-8.53413
▁groupes	-8.53446
▁année	-8.539
▁quelque	-8.53952
moi	-8.54374
▁deuxième	-8.54779
er	-8.55032
▁unique	-8.55054
▁projets	-8.55068
importance	-8.55359
▁publique	-8.55473
▁certain	-8.55527
▁accords	-8.55566
▁Enfin	-8.55606
▁trouver	-8.5611
▁international	-8.56316
▁devrions	-8.56343
▁réforme	-8.56588
information	-8.57223
▁juste	-8.57256
▁Turquie	-8.57389
▁simplement	-8.57781
▁compromis	-8.57792
▁nationaux	-8.57938
▁social	-8.58239
▁pu	-8.5855
▁marchés	-8.58641
▁titre	-8.59056
▁Russie	-8.59095
industrie	-8.59151
▁essentiel	-8.5934
économie	-8.59894
année	-8.59916
▁eux	-8.59952
adhésion	-8.60851
▁public	-8.60968
▁intérêts	-8.61517
▁stabilité	-8.61666
▁libre	-8.62017
▁ensemble	-8.62056
▁contexte	-8.62433
▁tiers	-8.62594
▁ailleurs	-8.62997
▁entendu	-8.63217
▁dispositions	-8.63221
▁démocratique	-8.6328
ant	-8.63341
▁vraiment	-8.63666
/	-8.63968
▁intérieur	-8.64011
▁réalité	-8.64213
▁cependant	-8.64225
▁raisons	-8.64322
▁actions	-8.64585
▁principes	-8.64714
objectif	-8.64839
▁difficile	-8.65167
▁seule	-8.65342
▁propre	-8.65462
▁jamais	-8.65505
▁changement	-8.65617
▁convient	-8.65959
élargissement	-8.66278
▁Vous	-8.66311
▁approche	-8.66507
▁suite	-8.66535
▁clair	-8.66773
utilisation	-8.66953
avoir	-8.67299
▁quand	-8.67576
▁activités	-8.67594
▁Cour	-8.6764
▁plutôt	-8.67655
▁financière	-8.67675
▁extrêmement	-8.68122
▁tel	-8.6824
▁quant	-8.68292
▁font	-8.68475
nous	-8.68637
▁informations	-8.68731
▁rendre	-8.68971
▁mondiale	-8.69097
▁transparence	-8.69452
▁risque	-8.69487
▁volonté	-8.69534
▁dernières	-8.69587
▁rapidement	-8.69803
▁communication	-8.7002
▁budgétaire	-8.7032
▁celles	-8.70511
▁aide	-8.70903
euros	-8.71091
▁conséquences	-8.71194
▁durable	-8.71654
▁répondre	-8.71656
▁nationales	-8.72022
▁parties	-8.72037
▁aura	-8.72063
▁tels	-8.72094
▁parler	-8.7233
▁doute	-8.72521
▁réduire	-8.72547
▁Cependant	-8.72602
intérêt	-8.72643
▁puisse	-8.72707
▁lorsqu	-8.73085
▁déclaration	-8.73218
▁différentes	-8.73489
▁devant	-8.7377
▁cause	-8.7389
▁preuve	-8.7391
▁collègue	-8.74587
avons	-8.74817
▁chers	-8.74876
▁systèmes	-8.74884
▁solidarité	-8.74999
▁fondamentaux	-8.75325
▁aspects	-8.75422
▁peux	-8.7574
!	-8.75775
▁gouvernements	-8.75822
▁meilleure	-8.75931
▁Fonds	-8.75983
▁moyen	-8.76136
égalité	-8.76208
▁Union	-8.76248
▁Nations	-8.76534
▁comment	-8.76581
".	-8.76634
▁jeunes	-8.77043
heure	-8.77208
»	-8.77419
▁importance	-8.77582
▁cohésion	-8.77758
▁formation	-8.78031
▁Communauté	-8.78109
▁pendant	-8.78114
▁Tout	-8.78173
▁grâce	-8.78242
▁savons	-8.7826
▁frontières	-8.78381
▁sommet	-8.78406
▁rapports	-8.78964
▁commun	-8.79073
▁féliciter	-8.79307
▁forme	-8.79381
▁vu	-8.79642
▁régime	-8.79792
▁confiance	-8.79808
mi	-8.80307
▁personne	-8.80449
▁aurait	-8.80615
▁seul	-8.80628
▁adopté	-8.80713
accès	-8.80809
▁1	-8.80819
▁critères	-8.81006
▁agricole	-8.81141
▁taux	-8.81308
▁;	-8.81577
▁assurer	-8.81623
▁réduction	-8.81706
▁résultat	-8.81962
▁telles	-8.82035
▁vigueur	-8.82128
▁attention	-8.82295
▁unies	-8.82357
▁représente	-8.82489
objet	-8.82502
▁ministre	-8.82802
▁énergétique	-8.82906
agriculture	-8.82937
▁véritable	-8.82995
▁procédures	-8.83278
▁passé	-8.83308
▁large	-8.83364
▁type	-8.83533
▁relative	-8.84
▁importants	-8.84217
▁valeurs	-8.84277
▁terrorisme	-8.8443
▁signifie	-8.847
▁prises	-8.85094
▁remercie	-8.85197
▁sociaux	-8.85233
▁trouve	-8.85427
▁financières	-8.85945
▁propres	-8.86191
▁exercice	-8.86354
▁enfin	-8.86959
▁réellement	-8.87066
▁Ils	-8.87258
occasion	-8.87463
adoption	-8.87528
▁élections	-8.87534
▁contraire	-8.87539
▁uniquement	-8.87545
intégration	-8.87577
▁pratique	-8.87666
▁rappeler	-8.87881
▁victimes	-8.87989
au	-8.88113
▁certainement	-8.8826
▁appelle	-8.8827
▁prise	-8.88873
aient	-8.88905
▁promouvoir	-8.89108
▁relatives	-8.89267
▁veut	-8.89717
▁présente	-8.90123
ici	-8.90261
entre	-8.90486
▁tenir	-8.9062
▁améliorer	-8.91301
était	-8.91497
▁autant	-8.91518
▁participation	-8.91524
▁protéger	-8.91645
▁S	-8.9188
▁guerre	-8.91927
▁défense	-8.92093
▁parti	-8.92307
▁financiers	-8.92362
▁Bien	-8.92533
argent	-8.92585
▁parvenir	-8.92645
▁grandes	-8.92857
▁culture	-8.92911
▁évidemment	-8.93105
▁Des	-8.93208
ailleurs	-8.93425
▁dois	-8.93614
▁coûts	-8.93624
▁service	-8.93892
▁centrale	-8.94102
▁priorité	-8.94251
▁organisations	-8.9466
▁respecter	-8.94677
▁transports	-8.94774
▁début	-8.94881
▁pauvreté	-8.95241
▁éléments	-8.95325
▁zone	-8.95614
▁petites	-8.95729
▁manque	-8.95781
▁priorités	-8.95887
▁Chine	-8.96033
éducation	-8.96263
▁référence	-8.96314
▁national	-8.96516
efficacité	-8.96527
▁financier	-8.96575
▁but	-8.96592
▁publics	-8.96729
▁communautaires	-8.96815
▁propose	-8.96898
A	-8.97266
dire	-8.97304
▁inter	-8.97382
▁absolument	-8.97642
▁étaient	-8.97667
estime	-8.97803
▁veiller	-8.97886
vous	-8.97902
▁précisément	-8.97908
▁hommes	-8.98376
▁continuer	-8.98769
▁000	-8.98839
é	-8.99244
▁présenter	-8.99341
▁sociales	-8.994
▁amendement	-8.99436
▁loin	-8.99549
▁dépenses	-8.9956
▁voter	-8.99651
z	-8.99685
▁réunion	-8.99968
▁totalement	-9.00012
▁secteurs	-9.00044
origine	-9.00357
▁générale	-9.0056
▁demandé	-9.0058
▁réformes	-9.00628
▁vrai	-9.00876
▁contribution	-9.01381
avis	-9.01477
▁partenaires	-9.01587
▁tenu	-9.01614
▁traitement	-9.01748
initiative	-9.01823
▁gens	-9.01825
▁peuple	-9.01871
▁développer	-9.01872
▁proposé	-9.02215
▁accepter	-9.02353
▁travailler	-9.02446
▁violence	-9.02453
ce	-9.02483
▁pratiques	-9.02569
▁quel	-9.02812
égard	-9.02874
▁considération	-9.02972
▁demain	-9.03033
▁produit	-9.03184
▁action	-9.0328
▁résoudre	-9.03392
▁discussion	-9.03456
▁grands	-9.03816
▁difficultés	-9.04121
▁coordination	-9.04339
▁prochaine	-9.04394
▁capacité	-9.04446
▁importantes	-9.04632
▁quatre	-9.04675
▁instruments	-9.04761
▁pleinement	-9.04875
▁valeur	-9.04939
immigration	-9.05144
▁présenté	-9.05309
▁semaine	-9.05655
▁lesquels	-9.0601
▁climatique	-9.06166
▁monétaire	-9.0635
▁zones	-9.06396
▁succès	-9.06824
▁paragraphe	-9.06841
▁pourra	-9.06843
▁côté	-9.07129
▁lecture	-9.0744
▁permettant	-9.07512
▁mondial	-9.07615
▁partenariat	-9.0769
▁puissent	-9.0783
▁force	-9.08016
▁document	-9.08063
▁venir	-9.08327
▁vos	-9.08573
▁Notre	-9.08753
▁statut	-9.0888
▁considère	-9.08995
▁risques	-9.09185
idée	-9.09303
attention	-9.09369
▁initiatives	-9.09464
▁félicite	-9.09494
▁exigences	-9.09577
▁communauté	-9.09628
▁porte	-9.09722
▁renforcement	-9.0973
▁fort	-9.09988
▁besoins	-9.10117
▁vient	-9.10391
▁compétences	-9.10441
▁pourraient	-9.10472
▁poursuivre	-9.10656
▁initiative	-9.11243
▁conférence	-9.11261
▁réglementation	-9.11428
▁jouer	-9.11433
▁compétitivité	-9.11436
▁alimentaire	-9.11484
▁discussions	-9.11766
▁personnel	-9.11824
▁chômage	-9.12002
▁cinq	-9.12151
▁conclusion	-9.1226
▁quoi	-9.123
▁parlementaire	-9.12391
euro	-9.12451
▁dû	-9.125
▁spécifiques	-9.12503
▁commencer	-9.12573
▁possibilités	-9.1274
▁direction	-9.12741
▁partage	-9.12759
▁nature	-9.1288
▁série	-9.12882
▁jours	-9.13136
▁travers	-9.13193
▁ensuite	-9.13417
▁travaux	-9.13498
▁civile	-9.13506
▁Deuxièmement	-9.13614
▁malheureusement	-9.13654
▁contribuer	-9.13657
▁longtemps	-9.13657
▁ministres	-9.13763
▁candidats	-9.13817
▁euro	-9.13952
▁permet	-9.14371
▁peine	-9.14393
▁choix	-9.14489
▁permis	-9.14742
▁promotion	-9.14888
▁loi	-9.14934
▁solutions	-9.14954
▁assez	-9.15005
▁modèle	-9.15051
▁permettra	-9.15226
▁passer	-9.15599
▁Convention	-9.15663
vis	-9.15669
▁derniers	-9.15995
▁parole	-9.16047
▁pression	-9.1609
▁aides	-9.161
▁simple	-9.1618
▁20	-9.16246
▁lutter	-9.16261
▁effets	-9.16353
esprit	-9.16403
▁révision	-9.16837
▁défis	-9.17148
▁vis	-9.17182
▁éviter	-9.17207
▁responsables	-9.17395
▁collaboration	-9.17478
le	-9.17484
▁quelle	-9.17512
▁fonctionnement	-9.17576
▁sais	-9.17863
▁comprendre	-9.17878
▁représentants	-9.18038
▁apporter	-9.18093
▁près	-9.18154
aimerais	-9.18161
▁milliards	-9.18449
assurer	-9.18562
▁vont	-9.18578
▁chacun	-9.18675
▁ayant	-9.18893
▁instrument	-9.19296
▁puisque	-9.19598
▁décembre	-9.19641
▁plupart	-9.19671
▁constituent	-9.19896
Assemblée	-9.1998
▁devoir	-9.20423
▁circulation	-9.20515
",	-9.20531
▁décidé	-9.20619
▁lesquelles	-9.20756
▁investissements	-9.20894
▁réjouis	-9.2098
▁déclaré	-9.21423
▁aider	-9.21434
▁conclusions	-9.21448
▁France	-9.21669
▁mandat	-9.21685
▁troisième	-9.22105
▁Traité	-9.22548
▁nationale	-9.22595
▁yeux	-9.22636
▁constater	-9.22724
▁conclure	-9.22841
▁liste	-9.22858
mêmes	-9.22942
▁adopter	-9.23446
▁10	-9.23499
▁conflit	-9.23544
▁nucléaire	-9.23622
▁construction	-9.23676
▁emplois	-9.23689
▁mêmes	-9.2387
▁émissions	-9.24007
améliorer	-9.24215
▁changements	-9.24234
▁responsabilités	-9.24264
▁actuel	-9.24325
▁engagement	-9.24554
▁conformément	-9.24781
▁territoire	-9.24833
▁agriculteurs	-9.24947
d	-9.25293
▁Permettez	-9.25533
▁pensons	-9.25533
▁certaine	-9.25541
▁dix	-9.25679
▁fournir	-9.2597
▁rapide	-9.25971
▁5	-9.26113
▁internationales	-9.26119
▁devra	-9.26526
▁soutiens	-9.2654
cadre	-9.26543
▁mener	-9.26762
▁animaux	-9.26803
▁récemment	-9.26828
▁vise	-9.26839
▁structurels	-9.2686
▁Royaume	-9.27038
▁favorable	-9.27066
▁République	-9.27119
▁effectivement	-9.2716
ions	-9.273
▁mer	-9.27356
▁mort	-9.27424
▁producteurs	-9.27593
▁allons	-9.27644
▁2	-9.27823
▁perspectives	-9.27897
▁veux	-9.2814
▁montre	-9.28171
▁responsable	-9.28282
▁caractère	-9.28303
▁forte	-9.28308
▁supplémentaires	-9.28369
▁désormais	-9.28614
▁positif	-9.28774
EN	-9.28871
▁claire	-9.28939
▁souhaiterais	-9.29027
▁puis	-9.29071
Uni	-9.29144
▁forces	-9.29183
▁sérieux	-9.29191
▁élément	-9.29219
▁savez	-9.29348
▁donne	-9.29356
▁publiques	-9.29741
▁train	-9.29937
évaluation	-9.30141
▁comptes	-9.30145
▁suivre	-9.3045
▁déchets	-9.30522
▁libertés	-9.30782
▁an	-9.31054
▁permettez	-9.31156
▁adoptée	-9.31252
▁libéralisation	-9.31288
▁intervention	-9.31301
▁juridiques	-9.31474
▁Constitution	-9.31542
▁atteindre	-9.31547
▁grave	-9.31572
▁suivi	-9.31596
▁ligne	-9.31617
innovation	-9.31716
▁parfois	-9.3181
échange	-9.3183
▁maintenir	-9.32014
▁sociétés	-9.32024
▁prévention	-9.32065
▁juin	-9.32184
▁conséquence	-9.32209
▁passe	-9.32228
▁A	-9.32257
asile	-9.32344
intention	-9.32361
▁engagements	-9.32398
▁suffisamment	-9.32422
▁présence	-9.32557
▁fonction	-9.32578
▁partir	-9.32754
▁réaliser	-9.32786
▁consiste	-9.32862
▁souligné	-9.3292
▁technologies	-9.32965
▁niveaux	-9.33186
▁biais	-9.3337
▁étrangères	-9.33377
eau	-9.33396
▁mal	-9.3354
▁voix	-9.33569
▁gaz	-9.33648
▁malgré	-9.33706
▁mission	-9.33723
▁techniques	-9.34359
▁disposition	-9.34416
▁relatif	-9.34468
aujourd	-9.34478
▁message	-9.34526
urgence	-9.34617
▁étrangère	-9.3473
▁événements	-9.34983
▁3	-9.35013
▁Aujourd	-9.35042
▁déclarations	-9.35209
▁dimension	-9.35223
▁convention	-9.35624
▁occasion	-9.35783
▁indispensable	-9.35806
▁intérêt	-9.35905
▁haut	-9.35931
▁15	-9.35964
▁obtenir	-9.35974
▁considérable	-9.35989
▁meilleur	-9.36093
▁prévoit	-9.36167
▁Voilà	-9.36273
▁particulière	-9.3631
▁Nord	-9.36646
▁genre	-9.36654
impact	-9.36747
▁liés	-9.36775
▁discrimination	-9.3678
▁six	-9.36876
▁importe	-9.36889
amélioration	-9.36956
▁contenu	-9.37289
an	-9.37332
▁veulent	-9.37501
delà	-9.37591
▁débats	-9.37659
▁directement	-9.3772
▁sanctions	-9.37782
▁Banque	-9.37788
▁agricoles	-9.37814
▁agir	-9.37861
▁utile	-9.3794
▁paquet	-9.37953
▁rester	-9.3813
▁pourrons	-9.38545
▁lignes	-9.38665
▁Bruxelles	-9.38673
▁réfugiés	-9.39119
▁accès	-9.39179
▁peuples	-9.39443
▁élevé	-9.39466
▁auquel	-9.3961
▁Présidence	-9.39773
▁faisant	-9.39791
▁Sud	-9.39861
▁évident	-9.39984
▁graves	-9.40014
▁technique	-9.40019
▁bonnes	-9.40081
▁définition	-9.401
▁tard	-9.40137
▁Sur	-9.4016
▁2000	-9.40286
▁Or	-9.40429
▁tâche	-9.40848
après	-9.40989
▁condition	-9.41113
OMC	-9.41148
opinion	-9.41215
▁Kosovo	-9.41557
▁préoccupations	-9.41572
▁reconnaissance	-9.41689
▁positive	-9.41785
▁prochain	-9.41898
▁participer	-9.41956
▁Premièrement	-9.42213
▁envers	-9.42234
▁devenir	-9.42348
▁parle	-9.42418
l	-9.42435
▁fondamental	-9.42574
absence	-9.42609
▁dossier	-9.42678
▁réseaux	-9.4297
▁défendre	-9.43312
▁perspective	-9.43381
▁consommation	-9.43403
▁surveillance	-9.43481
▁poser	-9.43599
▁excellent	-9.43686
▁britannique	-9.43688
▁sait	-9.43757
▁spécifique	-9.43929
▁néanmoins	-9.43973
▁naturellement	-9.44055
▁garantie	-9.44088
▁principaux	-9.44126
▁reconnaître	-9.44332
▁soi	-9.44388
▁continue	-9.44402
▁janvier	-9.44414
▁exprimer	-9.44439
▁budgétaires	-9.44466
▁ceci	-9.44544
encontre	-9.44686
▁connaissance	-9.44724
▁semaines	-9.449
▁démocratiques	-9.44984
▁humains	-9.45187
▁menace	-9.45192
▁crédits	-9.4531
▁augmentation	-9.45348
▁25	-9.45476
▁communes	-9.45625
▁délégation	-9.45686
▁pauvres	-9.45697
▁reçu	-9.45812
emplois	-9.45902
▁documents	-9.45933
▁espérons	-9.4599
▁comité	-9.46246
▁30	-9.46326
».	-9.46472
▁défi	-9.46642
▁aller	-9.46677
▁montrer	-9.46704
▁contrôles	-9.46708
▁soumis	-9.4676
▁utiliser	-9.46865
▁séance	-9.46874
▁économie	-9.47734
▁date	-9.48031
▁Selon	-9.48048
les	-9.48117
▁tourisme	-9.48131
▁budgets	-9.48143
▁charge	-9.48168
▁directives	-9.48464
▁médias	-9.48519
▁trafic	-9.48527
▁pouvoirs	-9.48627
▁parlé	-9.48844
▁partis	-9.48949
▁pose	-9.49062
▁réseau	-9.49266
introduction	-9.49295
▁tirer	-9.49377
▁salue	-9.4949
▁traiter	-9.49602
▁militaire	-9.49773
▁humanitaire	-9.50166
▁économies	-9.50499
▁pourtant	-9.50503
▁pacte	-9.50682
▁moyennes	-9.50715
▁conflits	-9.50781
▁compétence	-9.50799
▁aient	-9.51045
▁affaire	-9.51084
▁alimentaires	-9.51091
▁professionnelle	-9.51147
▁Néanmoins	-9.51551
▁heures	-9.51558
▁conscience	-9.51613
▁largement	-9.51643
▁actes	-9.51723
▁pourront	-9.51967
▁efficaces	-9.51974
▁heureux	-9.52234
▁Ceci	-9.52476
▁consensus	-9.52504
ouverture	-9.52551
▁mai	-9.52627
▁parlementaires	-9.52785
▁ai	-9.52796
▁nouvel	-9.52816
▁député	-9.52825
état	-9.52879
▁chez	-9.53008
▁régionale	-9.53159
▁parfaitement	-9.53217
Afrique	-9.53249
▁laisser	-9.53346
▁mars	-9.5336
▁uvre	-9.53384
▁PME	-9.53412
investissement	-9.53414
▁4	-9.53626
engagement	-9.53631
▁Elles	-9.53753
▁procéder	-9.53765
▁Grèce	-9.53908
▁encourager	-9.53995
▁obligations	-9.54102
▁discuter	-9.54187
▁soins	-9.5427
▁réalisation	-9.54373
▁humaine	-9.54591
▁internationaux	-9.54776
▁recours	-9.54978
▁inacceptable	-9.55079
▁avaient	-9.551
▁durant	-9.55186
▁avenir	-9.55223
▁définir	-9.55343
▁aspect	-9.55652
▁Ainsi	-9.55824
▁rapporteurs	-9.5592
▁fond	-9.55992
▁mécanisme	-9.56068
DE	-9.5609
▁proposer	-9.56299
▁mondialisation	-9.56367
▁prévu	-9.5653
▁Conférence	-9.56754
▁faudrait	-9.56779
évolution	-9.56812
▁traite	-9.56837
▁recommandations	-9.56838
▁fondamentale	-9.56892
▁dispose	-9.57043
▁Après	-9.57066
▁monnaie	-9.57444
▁liées	-9.57468
▁septembre	-9.57539
▁faisons	-9.57725
▁modification	-9.57926
▁Mon	-9.58012
▁devront	-9.58241
▁Européens	-9.58278
▁Malheureusement	-9.58351
▁Cet	-9.58594
▁armes	-9.58648
▁faudra	-9.58723
▁mérite	-9.58724
▁méthode	-9.58789
▁mot	-9.58829
▁PPE	-9.58906
▁évaluation	-9.59004
▁souhaitons	-9.59047
▁négociation	-9.59056
▁critique	-9.59161
2	-9.59192
▁avantages	-9.59321
▁coût	-9.59368
▁substances	-9.59511
▁souligne	-9.59701
▁populations	-9.59703
▁main	-9.59713
▁discours	-9.59728
▁chance	-9.59816
▁avions	-9.59958
▁législatif	-9.59997
▁Roumanie	-9.60042
▁supplémentaire	-9.60131
▁reprises	-9.60138
▁maintien	-9.60139
▁seraient	-9.60272
élaboration	-9.60312
adopter	-9.60387
▁soir	-9.60665
▁atteint	-9.60846
▁concernés	-9.60899
éviter	-9.60968
▁populaire	-9.61039
près	-9.61169
▁presque	-9.61307
▁modifier	-9.61507
▁représentent	-9.61525
▁mécanismes	-9.61526
▁globale	-9.6158
▁parlons	-9.61855
▁soutenu	-9.61871
▁essentielle	-9.61885
▁demandons	-9.61898
▁milliers	-9.61981
▁sources	-9.62078
▁matin	-9.62093
▁principal	-9.62113
▁plénière	-9.62252
ent	-9.62458
▁route	-9.62528
▁novembre	-9.62564
▁appel	-9.62606
▁11	-9.62727
▁futur	-9.62842
▁impossible	-9.62902
▁auxquels	-9.62932
approche	-9.63219
▁application	-9.63256
▁thème	-9.63361
▁implique	-9.63396
▁capital	-9.63543
c	-9.63559
▁médicaments	-9.63616
▁constitutionnel	-9.63733
▁idée	-9.63786
augmentation	-9.64029
▁protocole	-9.64134
▁Premier	-9.64284
▁fera	-9.64333
▁faits	-9.6441
▁longue	-9.64518
▁estime	-9.64538
espace	-9.64591
▁principalement	-9.64604
▁profit	-9.64626
pprovisionnement	-9.64631
▁minorités	-9.6464
▁stratégique	-9.64695
▁départ	-9.64709
▁total	-9.64713
▁famille	-9.64745
organisation	-9.64913
▁etc	-9.64941
▁B	-9.64945
▁consommateur	-9.65029
▁rural	-9.65069
▁flexibilité	-9.65198
histoire	-9.65228
▁12	-9.65271
▁concrètes	-9.65313
▁potentiel	-9.65341
▁entièrement	-9.65427
▁vais	-9.65495
informations	-9.65606
▁décider	-9.65669
▁montant	-9.65702
▁presse	-9.65769
▁emploi	-9.65786
▁fondamentales	-9.65929
▁confrontés	-9.66008
▁procès	-9.66027
▁réelle	-9.6612
ez	-9.662
▁mots	-9.66319
▁50	-9.66481
▁traités	-9.66504
▁maladies	-9.66507
▁acteurs	-9.6661
▁délai	-9.66634
▁considérer	-9.66649
▁diversité	-9.66754
▁prêts	-9.66787
▁lumière	-9.66817
▁locales	-9.66869
▁probablement	-9.6704
Irlande	-9.6709
▁contient	-9.67153
Orient	-9.67159
▁remarques	-9.67327
▁hier	-9.67384
▁parlements	-9.67652
▁aborder	-9.67657
▁phase	-9.67691
▁6	-9.67824
▁concitoyens	-9.68
▁état	-9.68062
▁réalisé	-9.68195
exprimer	-9.68295
▁gouvernance	-9.68342
▁finalement	-9.68476
▁limites	-9.68688
▁session	-9.68721
▁final	-9.688
▁climat	-9.68929
entrée	-9.68949
▁plans	-9.69078
▁met	-9.69089
▁petits	-9.69165
▁scientifiques	-9.69265
▁demandes	-9.69267
▁!	-9.69414
▁équilibre	-9.6944
intervention	-9.69545
▁judiciaire	-9.69729
▁commerciales	-9.69927
▁faible	-9.701
▁suivante	-9.70164
▁consultation	-9.70352
▁convaincu	-9.70388
▁oublier	-9.70555
▁critiques	-9.70563
▁appliquer	-9.70696
ra	-9.70762
▁concept	-9.70765
▁prochaines	-9.70782
▁Même	-9.70858
▁femme	-9.71028
▁méthodes	-9.71114
▁décharge	-9.71181
▁efficacement	-9.71198
▁exprimé	-9.713
▁remarque	-9.71371
▁court	-9.71388
▁bénéficier	-9.7143
▁concentrer	-9.71495
▁chances	-9.71688
▁représentant	-9.71717
▁criminalité	-9.71763
▁quotas	-9.7187
▁faites	-9.71882
▁voisins	-9.71954
▁disposer	-9.72047
▁subsidiarité	-9.72218
▁formes	-9.72227
accent	-9.72307
▁montré	-9.72374
▁soutient	-9.7245
▁orientations	-9.72504
▁7	-9.72538
▁équitable	-9.72547
▁véhicules	-9.72621
▁disposons	-9.7263
▁structures	-9.73007
▁garanties	-9.73037
▁recommandation	-9.73264
▁stade	-9.73471
▁limiter	-9.73515
▁tient	-9.73595
agir	-9.73699
▁extérieure	-9.73783
▁oeuvre	-9.73836
▁sujets	-9.73895
▁G	-9.73904
▁accompli	-9.74017
▁attirer	-9.74059
▁intérieures	-9.74086
▁scientifique	-9.74272
▁accorder	-9.74291
▁nucléaires	-9.74304
▁Comment	-9.7435
▁revenir	-9.7455
appliquer	-9.74603
▁penser	-9.7467
▁établir	-9.74931
▁voire	-9.75148
▁Depuis	-9.75149
▁passagers	-9.75325
▁situations	-9.75345
▁idées	-9.75465
▁police	-9.75581
▁Schengen	-9.75593
▁navires	-9.75857
▁retard	-9.75944
▁servir	-9.75973
expression	-9.76033
▁mobilité	-9.76067
▁dis	-9.7623
▁réserve	-9.76428
▁environnement	-9.76574
▁terroristes	-9.76687
▁faite	-9.76797
▁échanges	-9.76822
▁règlements	-9.76886
▁maritime	-9.76902
▁citoyen	-9.76925
▁8	-9.7699
▁Alors	-9.77072
▁totale	-9.77077
exécution	-9.77115
avez	-9.77198
▁UE	-9.77593
▁extérieures	-9.77612
▁examiner	-9.77713
▁renouvelables	-9.77724
▁offre	-9.77742
▁approuvé	-9.77868
▁conduite	-9.77959
▁chefs	-9.7797
▁limite	-9.77987
▁Certains	-9.78061
▁évidence	-9.78202
▁étape	-9.78206
o	-9.78242
▁ajouter	-9.78308
▁logique	-9.78386
▁circonstances	-9.78451
▁divers	-9.78465
▁justement	-9.78551
▁quelles	-9.78576
▁relatifs	-9.78653
▁relever	-9.78654
échelle	-9.78813
▁danger	-9.78864
▁durée	-9.78874
▁préparation	-9.79005
▁moindre	-9.79032
▁campagne	-9.79113
▁mises	-9.79167
▁précédent	-9.79168
▁rappelle	-9.79207
obtenir	-9.79247
▁chiffres	-9.79313
▁commerciaux	-9.79386
▁vision	-9.79419
▁structure	-9.79427
▁attitude	-9.79428
▁changer	-9.79487
▁véritablement	-9.79535
▁infrastructures	-9.79687
▁faciliter	-9.79714
▁analyse	-9.79871
établissement	-9.79874
▁agences	-9.79891
▁essentiels	-9.79892
établir	-9.79957
▁disponibles	-9.80029
▁fins	-9.80034
▁obtenu	-9.80072
▁pied	-9.80136
h	-9.80137
▁Portugal	-9.80234
entreprise	-9.80318
▁institutionnel	-9.80319
▁estimons	-9.80347
▁Que	-9.80357
▁future	-9.80442
▁source	-9.80458
▁concernées	-9.80473
▁produire	-9.80536
▁technologie	-9.80568
▁régional	-9.8057
▁prend	-9.80615
▁militaires	-9.80669
▁fraude	-9.80985
▁regrette	-9.80999
▁dirigeants	-9.81223
▁contrôler	-9.81257
▁immédiatement	-9.81294
▁Balkans	-9.81338
▁devait	-9.81421
▁pourrions	-9.81531
▁Lorsque	-9.81633
agissant	-9.81641
exercice	-9.81643
▁N	-9.81676
activité	-9.81703
▁modifications	-9.81793
exploitation	-9.81884
▁attendre	-9.81885
▁petit	-9.81954
▁sentiment	-9.82186
▁juillet	-9.82203
▁insister	-9.82226
▁réponses	-9.82242
administration	-9.82286
▁continent	-9.8229
▁progresser	-9.82327
▁relation	-9.82381
▁champ	-9.82461
▁terrain	-9.82468
▁indiqué	-9.82558
▁vite	-9.82607
▁2004	-9.82688
▁bas	-9.82733
existence	-9.82873
▁avancer	-9.82893
▁fiscale	-9.8299
la	-9.82997
utiliser	-9.83088
autant	-9.83144
▁langues	-9.83181
▁Avec	-9.83243
▁auront	-9.83257
existe	-9.83273
▁délais	-9.83315
▁puissions	-9.83357
▁violations	-9.83366
▁différences	-9.83414
gouvernementale	-9.83706
▁empêcher	-9.83725
opposition	-9.83728
là	-9.83839
▁environnemental	-9.83843
▁français	-9.83845
▁mentionné	-9.8389
▁note	-9.83967
▁catastrophe	-9.84
▁puisqu	-9.8407
aux	-9.84116
▁aurons	-9.84194
▁compagnies	-9.84197
▁devrons	-9.8421
▁Pologne	-9.84353
uvre	-9.84364
▁premières	-9.84433
▁subventions	-9.8448
▁diverses	-9.84521
▁seuls	-9.84599
▁soutenons	-9.8461
▁lois	-9.84641
▁jeu	-9.84912
▁octobre	-9.84919
▁eaux	-9.84935
▁profiter	-9.84937
▁18	-9.84968
▁conciliation	-9.84985
).	-9.84993
▁ambitieux	-9.85015
▁statistiques	-9.85087
▁centre	-9.85133
▁Troisièmement	-9.85305
Allemagne	-9.85334
▁Israël	-9.85396
▁lancer	-9.8544
▁utilisés	-9.85559
▁revenus	-9.85599
association	-9.85651
ONU	-9.8577
expérience	-9.85824
▁réflexion	-9.85847
▁27	-9.85929
▁portant	-9.86004
▁marchandises	-9.86031
▁positions	-9.86058
B	-9.86163
▁institution	-9.8627
▁maladie	-9.86434
i	-9.86438
▁familles	-9.86528
▁Suède	-9.86639
▁Pays	-9.8664
▁banques	-9.86678
▁2007	-9.86685
▁poids	-9.86785
▁correctement	-9.86857
▁haute	-9.86904
▁combien	-9.8699
▁historique	-9.87088
▁favoriser	-9.87131
▁vertu	-9.8719
▁exactement	-9.872
▁Pourquoi	-9.87287
▁socialiste	-9.87322
▁fasse	-9.87405
▁Moyen	-9.87524
),	-9.87674
▁chemin	-9.87674
▁utilisé	-9.87683
▁essentiellement	-9.87763
▁Ma	-9.87785
▁suffit	-9.88055
▁financer	-9.88124
▁accepté	-9.88216
▁réalisés	-9.88222
▁adoptées	-9.88233
harmonisation	-9.88239
▁déterminer	-9.88291
▁préparer	-9.88332
▁ouverte	-9.88355
▁réussite	-9.88392
Amérique	-9.88448
▁langue	-9.88537
obligation	-9.88755
▁conclu	-9.88767
▁trouvent	-9.88846
▁précis	-9.88955
▁règle	-9.89111
▁préserver	-9.89503
▁Tous	-9.89519
▁Bulgarie	-9.89519
▁ACP	-9.89526
▁entier	-9.8953
▁parvenus	-9.89747
▁facile	-9.89776
▁P	-9.89891
▁impact	-9.89962
tandis	-9.90002
▁Barroso	-9.90002
▁parlement	-9.90021
▁porter	-9.90031
▁global	-9.90056
▁meilleures	-9.90056
▁retour	-9.90104
▁obstacles	-9.90244
Ukraine	-9.90254
unanimité	-9.90376
▁calendrier	-9.90413
▁rendu	-9.90431
▁fermement	-9.90447
▁viande	-9.90474
▁fortement	-9.90539
▁coup	-9.90603
examen	-9.90738
▁vert	-9.90775
▁réaction	-9.91101
▁restent	-9.91115
▁entreprise	-9.91141
▁certes	-9.9122
▁Verts	-9.91261
▁crédibilité	-9.91282
▁législative	-9.91391
▁destinés	-9.9144
intérieur	-9.91539
époque	-9.91785
in	-9.91796
▁positifs	-9.91843
▁frais	-9.9194
▁complète	-9.91956
▁êtes	-9.91979
▁2009	-9.92115
Agence	-9.92311
je	-9.92325
▁comprends	-9.92389
Amsterdam	-9.92404
▁pollution	-9.92417
▁viens	-9.9268
▁étude	-9.92688
▁difficiles	-9.92761
▁2005	-9.92858
▁tabac	-9.92899
▁cœur	-9.92988
▁environ	-9.93078
▁réfléchir	-9.93114
▁annuel	-9.93176
▁mauvaise	-9.93211
▁accrue	-9.93214
▁actuelles	-9.93423
▁combattre	-9.93423
▁1999	-9.93494
▁40	-9.9383
▁complexe	-9.94203
▁siècle	-9.94368
▁commentaires	-9.94584
indépendance	-9.94601
▁matières	-9.94603
▁vice	-9.94651
▁dehors	-9.94749
▁2008	-9.94779
▁considérables	-9.94821
interdiction	-9.94887
▁cohérence	-9.94998
▁principales	-9.95078
▁interventions	-9.95156
▁payer	-9.95324
▁attendons	-9.95335
▁13	-9.95425
▁lettre	-9.95448
▁raisonnable	-9.95486
▁communautés	-9.95578
▁Chypre	-9.95605
▁évoqué	-9.95656
ur	-9.95669
▁signaler	-9.95702
équilibre	-9.95717
Est	-9.9575
▁commerciale	-9.95785
▁proposée	-9.95801
▁réussi	-9.95807
vironnementales	-9.95931
▁souhaitent	-9.95952
▁portée	-9.96021
▁réserves	-9.96036
▁Livre	-9.96087
▁tôt	-9.96119
▁vaste	-9.96125
enseignement	-9.96199
▁revient	-9.96409
▁contribué	-9.96409
▁double	-9.96419
▁relève	-9.96457
x	-9.96653
▁effort	-9.96662
▁augmenter	-9.96726
▁préoccupation	-9.96739
▁catastrophes	-9.96777
▁connu	-9.96951
C	-9.96985
exemple	-9.97019
▁9	-9.97066
▁capable	-9.97097
»,	-9.97167
▁euros	-9.97223
▁transition	-9.97235
OTAN	-9.97302
▁permettent	-9.97364
▁paiement	-9.97462
▁fonctionnaires	-9.97467
▁actuels	-9.97555
Organisation	-9.97564
▁garder	-9.97613
▁signal	-9.97665
▁auxquelles	-9.97708
ation	-9.97754
▁entendre	-9.97836
assistance	-9.9787
▁ouvert	-9.97934
▁vaut	-9.97976
▁Copenhague	-9.98036
▁étroite	-9.9809
▁possibles	-9.98275
▁évolution	-9.98282
atteindre	-9.9832
▁ordre	-9.98324
▁Charte	-9.98332
▁corruption	-9.98332
▁sud	-9.98415
▁culturelle	-9.98459
▁constitution	-9.98505
▁régionales	-9.98538
▁élevés	-9.98591
▁17	-9.98594
▁suppression	-9.98615
▁précise	-9.98624
▁proposés	-9.98625
▁acte	-9.98642
▁fixer	-9.98713
▁constituer	-9.98837
▁aérien	-9.9887
▁législatives	-9.98873
▁voulu	-9.98879
▁déposé	-9.98959
▁utilisation	-9.9906
▁moitié	-9.99091
▁interne	-9.9915
▁supprimer	-9.99169
▁paraît	-9.9925
▁poursuite	-9.99311
▁opérations	-9.99403
▁2003	-9.99446
▁vivre	-9.99597
▁Aussi	-9.99656
▁Strasbourg	-9.99657
▁claires	-9.99687
▁terminer	-9.99745
▁cesse	-9.99757
▁tendance	-9.99842
▁commissaires	-9.99974
▁exige	-10.0001
▁hausse	-10.0011
▁référendum	-10.0018
▁ratification	-10.0035
▁nations	-10.004
▁Éta	-10.0065
▁erreur	-10.0067
▁pêcheurs	-10.0078
▁violation	-10.0079
▁Quelle	-10.008
▁vouloir	-10.0083
▁études	-10.009
▁codécision	-10.01
▁vivent	-10.0104
▁adéquate	-10.0116
▁espace	-10.0122
▁sérieusement	-10.0128
▁débattre	-10.0141
▁100	-10.0156
▁via	-10.0161
▁revêt	-10.0174
▁imposer	-10.0189
▁expérience	-10.0194
▁personnellement	-10.0207
▁capacités	-10.0207
▁pétrole	-10.0216
▁recevoir	-10.0219
▁résolutions	-10.0222
▁Merci	-10.0229
▁établi	-10.0245
▁communs	-10.0261
impression	-10.0273
▁concernent	-10.0273
▁Méditerranée	-10.0284
▁code	-10.0284
▁connaître	-10.029
▁facteurs	-10.0291
Bas	-10.0297
▁crucial	-10.0303
▁préciser	-10.0324
▁activité	-10.0329
▁destinées	-10.0331
▁énorme	-10.0334
▁différence	-10.0336
▁démocrates	-10.0336
▁amélioration	-10.0336
▁aliments	-10.0344
▁Quant	-10.0344
▁courage	-10.0346
▁constate	-10.0369
▁garde	-10.0369
▁réunions	-10.0385
▁II	-10.0391
CE	-10.0398
▁tour	-10.0403
▁partout	-10.0404
▁phénomène	-10.0412
▁trouvé	-10.0422
▁lien	-10.0465
▁reprise	-10.0472
▁dangereux	-10.0475
▁centrales	-10.0483
▁serons	-10.0484
▁votes	-10.0488
▁fondée	-10.0493
▁favorables	-10.0495
▁présentée	-10.0497
▁quels	-10.0502
▁active	-10.0505
▁paiements	-10.0506
▁acceptable	-10.0507
▁commissions	-10.0512
▁transfert	-10.0514
▁administratives	-10.0543
▁offrir	-10.0549
▁tenter	-10.0554
▁naturelles	-10.056
▁dignité	-10.0563
▁esprit	-10.0566
▁capables	-10.0576
▁avril	-10.0601
▁2002	-10.0601
és	-10.0602
▁fut	-10.0608
▁appropriée	-10.0615
▁vingt	-10.0631
▁relativement	-10.065
▁plein	-10.0654
▁complètement	-10.0655
▁article	-10.0656
▁industrielle	-10.0658
▁dépit	-10.0659
▁irlandais	-10.068
▁réel	-10.0684
▁conscients	-10.0685
▁pilier	-10.0686
▁clause	-10.0686
▁petite	-10.0702
Italie	-10.0702
▁minimum	-10.0704
▁connaît	-10.072
et	-10.0727
▁apporté	-10.0728
▁prévue	-10.0731
▁Ne	-10.0732
▁privé	-10.0733
▁permettrait	-10.0739
avant	-10.0749
▁crimes	-10.0751
▁Irlande	-10.0751
▁fonctionne	-10.0756
▁16	-10.076
▁vois	-10.0763
▁inquiétudes	-10.0763
▁réglementations	-10.078
▁PAC	-10.0793
apporter	-10.0797
▁arriver	-10.0802
▁pouvait	-10.0807
▁intervenir	-10.0812
▁autour	-10.0817
▁majeure	-10.0821
▁organes	-10.0823
exclusion	-10.0825
▁détermination	-10.0832
1	-10.0833
▁Plus	-10.0843
▁CO	-10.0853
▁biens	-10.0854
▁générales	-10.0857
▁proposées	-10.0866
▁orateurs	-10.0874
Espagne	-10.0879
▁organisation	-10.0883
▁principale	-10.0884
▁Car	-10.0905
▁information	-10.0907
▁restrictions	-10.0907
▁in	-10.0909
▁patients	-10.0914
▁compter	-10.0921
▁entière	-10.0939
▁orientale	-10.0947
▁février	-10.0957
▁reconstruction	-10.096
▁cohérente	-10.0961
▁présidents	-10.0977
▁clé	-10.0985
02	-10.0986
▁villes	-10.099
▁sport	-10.0992
▁Ensuite	-10.0994
▁taxe	-10.0995
▁perdre	-10.1005
▁21	-10.1006
▁convergence	-10.1012
▁plaisir	-10.1019
▁pouvez	-10.103
▁organisée	-10.1031
▁envisager	-10.1032
▁mauvais	-10.1034
▁14	-10.1037
▁régimes	-10.1038
▁formuler	-10.1038
▁19	-10.104
▁joue	-10.1049
Iran	-10.1053
▁prévenir	-10.106
▁auraient	-10.1064
▁tchèque	-10.1071
▁second	-10.1072
engager	-10.1087
7	-10.1103
▁commercial	-10.1106
▁croire	-10.1113
▁réagir	-10.1116
▁Sans	-10.1119
▁répartition	-10.1124
▁homme	-10.1127
autorité	-10.1127
▁remarquer	-10.1137
▁ONG	-10.114
▁directrices	-10.1146
▁adhésion	-10.1174
▁soumettre	-10.1176
▁blanc	-10.118
▁humain	-10.1183
▁figure	-10.1212
▁capitaux	-10.1218
▁Concernant	-10.1221
▁ajoutée	-10.1227
▁facteur	-10.1229
▁crises	-10.1233
ou	-10.1263
▁américain	-10.1267
▁mentionner	-10.128
▁existantes	-10.1284
▁commencé	-10.1296
▁futures	-10.1297
▁existent	-10.1298
▁suivant	-10.1301
affaire	-10.1313
▁ferme	-10.132
▁voisinage	-10.1324
▁organisé	-10.1328
assurance	-10.1336
aider	-10.1351
▁visite	-10.1356
▁dépend	-10.1358
exportation	-10.1359
8	-10.1361
▁hors	-10.1362
▁Lors	-10.1363
▁Qu	-10.1364
▁montrent	-10.1369
algré	-10.1374
▁entend	-10.1376
▁importations	-10.1376
▁créé	-10.1378
▁propriété	-10.1382
▁travaillé	-10.1384
▁obligatoire	-10.1391
▁tâches	-10.1391
▁causes	-10.1394
▁table	-10.1398
▁présents	-10.1403
▁revanche	-10.1408
▁lancé	-10.1416
▁seconde	-10.1429
▁majeur	-10.1447
▁meilleurs	-10.1449
▁textes	-10.1456
▁améliorations	-10.1456
▁anti	-10.1461
▁prennent	-10.1461
▁autrement	-10.1462
▁construire	-10.1463
▁proche	-10.1463
▁Pourtant	-10.1463
▁vérité	-10.1467
▁simplification	-10.1475
▁respecte	-10.1478
▁différente	-10.1479
▁2001	-10.148
▁prospérité	-10.1501
▁reconnu	-10.1502
▁arrive	-10.1528
▁contribue	-10.1531
▁sortir	-10.1539
▁joué	-10.1556
▁privée	-10.1567
▁expliquer	-10.157
▁française	-10.1572
Irak	-10.1588
▁ferroviaire	-10.1592
▁influence	-10.1598
▁bientôt	-10.1599
▁gérer	-10.1599
▁approprié	-10.16
▁regrettable	-10.1604
H	-10.1605
▁Prodi	-10.1607
3	-10.1629
▁rend	-10.163
▁détails	-10.1636
examiner	-10.1636
f	-10.1638
▁continuent	-10.1644
appelle	-10.1646
▁entrer	-10.1655
▁perdu	-10.1659
▁prévoir	-10.1666
▁citer	-10.1671
▁existants	-10.1675
▁touche	-10.1675
▁organismes	-10.168
▁viennent	-10.1686
re	-10.1693
espoir	-10.1694
▁Croatie	-10.1698
▁ressort	-10.1701
▁1998	-10.1706
▁maximum	-10.1709
▁publicité	-10.1712
▁régler	-10.1714
▁chef	-10.1719
environnementaux	-10.1728
▁fais	-10.1728
▁culturel	-10.1732
▁essentielles	-10.174
▁ayons	-10.174
▁ré	-10.1756
transfrontalière	-10.1757
▁no	-10.1758
▁tentative	-10.1759
▁bases	-10.176
p	-10.1763
▁préalable	-10.1764
▁signé	-10.1771
▁menées	-10.1781
▁stocks	-10.1784
▁semblent	-10.179
▁urgent	-10.1791
▁terre	-10.1794
▁baisse	-10.1802
union	-10.1808
▁mutuelle	-10.1809
▁répéter	-10.1812
▁crédit	-10.1816
▁efficacité	-10.1819
internet	-10.1822
▁travaillent	-10.1843
▁aurions	-10.1844
▁crime	-10.1844
▁souveraineté	-10.1848
▁considéré	-10.1851
▁bout	-10.1874
▁capitale	-10.1877
▁satisfaction	-10.1878
▁introduit	-10.188
▁sincèrement	-10.1882
▁conserver	-10.1886
arrêt	-10.1889
▁Afrique	-10.1899
▁paroles	-10.1903
▁conseil	-10.1906
ne	-10.1912
▁activement	-10.1925
▁types	-10.1928
▁humaines	-10.1937
al	-10.1948
▁marge	-10.1949
octroi	-10.1951
▁élargissement	-10.1951
▁énergies	-10.196
▁sensible	-10.1963
▁menée	-10.1971
▁détail	-10.1978
n	-10.198
▁mouvement	-10.1982
instrument	-10.1983
▁2020	-10.1991
▁stratégies	-10.1995
u	-10.201
▁cycle	-10.2011
ée	-10.2012
▁opinion	-10.2014
▁exemples	-10.2023
▁considérons	-10.2024
▁livre	-10.203
▁finances	-10.2034
▁cultures	-10.2041
▁intéressant	-10.2044
4	-10.2045
▁sept	-10.2047
▁énergétiques	-10.206
▁réduit	-10.206
instant	-10.2062
▁arguments	-10.2073
▁déficit	-10.2076
▁visas	-10.2084
▁liée	-10.2085
▁industrie	-10.2086
avait	-10.209
▁premiers	-10.2112
▁ressortissants	-10.2119
▁mode	-10.213
▁laisse	-10.2138
invite	-10.2143
▁invite	-10.2144
▁restructuration	-10.2152
▁incombe	-10.2156
▁locaux	-10.2156
Inde	-10.2157
▁répète	-10.2157
▁vivement	-10.2161
▁avancées	-10.2163
▁24	-10.2165
▁moyenne	-10.2169
▁saluer	-10.2177
▁socialistes	-10.2194
▁ville	-10.2231
▁technologique	-10.2239
▁comportement	-10.2241
▁diminution	-10.2243
▁généralement	-10.2245
▁exportations	-10.2247
▁abordé	-10.2248
▁reconnaît	-10.2249
accorder	-10.2257
avais	-10.2261
▁denrées	-10.2266
▁visent	-10.2269
▁renforcée	-10.2276
▁passage	-10.2296
▁nord	-10.2318
encourager	-10.2321
▁centaines	-10.2322
▁conventions	-10.233
▁récente	-10.2331
▁fixé	-10.2332
▁britanniques	-10.2344
président	-10.235
augmenter	-10.2351
▁prévues	-10.2352
▁intégrée	-10.2353
▁rurales	-10.2363
▁prête	-10.2364
▁Nos	-10.2373
▁perte	-10.2391
▁partenaire	-10.2421
▁démarche	-10.243
▁postes	-10.2434
▁repose	-10.2438
▁indépendants	-10.2443
▁accroître	-10.2444
▁conduit	-10.246
▁spécial	-10.2463
agissait	-10.2466
▁comprend	-10.2468
▁répercussions	-10.2474
▁assumer	-10.248
▁présentation	-10.2483
▁Peut	-10.2486
▁utilisées	-10.2486
▁Grande	-10.2499
▁faibles	-10.2512
▁concrète	-10.2517
▁2,	-10.2518
▁frontière	-10.2529
▁I	-10.2529
▁1997	-10.2552
▁directe	-10.2556
▁concrets	-10.2559
▁brièvement	-10.2562
▁Avant	-10.2562
▁cent	-10.257
▁bénéfices	-10.257
États	-10.2571
▁disposent	-10.2572
it	-10.2575
▁conforme	-10.2578
°	-10.2585
▁Est	-10.2595
▁transfrontalier	-10.2597
▁provenant	-10.2597
5	-10.2604
▁connaissons	-10.2614
▁tellement	-10.2621
▁choisir	-10.2622
▁provenance	-10.2627
▁énergie	-10.2633
▁électronique	-10.2633
entendre	-10.2639
▁degré	-10.2646
▁prêt	-10.2651
accepter	-10.2655
où	-10.2656
▁habitants	-10.2665
▁basée	-10.2672
étiquetage	-10.2673
▁Roms	-10.2674
▁constructive	-10.2677
▁illégale	-10.2685
démocrates	-10.2688
▁électeurs	-10.269
▁taxes	-10.2695
avec	-10.2699
▁experts	-10.2709
▁reprendre	-10.2711
▁bons	-10.2711
▁destruction	-10.2714
▁dynamique	-10.2716
▁enquête	-10.2722
▁tête	-10.2726
▁soyons	-10.2728
▁significative	-10.2752
▁opinions	-10.2753
▁écologique	-10.2754
▁TVA	-10.2759
▁distribution	-10.2776
▁Serbie	-10.2781
▁drogue	-10.2783
▁fer	-10.2783
attitude	-10.2783
▁médiateur	-10.2787
▁apporte	-10.2787
▁comporte	-10.279
▁60	-10.2793
▁Quand	-10.2799
▁étroitement	-10.2802
▁pleine	-10.2808
adresse	-10.2817
▁accordée	-10.2818
▁taille	-10.2829
▁attentes	-10.283
▁clairs	-10.2835
▁devient	-10.2837
▁Comité	-10.2847
▁donnée	-10.2852
▁fonctionner	-10.2875
▁remettre	-10.2884
enquête	-10.2884
▁pratiquement	-10.2885
applique	-10.2887
▁connaissances	-10.2891
▁introduire	-10.2893
▁civiles	-10.2898
▁problématique	-10.2899
▁motion	-10.2908
▁reflète	-10.2916
amendements	-10.294
▁déposés	-10.2962
▁gros	-10.2964
▁duquel	-10.2968
▁version	-10.2982
▁solide	-10.2986
▁ports	-10.2988
▁derrière	-10.2991
▁retirer	-10.3003
▁essayer	-10.3013
▁avancée	-10.302
▁définitive	-10.3023
électricité	-10.3025
instar	-10.3027
dessus	-10.3034
▁tenue	-10.3041
▁agit	-10.3046
▁retraite	-10.3049
▁élaborer	-10.3056
▁inclure	-10.3065
▁strictes	-10.3067
▁contact	-10.308
▁quantité	-10.308
▁coopérer	-10.3091
▁fruits	-10.3092
▁voit	-10.3095
▁libéraux	-10.3109
aurais	-10.3117
▁exercer	-10.3124
honorable	-10.313
▁liens	-10.313
institutionnelle	-10.3131
rait	-10.3136
▁80	-10.3139
▁choisi	-10.3139
▁privés	-10.3144
▁thèmes	-10.3147
▁chiffre	-10.315
▁réside	-10.3165
▁participé	-10.3173
▁catégorie	-10.3176
▁internes	-10.318
▁opérateurs	-10.318
▁lié	-10.3182
▁Géorgie	-10.3182
▁missions	-10.3183
▁contrats	-10.3184
▁revenu	-10.3193
▁amis	-10.3194
approbation	-10.3199
▁pacifique	-10.3201
▁Belarus	-10.3205
▁mains	-10.3211
▁Allemagne	-10.3218
aucune	-10.3219
▁permettront	-10.3224
▁régionaux	-10.3228
▁Donc	-10.3233
▁civils	-10.3233
▁informer	-10.3236
▁caractéristique	-10.3238
▁Ceux	-10.3239
▁local	-10.324
▁anciens	-10.3249
▁rapporteure	-10.325
▁satisfaire	-10.3251
▁excellente	-10.3258
▁télévision	-10.3264
▁salaires	-10.3268
▁équilibré	-10.327
analyse	-10.3274
aucun	-10.3283
▁aériennes	-10.3284
écus	-10.3286
▁susceptibles	-10.3296
▁oui	-10.33
▁russe	-10.3321
▁Finlande	-10.3321
▁profondément	-10.3321
▁chercher	-10.3323
▁mené	-10.3324
▁voitures	-10.3347
▁prononcer	-10.3356
▁adoptés	-10.3356
▁Luxembourg	-10.3358
▁refus	-10.3364
▁dette	-10.3366
▁opportun	-10.3367
▁bureaucratie	-10.3368
▁examen	-10.3375
▁clarté	-10.3377
▁saisir	-10.338
▁fixés	-10.3387
▁destiné	-10.3392
armes	-10.3407
▁rejet	-10.3415
▁rappelé	-10.3422
de	-10.3423
▁Kyoto	-10.3424
▁chapitre	-10.3438
▁trouvons	-10.3438
▁1,	-10.344
S	-10.3444
▁industries	-10.3454
▁équilibrée	-10.3458
▁difficulté	-10.3471
or	-10.3474
empêcher	-10.3487
▁courant	-10.3493
▁somme	-10.3498
▁convenu	-10.3501
▁remplacer	-10.351
▁chimiques	-10.3511
▁confirmer	-10.3514
▁flux	-10.3514
▁échange	-10.352
▁âgées	-10.3526
▁vulnérables	-10.353
▁Rapport	-10.3531
▁disant	-10.3532
▁articles	-10.3533
▁contribuera	-10.3536
aborder	-10.3539
▁1996	-10.354
▁mettent	-10.3549
▁500	-10.355
introduire	-10.3564
▁suppose	-10.3569
Bretagne	-10.3569
environnementale	-10.357
▁23	-10.3583
inclusion	-10.3584
▁conduire	-10.3586
▁territoires	-10.3591
▁défaut	-10.3595
verbal	-10.3603
▁souhait	-10.3608
offre	-10.361
▁Nice	-10.3634
accroître	-10.3637
▁déclarer	-10.3638
▁transatlantique	-10.3638
▁compréhension	-10.3643
▁structurelles	-10.3652
▁pétitions	-10.3654
▁erreurs	-10.3657
▁détriment	-10.3658
▁contribuables	-10.3661
▁contacts	-10.3664
▁effectué	-10.3665
▁Quel	-10.3679
▁PIB	-10.3682
▁époque	-10.3685
▁crains	-10.3696
▁signe	-10.3701
▁exclusivement	-10.3702
▁Bosnie	-10.3711
▁usage	-10.3718
▁rejeter	-10.3723
avère	-10.3726
▁Non	-10.3729
importe	-10.374
▁discuté	-10.3742
▁êtres	-10.3745
▁complet	-10.3746
is	-10.3747
▁permanent	-10.3752
Israël	-10.3753
essentiel	-10.3763
▁automobile	-10.3771
▁négocier	-10.3783
▁pressions	-10.3786
▁vente	-10.3786
▁premièrement	-10.379
M	-10.3794
▁ravi	-10.38
▁intégration	-10.381
▁Sommet	-10.3818
imposer	-10.3824
▁riches	-10.3826
entreprises	-10.3827
▁installations	-10.3828
▁quinze	-10.3833
▁nécessite	-10.3837
▁poste	-10.384
▁relance	-10.3852
▁constaté	-10.3861
▁trait	-10.3869
▁professionnels	-10.3884
▁Barcelone	-10.3887
▁forêts	-10.3889
▁apparaît	-10.3893
▁minutes	-10.3893
▁représentation	-10.3904
▁futurs	-10.3905
▁attendent	-10.3909
▁venu	-10.391
▁répondu	-10.3912
▁remplir	-10.3916
▁demeure	-10.3916
▁régulièrement	-10.3917
midi	-10.3922
enfants	-10.3923
▁prisonniers	-10.3925
▁Corée	-10.3927
▁suffisant	-10.393
▁soulevé	-10.393
▁interdiction	-10.393
▁lacunes	-10.3941
étaient	-10.3945
▁accomplis	-10.3949
▁appropriées	-10.3958
▁surmonter	-10.3966
▁dirais	-10.3968
▁positives	-10.3988
étais	-10.3995
▁gauche	-10.3997
▁pénale	-10.3999
ées	-10.4002
▁motifs	-10.4005
▁convaincre	-10.4006
▁planète	-10.4006
▁distinction	-10.4013
▁chargé	-10.402
▁vérifier	-10.4022
▁latine	-10.4024
▁législations	-10.4031
D	-10.4033
▁bénéficient	-10.4033
▁centres	-10.4038
▁hauteur	-10.4044
▁évaluer	-10.405
▁conception	-10.4069
▁formulées	-10.4073
▁contributions	-10.4074
▁respectent	-10.4075
▁intégrer	-10.4075
▁véritables	-10.408
▁discutons	-10.4086
▁dommages	-10.4087
▁handicapées	-10.4093
▁menaces	-10.4095
▁pertes	-10.4096
▁patrimoine	-10.4101
▁allemande	-10.4109
▁milieu	-10.4111
▁continuera	-10.4113
▁bilan	-10.4114
▁huit	-10.4117
▁suffisante	-10.4135
▁rédigé	-10.4136
▁débattons	-10.4138
▁posé	-10.4141
▁racisme	-10.4142
▁gouvernementale	-10.4144
▁refuser	-10.4146
▁appliquées	-10.4149
▁obligation	-10.4153
▁intention	-10.4157
âge	-10.4161
ex	-10.4163
▁méritent	-10.4168
▁démontré	-10.4171
▁pire	-10.4175
▁22	-10.4188
▁commis	-10.422
▁précédemment	-10.4233
▁indépendante	-10.4236
▁visa	-10.4242
▁remerciements	-10.4247
▁américaine	-10.4251
▁approuver	-10.4254
▁engagés	-10.4256
▁annoncé	-10.4259
▁Hongrie	-10.4259
▁légitimité	-10.4264
▁conviction	-10.4277
▁revoir	-10.4279
ront	-10.4281
▁tenant	-10.4288
▁facilement	-10.4289
▁re	-10.4292
▁utilisée	-10.4303
▁consacré	-10.4305
▁auparavant	-10.4317
▁change	-10.4322
▁présentés	-10.4327
▁légitime	-10.4328
▁gagner	-10.4331
▁notion	-10.4334
▁satisfait	-10.4341
▁central	-10.4349
▁dé	-10.4354
accueil	-10.4358
appel	-10.4362
▁volontaire	-10.4363
▁clés	-10.4366
▁sert	-10.4367
▁connaissent	-10.4383
▁scène	-10.4391
&	-10.4392
▁Belgique	-10.4393
COM	-10.4393
▁formulation	-10.4396
▁argent	-10.44
▁élus	-10.4402
▁histoire	-10.441
6	-10.4412
▁dépendance	-10.4414
agisse	-10.4415
▁Japon	-10.4424
excellent	-10.4429
▁minorité	-10.4433
agenda	-10.4434
▁savent	-10.4441
▁initiale	-10.4449
▁carbone	-10.445
ques	-10.4451
▁harmonisation	-10.4459
▁présentent	-10.4465
▁Pakistan	-10.4466
▁indique	-10.4472
▁PSE	-10.4477
▁fonctions	-10.4478
▁urgence	-10.4482
▁clarifier	-10.4485
approuve	-10.4488
▁sensibles	-10.4489
▁rejeté	-10.4489
▁administrative	-10.4491
▁stratégiques	-10.4499
▁modernisation	-10.4503
▁cher	-10.4506
▁intentions	-10.4511
▁crée	-10.4512
▁adresser	-10.4513
▁preuves	-10.4514
▁existant	-10.452
▁justifier	-10.4524
▁abus	-10.4533
▁dossiers	-10.4535
▁31	-10.4538
▁Toutes	-10.454
▁intérieure	-10.4543
▁extraordinaire	-10.4544
▁lire	-10.4549
▁affirmer	-10.4554
institutionnel	-10.4557
▁génération	-10.457
▁signature	-10.457
▁destinée	-10.4571
▁appartient	-10.4573
▁substance	-10.4586
▁serre	-10.4592
iez	-10.46
▁dites	-10.4602
étendre	-10.4605
▁nettement	-10.4609
▁fiscales	-10.4618
▁tonnes	-10.462
▁demandent	-10.4631
▁écoles	-10.4632
▁Traités	-10.4633
▁peur	-10.4639
▁dangereuses	-10.464
▁assistance	-10.4642
▁direct	-10.4644
▁retrait	-10.4645
▁prenne	-10.4648
▁MM	-10.4648
▁accidents	-10.4654
▁engagée	-10.4655
▁acquis	-10.4655
▁moderne	-10.4655
▁inutile	-10.4658
effet	-10.466
▁souci	-10.4665
▁Certes	-10.4667
▁Irak	-10.4687
▁sexuelle	-10.469
▁souhaitable	-10.4693
▁normal	-10.4701
▁Objet	-10.4704
▁recettes	-10.4708
▁différent	-10.4716
▁augmenté	-10.4717
autorisation	-10.472
▁Baltique	-10.472
▁BCE	-10.4727
▁croissante	-10.4735
▁finale	-10.4741
▁applicables	-10.4743
▁attend	-10.4753
▁allemand	-10.4756
▁regard	-10.4765
▁espagnole	-10.4773
instauration	-10.4784
▁recourir	-10.4785
▁Qui	-10.4788
▁naturel	-10.4791
extérieur	-10.4795
▁affirmé	-10.4798
▁jeunesse	-10.4802
▁outil	-10.4808
▁disent	-10.4814
émission	-10.4814
▁possède	-10.482
▁tenus	-10.483
▁espérer	-10.4831
ications	-10.4835
▁drogues	-10.4837
▁%.	-10.4847
▁quelqu	-10.4853
échec	-10.4855
▁atteinte	-10.4859
Autriche	-10.486
▁prie	-10.4863
extension	-10.4871
▁hui	-10.4878
▁remarquable	-10.488
élaborer	-10.4882
▁2006	-10.4884
▁faute	-10.4902
▁légale	-10.4907
▁charges	-10.491
▁van	-10.4917
▁appliquée	-10.4921
PT	-10.4924
▁bénéficiaires	-10.4927
▁Italie	-10.4927
ais	-10.4928
▁rencontre	-10.493
▁devenu	-10.4934
▁Cuba	-10.4937
▁religion	-10.4937
▁présentées	-10.4945
▁considérée	-10.4945
▁chaîne	-10.4948
▁parents	-10.4958
▁télécommun	-10.4959
▁sûre	-10.496
▁Bureau	-10.4964
▁combat	-10.4968
▁prétexte	-10.4979
5-	-10.4986
▁répond	-10.4988
▁engager	-10.499
▁Van	-10.4991
▁leçons	-10.4992
▁concrètement	-10.4995
▁temporaire	-10.4995
▁prochains	-10.5
▁consacrer	-10.5001
▁Tel	-10.5009
▁exprimées	-10.5009
▁pénal	-10.5015
▁soumise	-10.503
▁voudrions	-10.5036
▁inquiétude	-10.5037
▁qualifiée	-10.5039
▁Danemark	-10.5053
▁convaincue	-10.5056
▁indiquer	-10.5057
adapter	-10.5064
▁instamment	-10.5069
▁entraîne	-10.507
▁précédente	-10.5071
▁simplifier	-10.5085
▁Maastricht	-10.5103
▁considérations	-10.5103
▁pensent	-10.5104
▁mettant	-10.5109
▁limitée	-10.5109
▁réaliste	-10.5109
▁siège	-10.5112
▁élaboré	-10.5112
▁étrangers	-10.5119
acquis	-10.5119
▁garantissant	-10.512
▁28	-10.5133
▁repris	-10.5151
▁2010	-10.5153
humanité	-10.517
▁sûreté	-10.5193
▁pencher	-10.5195
▁expériences	-10.5196
▁jeudi	-10.5197
▁exiger	-10.5204
▁chaleureusement	-10.5209
▁durabilité	-10.5215
▁utiles	-10.5216
▁déclare	-10.5217
▁changé	-10.522
▁pouvant	-10.522
▁remédier	-10.5226
▁200	-10.5236
alimentation	-10.5238
▁catégories	-10.5239
▁contribuent	-10.5253
▁corps	-10.5261
▁profonde	-10.5262
eux	-10.5265
▁espèces	-10.5266
▁développés	-10.5269
▁pensions	-10.5271
non	-10.5274
▁supérieur	-10.5276
▁minimales	-10.5284
▁évoquer	-10.5288
▁R	-10.5296
▁citoyenneté	-10.53
▁manifestement	-10.5302
▁1995	-10.5305
▁heureuse	-10.5309
▁Etats	-10.531
▁accordé	-10.5311
▁appris	-10.5311
▁sauvegarde	-10.532
▁marque	-10.5329
▁tente	-10.5329
▁négatif	-10.533
▁voies	-10.5343
élimination	-10.5351
purement	-10.5353
▁merci	-10.5353
▁seuil	-10.5353
▁judiciaires	-10.5359
▁guère	-10.5362
aurait	-10.5363
▁élu	-10.5364
g	-10.5371
▁permanente	-10.5383
▁approfondie	-10.5385
adaptation	-10.5386
▁climatiques	-10.5386
▁actif	-10.5395
▁fallait	-10.5397
▁candidat	-10.5402
▁appliqué	-10.5402
évaluer	-10.5403
▁librement	-10.5403
▁intellectuelle	-10.5405
▁absolue	-10.5413
▁criminels	-10.542
▁sort	-10.5429
m	-10.544
▁côtés	-10.5442
▁levée	-10.5442
▁voyons	-10.5443
▁CE	-10.5445
orientation	-10.5451
▁territoriale	-10.5452
▁irlandaise	-10.5454
▁voulais	-10.5454
▁quelconque	-10.5457
ampleur	-10.5461
▁cruciale	-10.5467
▁libres	-10.5467
▁Berlin	-10.5472
▁souhaité	-10.5473
▁ouvrir	-10.548
▁aéroports	-10.5484
▁portent	-10.5484
▁couvrir	-10.5484
▁réels	-10.5493
▁extérieur	-10.5494
▁alternatives	-10.5494
▁occidentaux	-10.5501
▁élevées	-10.5505
▁Jusqu	-10.5506
▁démontre	-10.5508
▁Députés	-10.5509
▁obstacle	-10.551
▁commence	-10.5514
▁investir	-10.5514
▁charte	-10.5516
▁répression	-10.5518
▁limité	-10.5518
▁tenté	-10.5539
▁Grâce	-10.5541
▁fil	-10.5542
▁renforcé	-10.5542
▁demi	-10.5543
▁réglementaire	-10.5544
▁autorité	-10.5555
▁Son	-10.5559
ESB	-10.556
▁promesses	-10.5578
Asie	-10.5583
▁fourni	-10.5588
▁générations	-10.5589
▁suivants	-10.5594
air	-10.5596
▁flotte	-10.5598
▁confirmé	-10.56
▁réductions	-10.5618
considérablement	-10.5621
▁partager	-10.5626
▁étions	-10.5631
b	-10.5631
▁systématique	-10.5644
▁Macédoine	-10.5659
▁cite	-10.5665
▁vital	-10.5675
▁prendra	-10.5676
▁campagnes	-10.5676
▁90	-10.5679
▁26	-10.5681
issue	-10.5682
attaquer	-10.5688
▁recommande	-10.5692
▁décennies	-10.5693
▁Palestiniens	-10.5701
▁transparente	-10.5707
▁espagnol	-10.5713
▁Chaque	-10.5714
▁défini	-10.5715
▁brevets	-10.5716
▁correspond	-10.5721
▁impliqués	-10.5725
unité	-10.5727
▁similaires	-10.573
▁partageons	-10.5732
▁reconnaissant	-10.5737
▁stimuler	-10.5742
▁coordonner	-10.5743
▁indispensables	-10.5745
▁feront	-10.5748
▁informé	-10.576
rons	-10.5771
Agenda	-10.5772
▁prenons	-10.5777
▁engagé	-10.5778
▁constamment	-10.5783
▁conservation	-10.5789
▁collaborer	-10.5794
▁moteur	-10.5799
▁appelé	-10.58
ouvrir	-10.581
▁voient	-10.5811
▁puissance	-10.5811
▁transactions	-10.5811
▁particuliers	-10.5813
▁posée	-10.5817
▁Américains	-10.5819
▁suédoise	-10.5822
▁associations	-10.5822
▁juge	-10.5823
▁journalistes	-10.5826
O	-10.5833
▁nuit	-10.5835
▁suit	-10.5839
▁Slovaquie	-10.5843
▁attentivement	-10.5844
▁critère	-10.5847
▁transformation	-10.5853
▁publié	-10.5857
▁planification	-10.5861
▁simples	-10.5869
▁tests	-10.5871
étude	-10.5872
▁électorale	-10.5875
▁posent	-10.5881
▁élargie	-10.5891
▁adéquat	-10.5899
▁bref	-10.5901
▁printemps	-10.5903
L	-10.5903
▁indépendant	-10.5905
▁progressivement	-10.5905
aller	-10.5913
▁intégré	-10.5917
▁accorde	-10.5922
▁salariés	-10.5925
▁effective	-10.5929
▁minute	-10.5937
▁Quoi	-10.5939
▁envisage	-10.5942
▁biodiversité	-10.5945
influence	-10.5959
▁considérant	-10.5962
▁développements	-10.5966
▁fiscalité	-10.597
▁mi	-10.5974
▁agence	-10.5975
▁collecte	-10.5978
▁transit	-10.5982
▁politiquement	-10.5985
▁belge	-10.5992
▁américains	-10.6008
▁spécifiquement	-10.6008
actions	-10.6016
▁palestinien	-10.6018
▁transmettre	-10.6018
▁constructif	-10.6023
▁géographique	-10.6029
▁jouent	-10.6041
▁applicable	-10.6041
▁Compte	-10.6043
▁concret	-10.6047
intégrer	-10.6049
▁modalités	-10.6056
▁fassent	-10.6061
▁législature	-10.608
▁instaurer	-10.6081
▁70	-10.6083
▁libération	-10.6086
▁attaques	-10.6087
▁carte	-10.6088
▁opposés	-10.6105
œuvre	-10.6129
▁tiendra	-10.613
▁correcte	-10.6131
▁conscient	-10.6131
▁rétablir	-10.6132
▁montants	-10.6135
▁affirme	-10.6137
attends	-10.6139
▁doutes	-10.6152
▁sucre	-10.6154
auteur	-10.6154
▁Telle	-10.6156
▁Parti	-10.616
▁avantage	-10.6165
▁stable	-10.6168
▁retards	-10.6169
ajouter	-10.6172
▁bienvenue	-10.6173
▁observations	-10.6174
▁Parmi	-10.6198
étranger	-10.6198
▁informés	-10.62
organiser	-10.6205
▁aboutir	-10.6209
▁rapprocher	-10.6212
▁heure	-10.6223
▁satisfaisante	-10.6225
▁soulever	-10.6228
occurrence	-10.6229
▁garantit	-10.6237
▁italien	-10.624
▁tragédie	-10.6246
▁formule	-10.625
▁demandeurs	-10.6256
▁prévus	-10.6257
▁plaintes	-10.6257
▁dirai	-10.626
▁opposition	-10.6264
▁immédiate	-10.6266
▁échelle	-10.6266
▁cherche	-10.6268
▁contrairement	-10.6268
▁conseils	-10.6281
▁Genève	-10.6284
▁Espagne	-10.6285
▁devienne	-10.6294
aspect	-10.6304
▁quatrième	-10.6313
▁communications	-10.6322
▁proposons	-10.6322
▁doter	-10.6326
▁précédents	-10.6329
ommercialisation	-10.6338
▁condamner	-10.635
▁3,	-10.6357
▁suédois	-10.6358
▁Gaza	-10.6373
▁bord	-10.6379
▁morts	-10.6382
▁Maroc	-10.6386
▁Afin	-10.6392
▁représenter	-10.6393
▁vivant	-10.6396
▁préjudice	-10.6404
▁diminuer	-10.6413
▁cancer	-10.6417
▁suivantes	-10.6417
oublions	-10.6419
▁outils	-10.6419
▁récents	-10.642
▁opportunités	-10.6425
▁récentes	-10.6426
apprentissage	-10.6431
▁compensation	-10.6443
▁donnent	-10.6447
▁consolider	-10.6452
9	-10.6454
▁bâtiments	-10.6463
▁îles	-10.6478
▁culturels	-10.6478
▁résistance	-10.6481
▁million	-10.6482
0	-10.6483
▁contradiction	-10.6487
▁milliard	-10.6488
▁discriminations	-10.6496
▁sérieuse	-10.6498
▁mondiaux	-10.65
▁transformer	-10.65
affaires	-10.6502
▁droite	-10.6503
▁industriels	-10.6507
▁culturelles	-10.6511
▁modifié	-10.6512
▁voilà	-10.6513
▁fermeture	-10.6513
ancien	-10.6514
▁espère	-10.6518
▁deuxièmement	-10.6521
▁respecté	-10.6525
▁dégâts	-10.6526
▁programmation	-10.6526
aviation	-10.6526
▁opportunité	-10.653
us	-10.6538
▁progressive	-10.6542
▁promis	-10.6543
P	-10.6544
▁insiste	-10.6554
Alliance	-10.6566
▁retrouver	-10.6571
▁italienne	-10.6572
▁souffrent	-10.6572
▁précises	-10.6573
▁humanitaires	-10.6576
▁pension	-10.6578
▁sûrs	-10.6583
age	-10.6584
▁cesser	-10.6585
▁renforce	-10.659
▁permette	-10.6593
▁stabilisation	-10.6597
▁dollars	-10.661
impose	-10.6613
▁imposées	-10.6616
▁prioritaires	-10.6616
T	-10.6623
▁Internet	-10.6636
▁périodes	-10.6638
▁consolidation	-10.6648
▁socio	-10.6652
▁ferons	-10.6671
▁devenue	-10.6676
▁conclus	-10.6685
▁tribunal	-10.6688
▁disons	-10.6688
▁signalé	-10.669
▁inclus	-10.6699
▁croissant	-10.67
appui	-10.6704
▁occasions	-10.6705
▁hommage	-10.6708
▁privées	-10.6717
▁sites	-10.6726
▁tribunaux	-10.6727
▁législatifs	-10.6733
▁pourcentage	-10.6741
▁T	-10.6745
▁voyage	-10.6747
▁transposition	-10.6753
▁F	-10.6757
La	-10.6767
▁génétiquement	-10.6768
▁éventuellement	-10.6769
▁confirme	-10.6773
▁spécialement	-10.6775
▁bilatéraux	-10.6779
▁venons	-10.6779
▁recherches	-10.6782
▁assisté	-10.6786
▁animale	-10.679
▁mouvements	-10.6795
▁impliquant	-10.6799
▁accomplir	-10.6803
▁circonscription	-10.6812
▁diffusion	-10.6813
▁démocratisation	-10.6819
armée	-10.6819
▁officielle	-10.6825
▁fiscaux	-10.6826
ch	-10.6826
exercer	-10.6832
▁auteurs	-10.6836
▁routes	-10.6843
▁modèles	-10.6843
▁allant	-10.6846
▁séjour	-10.6847
▁tentatives	-10.6849
▁justifie	-10.6858
▁veille	-10.6859
▁mainte	-10.6864
▁compétentes	-10.6869
▁»	-10.6872
▁félicitations	-10.6879
▁Oui	-10.688
▁concentration	-10.6887
▁personnelle	-10.689
▁alternative	-10.689
ancienne	-10.6891
▁structurelle	-10.6896
▁Afghanistan	-10.6902
▁confusion	-10.6907
ores	-10.6918
▁libéral	-10.6932
▁établissant	-10.6932
▁susceptible	-10.6941
▁étudiants	-10.6941
▁admettre	-10.6943
▁entraîné	-10.6943
BC	-10.6945
▁Canada	-10.696
▁massive	-10.6972
effort	-10.6977
▁soutenue	-10.6978
▁exploitations	-10.698
▁convaincus	-10.6981
▁profondeur	-10.6982
▁primordial	-10.6984
▁ça	-10.6993
▁soutiennent	-10.6995
▁bénéfice	-10.6995
▁éliminer	-10.6998
▁employés	-10.7016
▁Sa	-10.7018
▁devaient	-10.702
▁locale	-10.7021
▁utilisateurs	-10.7022
▁dégager	-10.7026
▁seules	-10.7027
▁sinon	-10.7035
▁secrétaire	-10.7036
▁29	-10.7039
▁laissé	-10.704
▁Parallèlement	-10.704
▁envoyer	-10.7041
infrastructure	-10.7045
▁déployés	-10.7047
▁touchés	-10.7048
▁organiser	-10.705
▁partant	-10.7053
▁bureau	-10.706
▁allusion	-10.706
▁particulières	-10.7063
▁nécessairement	-10.7068
▁espoir	-10.7075
▁neuf	-10.7081
▁Toute	-10.7081
▁complémentaire	-10.7083
▁couvre	-10.7088
▁bénéficie	-10.709
▁Lituanie	-10.7094
▁reçoivent	-10.7094
▁rendent	-10.7096
▁Rome	-10.7115
▁f	-10.7116
▁constatons	-10.7116
▁chrétiens	-10.7124
▁contraintes	-10.7132
▁généraux	-10.7135
▁Birmanie	-10.7135
▁occupe	-10.714
▁concrétiser	-10.7142
▁compléter	-10.7149
▁insisté	-10.7149
▁écouté	-10.7152
exception	-10.7157
▁surveiller	-10.7158
identité	-10.7158
▁manifeste	-10.7161
▁lancement	-10.7178
▁volume	-10.7179
importation	-10.7182
▁résolu	-10.7182
▁parvenu	-10.7187
▁examiné	-10.7192
▁communiste	-10.7201
▁silence	-10.7203
▁organe	-10.7205
▁turc	-10.7206
▁enquêtes	-10.721
▁rejoindre	-10.721
▁récent	-10.7212
▁tenons	-10.7224
▁soumises	-10.7225
▁disponible	-10.7227
▁directeur	-10.7228
▁deviennent	-10.7234
▁pièces	-10.725
▁inégalités	-10.7251
experts	-10.7256
▁prison	-10.7257
▁rythme	-10.7259
instaurer	-10.7262
▁fondement	-10.7264
▁compétitive	-10.7269
▁salaire	-10.7269
enfant	-10.7272
▁encourage	-10.7272
▁présidente	-10.7277
▁pro	-10.7279
▁vin	-10.7299
▁Leur	-10.7301
institution	-10.7304
▁administration	-10.7324
▁échec	-10.7325
alcool	-10.733
▁syndicats	-10.7341
▁impose	-10.7364
▁entraîner	-10.7369
20	-10.737
#	-10.737
▁2000.	-10.7377
▁faux	-10.7378
▁35	-10.7378
▁torture	-10.7388
▁figurent	-10.7389
▁débattu	-10.7389
▁combler	-10.7391
▁troupes	-10.7392
▁complexes	-10.7398
▁journée	-10.7403
▁énormes	-10.7406
▁ultrapériphéri	-10.741
▁Zimbabwe	-10.7412
inflation	-10.7422
▁accélérer	-10.7427
E	-10.7429
▁routier	-10.743
opportunité	-10.7433
▁polonais	-10.7439
▁terres	-10.7444
▁requiert	-10.7447
▁tradition	-10.7455
insiste	-10.7469
ré	-10.7472
▁adéquates	-10.7473
▁utilisant	-10.7475
▁Mes	-10.7478
▁risquent	-10.749
▁souhaiter	-10.7492
▁finir	-10.7502
▁électroniques	-10.7502
▁voulez	-10.7503
▁refuse	-10.7506
▁longues	-10.7506
▁travaille	-10.7509
ro	-10.7517
▁demandant	-10.7525
▁suggère	-10.7529
▁cinquième	-10.753
lusieurs	-10.7539
▁parallèlement	-10.7541
▁manifestations	-10.7542
▁sauf	-10.7548
▁Du	-10.755
ALE	-10.7557
interprétation	-10.7563
▁néerlandais	-10.7567
▁multinationales	-10.7568
▁traditions	-10.757
▁monétaires	-10.7575
▁2006,	-10.7576
▁investisseurs	-10.7585
▁majeurs	-10.7588
IT	-10.7589
ajustement	-10.7592
▁éventuelle	-10.7594
▁personnelles	-10.7598
▁relèvent	-10.7602
▁maritimes	-10.7606
▁indépendance	-10.7607
▁mène	-10.7607
▁passant	-10.7613
image	-10.7614
▁banque	-10.7615
▁fortes	-10.7618
▁dizaines	-10.7623
▁multiples	-10.7628
▁renoncer	-10.7633
▁options	-10.7637
▁définis	-10.764
▁jugement	-10.7647
apprécie	-10.765
▁entrepris	-10.7653
▁adopte	-10.7656
▁Tchétchénie	-10.7668
▁forum	-10.7673
▁durables	-10.7675
▁ex	-10.7678
▁ambitions	-10.768
▁conformité	-10.7683
▁démontrer	-10.7685
OLAF	-10.7685
▁universel	-10.7685
▁désir	-10.7685
▁vitesse	-10.7688
▁compétente	-10.769
▁fourniture	-10.7695
▁basé	-10.7697
ie	-10.7698
attendre	-10.77
▁orale	-10.7705
▁4,	-10.7705
▁obligatoires	-10.7711
▁spéciale	-10.7716
▁détention	-10.7724
▁individuels	-10.7727
▁migrants	-10.7727
CEE	-10.7729
▁préoccupe	-10.7735
▁suggestions	-10.7745
▁négatifs	-10.7745
hier	-10.7746
▁marche	-10.775
▁serais	-10.7755
honneur	-10.7758
▁CIG	-10.7763
approuver	-10.7774
▁ethniques	-10.7776
▁chute	-10.7776
▁américaines	-10.7778
▁fondé	-10.7781
▁consistant	-10.7784
▁participent	-10.7786
▁régulation	-10.7791
temps	-10.7792
▁respectés	-10.7796
▁numérique	-10.7804
▁poisson	-10.7804
▁obtenus	-10.7805
▁événement	-10.7806
▁restera	-10.7808
▁assemblée	-10.781
▁palestinienne	-10.7812
▁rencontré	-10.7818
▁Cher	-10.7823
raient	-10.7828
▁violences	-10.7844
▁complémentaires	-10.7869
▁écologiques	-10.7869
▁contenter	-10.787
▁produisent	-10.7873
▁matériel	-10.7883
▁aborde	-10.7886
▁refusé	-10.7894
accords	-10.7894
▁comprennent	-10.7894
▁portugaise	-10.7897
adresser	-10.7899
▁prenant	-10.79
▁tiennent	-10.7903
▁expliqué	-10.7908
▁relevant	-10.7908
▁porté	-10.7915
▁bateaux	-10.7916
offrir	-10.7919
▁norme	-10.7922
▁communiquer	-10.7923
▁essayé	-10.7923
▁GUE	-10.7924
▁précaution	-10.7929
▁légitimes	-10.7933
▁oral	-10.7937
▁exprimée	-10.7946
▁poissons	-10.7947
▁p	-10.7948
▁sauver	-10.7958
▁fournisseurs	-10.7958
▁employeurs	-10.7966
▁sang	-10.797
inclure	-10.7971
▁rigueur	-10.7975
▁fournit	-10.7979
▁ratifié	-10.7981
▁similaire	-10.7989
▁entamer	-10.7989
▁opposé	-10.799
▁tolérance	-10.799
expliquer	-10.7993
▁hémicycle	-10.7996
▁modes	-10.8006
▁hautement	-10.8012
▁devions	-10.8017
efforts	-10.8028
usage	-10.8029
▁transeuropéens	-10.8031
échelon	-10.8038
intervenir	-10.8038
▁devez	-10.804
▁augmente	-10.8056
UEM	-10.8058
▁craintes	-10.8064
Afghanistan	-10.8068
▁exception	-10.8071
▁décisif	-10.8071
▁tort	-10.8075
▁uniforme	-10.8079
intérêts	-10.808
▁consultations	-10.8082
▁détaillée	-10.8082
▁victime	-10.8086
▁division	-10.8086
▁taxation	-10.8087
▁réussir	-10.8092
▁concerné	-10.8093
▁réjouir	-10.8099
▁agriculture	-10.81
▁énormément	-10.8102
animaux	-10.8106
▁proches	-10.8108
▁envoyé	-10.8118
▁indépendamment	-10.8125
▁encourageant	-10.8126
▁interdit	-10.8133
▁b	-10.8136
débat	-10.8136
▁limitation	-10.8141
▁navigation	-10.8147
▁définies	-10.8153
▁significatif	-10.8154
▁foi	-10.8158
▁aériens	-10.8166
▁prioritaire	-10.8167
économique	-10.8174
▁utilisent	-10.8174
▁chinois	-10.8192
▁Doha	-10.8193
▁mobilisation	-10.8193
▁respectant	-10.8201
▁déplore	-10.8202
▁divergences	-10.8204
▁grec	-10.8207
Autorité	-10.8212
▁Londres	-10.8215
▁OGM	-10.822
▁démographique	-10.8223
▁croyons	-10.8223
▁Celui	-10.8232
▁lieux	-10.8232
▁russes	-10.8232
I	-10.8235
▁Palestine	-10.8238
▁nation	-10.8241
▁rares	-10.8247
▁genres	-10.825
▁confrontée	-10.8257
▁effectuer	-10.8258
▁faim	-10.8261
▁coordonnée	-10.8263
▁voterons	-10.8263
▁fermer	-10.8276
▁noter	-10.8284
▁ferait	-10.8286
▁feu	-10.829
▁textile	-10.8292
▁ouverture	-10.8296
▁condamnation	-10.83
▁destination	-10.83
▁individus	-10.8306
▁nomination	-10.8307
▁Affaire	-10.8311
▁règne	-10.8312
▁Deux	-10.8313
▁prudence	-10.8315
▁dangers	-10.8316
▁aérienne	-10.8316
▁publication	-10.8319
▁clauses	-10.832
▁qualifications	-10.8322
▁anniversaire	-10.8324
imposition	-10.8327
te	-10.833
▁arrivé	-10.833
▁collective	-10.8336
▁su	-10.8342
▁composition	-10.8346
▁réduite	-10.8349
▁h	-10.835
▁précédentes	-10.8351
▁réformer	-10.8353
▁prouve	-10.8362
end	-10.8367
▁fixe	-10.8373
NGL	-10.8377
▁travaillons	-10.8378
▁H	-10.8382
▁participants	-10.8395
▁2009.	-10.8395
▁inviter	-10.841
▁contraignant	-10.8416
▁immigrants	-10.8419
▁négatives	-10.8421
▁Outre	-10.8423
inscrit	-10.8429
▁crédible	-10.8431
▁report	-10.8432
▁prouver	-10.8435
que	-10.8449
▁mention	-10.8454
▁rapprochement	-10.8455
▁ethnique	-10.8455
▁assurément	-10.8456
achat	-10.8474
▁posées	-10.8476
▁considérés	-10.8489
▁dépendent	-10.8495
▁émis	-10.8501
▁entrée	-10.8501
▁lever	-10.8502
▁arrêter	-10.8502
▁touchées	-10.8529
▁suffisantes	-10.8533
▁inondations	-10.8533
▁signer	-10.8536
▁brut	-10.8538
▁établies	-10.8538
▁Dublin	-10.854
▁Certaines	-10.8548
▁plafond	-10.8549
▁commentaire	-10.855
▁considèrent	-10.8556
▁feuille	-10.8558
▁favorablement	-10.8561
envisager	-10.8569
▁hélas	-10.8572
▁exprimés	-10.8573
▁mineurs	-10.8577
▁site	-10.8583
▁barrières	-10.8588
▁immigrés	-10.859
PL	-10.8592
▁Malte	-10.8595
ner	-10.8611
▁dumping	-10.8612
▁accepte	-10.8622
▁profite	-10.8625
▁argument	-10.8626
▁étapes	-10.8636
▁incendies	-10.864
▁soviétique	-10.8645
▁prends	-10.865
▁valable	-10.865
▁judicieux	-10.8659
▁prochainement	-10.8667
▁conjointement	-10.8669
▁passée	-10.8672
▁stockage	-10.8675
▁Brésil	-10.8675
▁300	-10.8675
▁rechercher	-10.8678
ti	-10.8681
▁vies	-10.8682
▁Penda	-10.8686
▁constante	-10.8687
▁exposé	-10.869
▁implications	-10.8697
▁écrite	-10.8705
▁E	-10.8707
▁2011	-10.8707
▁mines	-10.871
imposent	-10.8715
▁chargée	-10.8717
▁2010.	-10.8724
▁partisans	-10.8728
▁préservation	-10.8731
▁migration	-10.8733
▁atteints	-10.8737
▁chemins	-10.8738
▁charbon	-10.8739
▁explicitement	-10.8741
▁routière	-10.8741
▁Tant	-10.8742
▁eau	-10.8743
▁modifiant	-10.8747
▁volet	-10.8749
▁indicateurs	-10.875
▁appeler	-10.8751
▁poursuit	-10.8755
▁directs	-10.8756
▁préférable	-10.8763
▁test	-10.8763
exprime	-10.8765
▁actifs	-10.8769
▁fallu	-10.8771
▁établit	-10.8781
▁placer	-10.8781
oppose	-10.8784
▁soin	-10.879
occupation	-10.8792
élevage	-10.8792
▁échéant	-10.8795
R	-10.8796
▁négative	-10.8803
▁intervenants	-10.8805
▁piliers	-10.8808
▁Europol	-10.8811
▁tensions	-10.8812
▁contenues	-10.8812
aura	-10.8814
▁universités	-10.8816
▁physique	-10.8819
▁BEI	-10.882
▁bois	-10.8827
▁absurde	-10.883
ir	-10.8831
▁2010,	-10.8835
▁réconciliation	-10.8835
▁hongroise	-10.8842
▁entreprendre	-10.885
▁appelons	-10.8851
▁Personne	-10.8852
▁brevet	-10.8861
▁juger	-10.8861
▁richesse	-10.887
▁arrière	-10.8878
▁complexité	-10.8892
▁concertation	-10.8893
té	-10.89
▁rencontrer	-10.8903
▁religieuses	-10.8905
▁totalité	-10.8919
▁rubrique	-10.892
▁grandement	-10.892
▁ignorer	-10.8921
▁appels	-10.8923
▁Tunisie	-10.8923
▁exigence	-10.893
▁bancaire	-10.8936
▁estimé	-10.8946
▁résulte	-10.8946
annexe	-10.8946
▁quasi	-10.8955
▁adhérer	-10.8957
▁gravité	-10.8957
▁globalement	-10.8959
▁stricte	-10.8962
▁rejette	-10.8964
▁clandestine	-10.8967
ing	-10.8971
▁masse	-10.8981
actualité	-10.8987
▁observer	-10.8987
▁urgente	-10.8989
▁rédaction	-10.899
▁entamé	-10.8991
▁chômeurs	-10.8992
▁impliquées	-10.8997
▁expressément	-10.8998
▁avancé	-10.9002
▁nourriture	-10.9007
▁fictifs	-10.9009
▁lait	-10.9014
▁Patten	-10.9023
▁camps	-10.9028
▁vues	-10.9031
▁vendredi	-10.9032
▁objet	-10.9032
▁Ministre	-10.9035
▁égalité	-10.9035
▁camp	-10.904
▁juridiquement	-10.9042
▁donnera	-10.9045
▁regarder	-10.9055
▁excessive	-10.9057
▁douze	-10.9073
▁danois	-10.9081
▁absence	-10.9089
▁saluons	-10.9089
▁potentiels	-10.909
▁issus	-10.9094
▁co	-10.9094
bas	-10.9096
▁modifiés	-10.9097
▁union	-10.9097
▁apportée	-10.9106
▁distance	-10.9109
▁présentant	-10.9114
▁instances	-10.9123
▁extrême	-10.9125
▁agi	-10.9128
▁dépasse	-10.9128
▁voudrait	-10.9131
▁Rien	-10.9139
▁péril	-10.914
▁pesticides	-10.9141
▁approuvée	-10.9144
▁agents	-10.9147
▁réjouissons	-10.9148
▁pré	-10.9152
▁étendre	-10.9157
▁flexible	-10.916
▁dictature	-10.9168
▁fiscal	-10.9168
ambition	-10.917
▁traduire	-10.9173
▁compagnie	-10.9176
▁provoqué	-10.9177
▁décisionnel	-10.9184
▁soulève	-10.9203
▁adoptant	-10.9207
el	-10.921
▁ferai	-10.9211
▁satisfaits	-10.9218
▁saurait	-10.9219
▁historiques	-10.9223
▁vivons	-10.9223
OSCE	-10.9223
▁partiellement	-10.9224
▁Celle	-10.9225
▁décisive	-10.9227
▁K	-10.9229
▁conservateurs	-10.923
▁attentats	-10.9235
▁apportées	-10.9251
▁quantités	-10.9252
▁invité	-10.9253
▁terroriste	-10.9253
▁Suisse	-10.9265
▁Liban	-10.9265
▁biocarburants	-10.9267
arrêter	-10.9268
▁ambitieuse	-10.927
▁déficits	-10.9276
▁réglementer	-10.9277
▁secret	-10.9278
▁prouvé	-10.9287
▁quotidienne	-10.9293
▁servent	-10.93
▁instant	-10.9301
▁substantielle	-10.9302
▁biologique	-10.9303
▁correct	-10.9305
▁désaccord	-10.9308
entends	-10.931
▁Solana	-10.9316
v	-10.9322
▁Syrie	-10.9324
▁Maintenant	-10.9325
▁rémunération	-10.9329
▁technologiques	-10.9334
▁administrations	-10.9337
▁faisait	-10.9339
▁option	-10.9341
▁dérogation	-10.9346
▁fossé	-10.935
▁recyclage	-10.935
▁incontestable	-10.9353
▁science	-10.9355
▁familiale	-10.9367
▁disait	-10.9367
été	-10.937
avancer	-10.9371
▁corriger	-10.9371
▁comités	-10.9372
▁vague	-10.9387
▁ALDE	-10.9393
▁Entre	-10.9396
▁saine	-10.9397
▁procédé	-10.9398
▁fabricants	-10.9402
intermédiaire	-10.9407
▁productivité	-10.941
▁développé	-10.9416
implication	-10.9416
▁sérieuses	-10.9418
▁digne	-10.9422
▁stipule	-10.9422
▁continuerons	-10.9426
▁Bush	-10.9427
▁occidentale	-10.9428
▁cur	-10.9441
▁viable	-10.9441
▁autrichienne	-10.9441
▁disposé	-10.9441
▁délégations	-10.945
▁chercheurs	-10.9455
▁adoption	-10.946
as	-10.9462
▁écouter	-10.9477
▁morale	-10.9486
▁supervision	-10.9487
▁présentes	-10.9491
▁contrat	-10.9493
▁élevée	-10.9493
▁enceinte	-10.9494
▁associés	-10.9495
▁Moldavie	-10.9496
▁égards	-10.9496
▁port	-10.95
Votre	-10.9501
▁unie	-10.9504
intégrité	-10.952
▁oriental	-10.9523
▁définitif	-10.9527
▁Beaucoup	-10.9531
▁financements	-10.9532
▁lundi	-10.954
▁mobiliser	-10.9541
▁pourrais	-10.9543
▁résolus	-10.9544
▁V	-10.9549
▁diplomatique	-10.9553
▁sentir	-10.9565
▁contenant	-10.9565
▁équitables	-10.9565
avance	-10.9572
▁amélioré	-10.9572
oui	-10.9573
▁interprétation	-10.9584
▁disposés	-10.9595
▁victoire	-10.9597
▁précision	-10.9597
▁logement	-10.9606
▁certitude	-10.9606
▁examinons	-10.9609
▁suscité	-10.961
▁strictement	-10.9612
▁bel	-10.9613
▁dépasser	-10.9616
▁modernes	-10.9619
▁améliorée	-10.9629
▁ratifier	-10.9632
▁actives	-10.9634
▁disparités	-10.9635
▁partenariats	-10.9641
▁traduit	-10.9642
▁réalisées	-10.9645
▁classe	-10.9645
▁réelles	-10.9651
▁témoigne	-10.9652
Herzégovine	-10.9653
abolition	-10.9659
ar	-10.9664
évidence	-10.9668
▁vide	-10.9669
▁comitologie	-10.9671
chrétiens	-10.9672
exigence	-10.9674
isme	-10.9675
▁soldats	-10.9676
▁externes	-10.9677
▁intégrante	-10.9683
▁pertinentes	-10.969
sse	-10.9697
▁Ashton	-10.9706
▁désire	-10.9708
▁explication	-10.9715
▁prévisions	-10.9718
▁explications	-10.9718
▁évaluations	-10.9727
vote	-10.9729
▁registre	-10.973
▁constitué	-10.973
▁impératif	-10.9731
▁2007.	-10.9731
▁joindre	-10.9732
▁résumé	-10.9732
▁Vu	-10.9732
▁Libye	-10.9732
écart	-10.9736
▁unanime	-10.9748
instruments	-10.9751
▁sévères	-10.9753
▁survie	-10.9756
▁impôts	-10.9757
▁donnant	-10.9759
▁équipements	-10.9761
▁décrit	-10.9764
▁appui	-10.9764
▁subi	-10.9768
▁suscite	-10.9771
▁Iran	-10.9777
▁portugais	-10.9777
▁inscrit	-10.9788
▁fiables	-10.9788
▁identité	-10.9797
▁réunir	-10.9804
▁établis	-10.9805
objectifs	-10.9809
▁assure	-10.981
▁autorisés	-10.9812
▁Stockholm	-10.9812
▁démantèlement	-10.9812
▁étudier	-10.9814
▁quitter	-10.9814
▁traitements	-10.9816
▁ami	-10.9817
▁O	-10.9825
enregistrement	-10.9828
ter	-10.9831
disant	-10.9833
▁respectées	-10.9833
▁quotidien	-10.9836
▁rédiger	-10.984
▁subir	-10.9844
▁paragraphes	-10.9847
insister	-10.9851
▁détenus	-10.9854
observation	-10.9855
▁Brok	-10.9857
▁fruit	-10.9864
▁mentionnés	-10.987
▁empêche	-10.9871
▁suspension	-10.9872
▁sanitaires	-10.9873
▁présentera	-10.9875
▁5,	-10.988
aboutir	-10.9882
▁turque	-10.9882
▁transparent	-10.9883
urs	-10.9886
▁mille	-10.9891
▁précieux	-10.9893
▁viabilité	-10.9893
▁traitées	-10.9896
▁terrible	-10.9897
▁révolution	-10.9907
F	-10.9909
▁explique	-10.9911
▁discipline	-10.9918
engage	-10.9918
▁rapides	-10.9919
▁marqué	-10.9919
▁condamné	-10.9919
▁Aucun	-10.9929
▁agenda	-10.993
▁vols	-10.9937
▁interdire	-10.9938
▁Schulz	-10.9938
▁décès	-10.9956
▁livres	-10.9959
▁grecque	-10.9963
▁semestre	-10.9966
▁traditionnelle	-10.9967
▁suivie	-10.9971
▁formulé	-10.9973
qu	-10.9974
▁promesse	-10.9981
▁naissance	-10.9981
▁Tampere	-10.9983
▁évidente	-10.9992
▁ouvre	-10.9993
occuper	-10.9994
▁adapter	-10.9994
▁pluriannuel	-10.9997
actuelle	-10.9998
▁probable	-10.9999
environ	-10.9999
▁2004.	-11
▁Fischler	-11.0011
▁Verheugen	-11.0011
▁remis	-11.0021
▁lourds	-11.0027
▁linguistique	-11.0027
▁réclame	-11.0028
N	-11.003
▁touchent	-11.0035
▁exigent	-11.0038
▁approfondi	-11.0039
▁observateurs	-11.0039
▁conformer	-11.0057
▁mépris	-11.0062
▁satisfaisant	-11.0065
▁cofinancement	-11.0065
▁soulevées	-11.0074
▁tragique	-11.008
▁protégés	-11.008
▁Naturellement	-11.0084
▁voici	-11.0084
able	-11.0094
aides	-11.0096
▁évolutions	-11.0099
investir	-11.0102
▁ventes	-11.0111
▁sensibilisation	-11.0111
▁illégaux	-11.0112
▁annuelle	-11.012
▁Slovénie	-11.012
▁tourner	-11.0122
▁exploiter	-11.0123
▁Médiateur	-11.013
▁fabrication	-11.013
agence	-11.0136
▁appropriés	-11.0136
▁modifiée	-11.0136
▁prononcé	-11.0139
appliquent	-11.0143
▁cohérent	-11.0148
▁verte	-11.0152
▁surpris	-11.0156
▁bruit	-11.0156
▁relancer	-11.0158
▁mentionne	-11.0159
▁maximale	-11.0159
▁dommage	-11.0161
énormes	-11.0166
▁déterminée	-11.017
▁représentante	-11.0177
▁Congo	-11.0185
▁séparation	-11.0185
▁abord	-11.0192
▁créant	-11.0195
▁bovine	-11.0198
▁équipe	-11.0199
▁approbation	-11.0199
▁participe	-11.0208
▁2020.	-11.0209
île	-11.0211
▁consciente	-11.0211
avaient	-11.0214
▁gravement	-11.0218
identification	-11.022
▁industriel	-11.0221
▁parviendrons	-11.0225
▁sensiblement	-11.0228
▁civil	-11.0229
▁individuelle	-11.023
ité	-11.0233
G	-11.0236
▁comparaison	-11.024
▁censure	-11.0242
▁inutiles	-11.0242
Le	-11.025
▁préparé	-11.025
▁profits	-11.0262
importantes	-11.0262
▁réalisée	-11.0271
ement	-11.0273
▁issue	-11.0279
▁Communautés	-11.0282
▁commises	-11.0283
▁traduction	-11.0287
▁pensée	-11.0292
▁approuve	-11.0295
▁Galileo	-11.0297
▁pourparlers	-11.0297
▁établie	-11.0302
▁infractions	-11.0307
▁accru	-11.0307
▁ferroviaires	-11.0313
▁mémoire	-11.0315
▁légal	-11.0315
▁pénales	-11.0316
▁opération	-11.0322
▁requête	-11.0324
▁déposer	-11.0325
▁prévoyant	-11.0325
▁bananes	-11.0329
▁lu	-11.0329
▁image	-11.033
▁assuré	-11.0342
▁enjeux	-11.0344
▁officiellement	-11.0347
▁remise	-11.035
▁utilise	-11.0352
▁transmission	-11.0353
▁africains	-11.0362
▁Autrement	-11.0364
▁directes	-11.0365
▁formulée	-11.0368
▁avancés	-11.0369
▁Tibet	-11.0372
▁Face	-11.0372
▁constituera	-11.0377
▁Santer	-11.0382
▁définitivement	-11.0396
▁dangereuse	-11.0398
attribution	-11.0399
▁trente	-11.04
▁congé	-11.0401
▁courte	-11.0403
▁exprime	-11.0405
affirmer	-11.0408
▁transitoire	-11.041
▁civilisation	-11.041
émissions	-11.0415
▁orientation	-11.0418
▁conviendrait	-11.042
▁dispositif	-11.0429
▁Quatrièmement	-11.0429
▁tomber	-11.0438
▁illégal	-11.0441
▁résolument	-11.0442
▁solides	-11.0443
effectuer	-11.0453
▁cellules	-11.0456
▁effectués	-11.0456
avérer	-11.046
▁pouvaient	-11.0467
▁affronter	-11.0472
▁signes	-11.0475
▁préférence	-11.0476
▁disponibilité	-11.0477
▁dénoncer	-11.0477
▁jeux	-11.0478
▁garanti	-11.0485
▁papier	-11.0486
▁apparemment	-11.0486
▁décide	-11.0495
k	-11.0495
autonomie	-11.0503
▁réduits	-11.0508
▁strict	-11.0516
▁mette	-11.0527
▁sexe	-11.0534
▁verts	-11.0539
▁impliquer	-11.0543
os	-11.0551
informer	-11.0553
▁bureaucratique	-11.0553
▁ministère	-11.0553
▁exceptionnelle	-11.0559
entamer	-11.0562
▁autorisé	-11.0564
▁puissances	-11.0566
▁disparition	-11.0573
▁existante	-11.0573
▁investissement	-11.0575
▁serai	-11.0576
opposer	-11.0577
▁auteur	-11.0585
▁vraie	-11.0588
▁permanence	-11.0592
▁légiférer	-11.0596
▁opérationnel	-11.0599
▁réflexions	-11.0602
▁remplacement	-11.0612
▁apprendre	-11.0612
▁accident	-11.0615
▁transferts	-11.0619
co	-11.0623
▁tableau	-11.0624
▁enfant	-11.0627
▁mur	-11.0627
▁75	-11.0629
inquiétude	-11.0629
▁micro	-11.0634
▁Lorsqu	-11.0635
▁XXIe	-11.064
▁majeures	-11.0641
▁rendue	-11.0649
▁définit	-11.0653
▁sol	-11.0656
▁football	-11.0659
▁desquels	-11.0659
um	-11.066
▁conjointe	-11.0661
▁réactions	-11.0664
▁volontiers	-11.0669
▁dramatique	-11.0677
▁fixation	-11.0679
▁éducation	-11.0683
▁espoirs	-11.0685
▁2008.	-11.0685
▁2006.	-11.0686
▁discriminatoire	-11.0689
▁dérogations	-11.0693
▁consulter	-11.0698
▁Actuellement	-11.0698
▁exceptions	-11.0701
▁découlant	-11.0708
▁xénophobie	-11.0708
▁contenus	-11.0711
école	-11.0718
▁félicitons	-11.0718
▁tendances	-11.0722
▁ravie	-11.0723
▁alloués	-11.0723
▁45	-11.0727
▁partagent	-11.0728
▁arabe	-11.0729
▁intéressante	-11.0732
▁Ukraine	-11.0734
▁ad	-11.0735
▁secrétariat	-11.0737
▁vieux	-11.074
▁inciter	-11.0743
▁New	-11.0744
▁disposée	-11.0745
▁exploitation	-11.0748
▁examine	-11.0754
▁appuyer	-11.0756
extrême	-11.0765
▁concilier	-11.0767
▁âge	-11.077
▁deviendra	-11.0775
▁naturelle	-11.0777
▁1999.	-11.0777
))	-11.0779
▁estiment	-11.0779
▁défend	-11.078
▁jouets	-11.0781
▁vieillissement	-11.0786
▁prêter	-11.0791
▁nul	-11.0791
▁extension	-11.0797
▁administratifs	-11.0809
▁crainte	-11.0809
▁dés	-11.0813
▁supporter	-11.0814
▁reposer	-11.0814
investissements	-11.0816
▁requises	-11.0818
▁heureusement	-11.082
▁phrase	-11.0837
arriver	-11.0838
▁offrent	-11.084
▁rang	-11.0844
systématiquement	-11.0846
▁égal	-11.085
▁prétend	-11.0851
▁PESC	-11.0856
▁attaque	-11.0859
▁africaine	-11.0861
Albanie	-11.0864
▁ampleur	-11.0865
isation	-11.0866
▁démarches	-11.0875
▁bénéfique	-11.0877
▁bénéficié	-11.0885
▁défavorisées	-11.0888
▁vol	-11.0896
▁fixées	-11.09
▁motif	-11.0907
▁inférieur	-11.0909
▁amener	-11.091
▁vit	-11.091
▁Amérique	-11.0912
▁requis	-11.0917
ère	-11.0924
▁accessibles	-11.0927
▁jeter	-11.0933
▁carburants	-11.0941
envoyer	-11.0944
▁calcul	-11.0947
▁Timor	-11.0955
▁souvenir	-11.0957
▁Vienne	-11.0962
▁Saddam	-11.0965
▁méditerranéenne	-11.0966
▁pierre	-11.0967
6-0	-11.097
▁échoué	-11.0975
▁inclut	-11.0976
▁déterminant	-11.0979
▁Hamas	-11.0985
▁bureaux	-11.0986
▁vérification	-11.0987
présidente	-11.099
accélérer	-11.0994
▁douanière	-11.0997
▁suspens	-11.0998
▁négocié	-11.0999
w	-11.1005
▁moratoire	-11.1005
▁notation	-11.1017
▁travaillant	-11.1019
▁obligés	-11.1023
▁Deuxième	-11.1023
▁inacceptables	-11.1024
▁protectionnisme	-11.1027
▁souffre	-11.1033
▁r	-11.104
▁rendus	-11.1042
▁pair	-11.1052
▁provoquer	-11.1058
▁traditionnelles	-11.1058
▁reconnais	-11.1065
▁venez	-11.1066
▁nullement	-11.1078
▁1990	-11.1096
▁religieux	-11.1096
▁valoir	-11.1106
▁dur	-11.1111
▁donateurs	-11.1118
▁voulait	-11.1127
▁intérimaire	-11.1129
▁possèdent	-11.1132
inquiète	-11.1133
▁franchement	-11.1137
▁transporteurs	-11.1146
▁parvenons	-11.1147
▁concessions	-11.1151
▁industrielles	-11.1155
▁mondiales	-11.1155
▁arrivés	-11.1157
▁préconise	-11.1169
▁sanitaire	-11.117
▁avance	-11.1173
▁affectés	-11.118
onformément	-11.1183
▁récession	-11.1188
▁entendons	-11.1195
▁raisonnables	-11.1197
▁réalités	-11.12
élément	-11.12
importants	-11.1203
▁forts	-11.1208
▁parallèle	-11.1209
▁émanant	-11.1219
▁équivoque	-11.1219
dé	-11.1221
ri	-11.1223
▁g	-11.1227
▁bataille	-11.1229
▁serions	-11.123
▁chacune	-11.1237
▁résultant	-11.1239
▁découle	-11.124
▁analyses	-11.1241
▁2005.	-11.1247
▁immédiat	-11.1248
▁Lettonie	-11.1249
▁répondent	-11.1252
▁Asie	-11.1259
▁Biélorussie	-11.126
▁libérer	-11.126
▁millénaire	-11.128
▁prévoient	-11.1281
▁créée	-11.1289
▁zéro	-11.1291
lé	-11.1295
▁développe	-11.1297
▁révélé	-11.1307
▁allez	-11.1313
▁abordés	-11.1313
▁suggéré	-11.1314
▁douane	-11.1315
▁leçon	-11.1315
▁concert	-11.1316
▁avéré	-11.1317
habitude	-11.1321
▁[	-11.1323
▁couverture	-11.1324
▁tienne	-11.133
▁fermeté	-11.1333
▁couverts	-11.1334
▁israélien	-11.1336
▁établissements	-11.1336
▁1992	-11.134
▁ouvertement	-11.1342
▁fondées	-11.1346
▁consacrée	-11.1347
obtention	-11.1352
▁prestations	-11.1354
▁attaquer	-11.1356
▁suggestion	-11.1357
Européens	-11.1357
▁pensez	-11.1357
▁retraités	-11.1358
▁abouti	-11.1367
lo	-11.1367
▁constat	-11.1374
▁hongrois	-11.1377
▁conducteurs	-11.1377
▁dûment	-11.1383
▁Re	-11.1383
iste	-11.1384
▁disparaître	-11.1384
▁injuste	-11.1385
▁causés	-11.1386
▁électriques	-11.1391
▁mercredi	-11.1395
▁ambition	-11.1395
▁maison	-11.1395
▁abandonner	-11.1397
▁référendums	-11.1399
▁ouverts	-11.1401
▁pure	-11.1402
▁manifester	-11.1403
▁connue	-11.1406
▁cherchent	-11.141
▁fournies	-11.1417
▁sélection	-11.1421
▁soutiendra	-11.1427
▁faille	-11.143
▁hasard	-11.1432
▁honorables	-11.1434
▁dépens	-11.1439
▁consacrés	-11.1441
▁faiblesse	-11.1442
▁post	-11.1447
▁coupables	-11.1449
▁août	-11.145
▁finlandaise	-11.1451
▁tentent	-11.1452
▁connais	-11.1456
▁impatience	-11.1458
accident	-11.1461
accroissement	-11.1468
▁difficilement	-11.1468
▁parvenue	-11.147
▁privatisation	-11.1472
activités	-11.1475
▁publier	-11.1484
▁concentre	-11.1485
▁insuffisante	-11.1488
▁restriction	-11.1493
▁reporter	-11.1494
▁légales	-11.1502
▁proportion	-11.1503
actuel	-11.1508
identifier	-11.1511
▁imposé	-11.1517
▁vitale	-11.1526
▁qualifiés	-11.153
▁phénomènes	-11.1531
éliminer	-11.1531
▁occuper	-11.1534
abus	-11.1541
▁exister	-11.1541
essayer	-11.1542
▁acceptée	-11.1545
élection	-11.1552
▁néerlandaise	-11.1555
▁intéressés	-11.1557
▁carburant	-11.1557
▁Aucune	-11.1563
▁défenseurs	-11.1563
▁billets	-11.1564
▁messages	-11.1573
▁continuons	-11.1576
▁riche	-11.1578
▁plainte	-11.158
▁désarmement	-11.1585
▁tolérer	-11.1595
▁compréhensible	-11.16
▁frappé	-11.1603
▁voisin	-11.1604
▁coûte	-11.1608
▁figurer	-11.161
▁monopole	-11.1611
▁favorise	-11.1614
▁honte	-11.1615
Internet	-11.1616
▁handicap	-11.1619
▁souffrance	-11.1621
élève	-11.1638
▁souhaits	-11.1638
▁estimations	-11.1638
▁élan	-11.1643
▁supérieure	-11.1643
▁ouvertes	-11.1644
▁évoluer	-11.1655
▁imaginer	-11.1657
▁côtes	-11.1657
▁fonctionnent	-11.1657
NL	-11.1658
Atlantique	-11.1659
attente	-11.1659
▁moral	-11.1662
▁lance	-11.1664
▁placé	-11.1667
▁mauvaises	-11.1669
▁renforçant	-11.167
par	-11.1673
▁religieuse	-11.1676
▁soutenant	-11.1681
▁unité	-11.1688
▁philosophie	-11.1692
▁lendemain	-11.1692
▁Soudan	-11.1695
▁résolue	-11.1695
▁guerres	-11.1697
ique	-11.17
arrivée	-11.1702
attirer	-11.1702
▁origine	-11.1705
▁distorsions	-11.1724
initiatives	-11.1727
pe	-11.1731
discrimination	-11.1735
apprendre	-11.1735
▁réchauffement	-11.1735
▁régissant	-11.1735
▁optique	-11.1736
▁réglementaires	-11.1741
associer	-11.1743
▁fonde	-11.1746
▁assister	-11.1746
▁anglais	-11.1747
▁Madrid	-11.1757
▁Mexique	-11.1757
▁détaillées	-11.176
▁géographiques	-11.177
▁identifier	-11.1775
▁précoce	-11.1778
▁guise	-11.1778
▁traitée	-11.178
▁voiture	-11.1784
▁justifiée	-11.18
man	-11.1804
▁réservé	-11.1808
▁annuels	-11.1813
▁400	-11.1819
▁traçabilité	-11.1822
▁portes	-11.1826
▁soulevée	-11.1829
▁bras	-11.1829
▁migratoires	-11.1833
im	-11.1833
▁septième	-11.1833
▁proposant	-11.1835
▁explicite	-11.1836
▁aidera	-11.1836
▁identiques	-11.1838
▁accéder	-11.1843
▁compatible	-11.185
▁listes	-11.185
▁expression	-11.1852
▁considérées	-11.1861
▁commenter	-11.1866
▁Pas	-11.1868
▁préféré	-11.187
▁identique	-11.1871
ul	-11.1872
▁sols	-11.1876
▁fréquemment	-11.1877
▁langage	-11.1877
▁apparaître	-11.1879
▁contraignante	-11.1879
▁6,	-11.1883
▁exposés	-11.1885
▁attendant	-11.1891
▁islamique	-11.1893
▁délits	-11.1906
V	-11.1909
▁situe	-11.1909
▁Caucase	-11.191
▁Autriche	-11.191
▁2013	-11.1914
▁brève	-11.1917
▁doive	-11.1918
▁justifié	-11.1918
▁unitaire	-11.1921
▁rétablissement	-11.1921
▁clients	-11.1924
embargo	-11.1932
entrer	-11.1934
▁autonome	-11.1938
▁révèle	-11.194
▁tarifs	-11.194
▁sexes	-11.1943
▁proximité	-11.1943
▁spéculation	-11.1949
▁réexamen	-11.1955
▁sixième	-11.1955
▁renouvelable	-11.196
▁insuffisant	-11.1963
▁Kinnock	-11.1965
▁préparatifs	-11.1965
▁nommé	-11.1968
▁génocide	-11.1971
ux	-11.1973
▁conformes	-11.1974
▁vendre	-11.1975
▁délicat	-11.1979
▁triste	-11.1979
▁céréales	-11.1987
▁arrêt	-11.1989
▁allait	-11.199
COD	-11.1991
▁diplomatiques	-11.1991
▁consentis	-11.1996
▁continuité	-11.1998
▁apportera	-11.2002
▁misère	-11.2003
▁ressource	-11.2004
Europol	-11.2009
▁facilité	-11.2012
▁initial	-11.2012
▁recul	-11.2012
▁économiquement	-11.2013
▁opérationnelle	-11.2018
▁jeune	-11.2021
▁démocraties	-11.2024
▁manifestation	-11.2027
▁monopoles	-11.2027
▁analyser	-11.2027
▁rejoins	-11.2031
▁Colombie	-11.2032
▁dépenser	-11.2033
▁sida	-11.2035
▁nôtre	-11.2038
▁Haye	-11.2054
immunité	-11.2054
impliquer	-11.2055
▁réagi	-11.2059
▁sachant	-11.2065
▁contraints	-11.207
▁Yougoslavie	-11.2074
▁endroits	-11.208
▁provisoire	-11.208
▁essayons	-11.2088
▁32	-11.2089
▁détruire	-11.2089
▁bilatérales	-11.2091
▁concernée	-11.2091
▁prépare	-11.2092
▁honnête	-11.2092
▁rassembler	-11.2097
▁fournis	-11.2098
▁Blair	-11.2099
ad	-11.21
ns	-11.2101
nant	-11.2104
▁progressé	-11.211
▁fédérale	-11.211
▁immense	-11.2111
)).	-11.2114
▁inadmissible	-11.2117
ill	-11.2122
▁limitées	-11.2124
▁préoccupés	-11.2125
▁retrouve	-11.2127
▁nationalité	-11.2129
ise	-11.2131
▁2003.	-11.2135
▁demanderai	-11.2136
▁enregistré	-11.2142
▁reconnaissons	-11.2155
inscrire	-11.2155
▁Y	-11.2159
éléments	-11.2163
00	-11.2163
exemption	-11.2178
▁professionnel	-11.2181
▁pluralisme	-11.2189
▁fièvre	-11.2189
▁Chacun	-11.2189
▁adressée	-11.219
▁transmis	-11.2192
▁brefs	-11.2192
▁reflètent	-11.2196
▁policière	-11.2196
▁indiquent	-11.2196
▁journaux	-11.22
avortement	-11.22
▁Jean	-11.2209
me	-11.2211
▁yougoslave	-11.2211
▁parlent	-11.2215
▁défendu	-11.2222
▁Vice	-11.2223
▁fondements	-11.2229
▁acceptés	-11.2232
▁Milosevic	-11.2234
▁parviennent	-11.2235
▁remboursement	-11.2241
▁cru	-11.2244
▁observation	-11.2256
▁pousser	-11.2256
▁proprement	-11.2256
▁regret	-11.2259
▁incapables	-11.2259
▁acceptables	-11.2266
▁mettons	-11.2268
▁Monti	-11.2269
▁palestiniens	-11.2271
▁irrégularités	-11.2275
▁aspirations	-11.2275
▁unilatérale	-11.2286
▁définie	-11.2287
▁forêt	-11.2287
▁condamne	-11.2293
ES	-11.2295
▁faillite	-11.2299
infraction	-11.2299
▁or	-11.2303
efforce	-11.2308
▁lancée	-11.2315
▁autoriser	-11.2317
avancement	-11.2318
▁biologiques	-11.232
▁suffisants	-11.2322
▁lourde	-11.2323
▁armées	-11.2325
▁députée	-11.2329
▁Noire	-11.2337
▁administratif	-11.2345
li	-11.2346
▁accueillir	-11.2346
▁former	-11.2347
avions	-11.2348
▁surcroît	-11.2348
parcours	-11.2349
▁critiquer	-11.2351
▁préférences	-11.236
03	-11.2361
▁Aux	-11.2369
▁apprécié	-11.2371
▁sympathie	-11.2371
▁poursuivi	-11.2377
▁étendue	-11.2381
▁Haut	-11.239
▁teneur	-11.2391
▁cité	-11.2391
▁délicate	-11.2391
▁voulions	-11.2395
▁prolonger	-11.2402
▁restaurer	-11.2406
▁résidence	-11.2406
▁Eh	-11.2407
▁concevoir	-11.2418
évoquer	-11.242
annonce	-11.2424
▁Fédération	-11.2429
▁coeur	-11.243
▁DG	-11.2433
faire	-11.2436
▁officiel	-11.2436
▁médecins	-11.2436
▁maternité	-11.2441
out	-11.2444
▁respectifs	-11.2448
▁passent	-11.2461
▁réfère	-11.2461
▁officielles	-11.2462
▁Là	-11.2462
▁Martin	-11.2464
▁partagée	-11.2465
▁ancien	-11.2469
▁durement	-11.2479
aucuns	-11.2484
▁contraignantes	-11.2485
▁profond	-11.2487
▁désignation	-11.2487
▁postaux	-11.2488
▁abordée	-11.2489
▁réalistes	-11.2497
▁coalition	-11.2499
▁1993	-11.2499
▁normalisation	-11.2499
▁prétendre	-11.25
▁beau	-11.25
▁précisé	-11.2507
▁déclin	-11.2509
respect	-11.2511
▁volontaires	-11.2515
ue	-11.2525
▁persuadé	-11.2527
▁intégrées	-11.2527
▁éthique	-11.2528
▁étrange	-11.253
▁fiable	-11.2531
▁assistons	-11.2534
▁von	-11.2535
▁adaptée	-11.2536
▁automatiquement	-11.2536
▁progression	-11.2546
▁FMI	-11.2546
▁développées	-11.2548
▁fier	-11.2556
▁compenser	-11.256
▁nécessitent	-11.2564
art	-11.2566
▁adultes	-11.2567
01	-11.257
▁touché	-11.257
▁intégrés	-11.2573
▁réclamer	-11.2579
ol	-11.2579
▁marquer	-11.258
▁contiennent	-11.2582
▁atteintes	-11.2582
▁adressé	-11.2582
années	-11.2583
▁émettre	-11.2588
▁fonder	-11.2589
▁soulevés	-11.2589
▁déloyale	-11.2591
▁bâtiment	-11.2591
▁profondes	-11.2592
▁indiquant	-11.2593
▁multilatéral	-11.2594
▁approuvés	-11.2595
▁impliqué	-11.2606
tra	-11.2606
▁48	-11.2617
▁assurant	-11.2618
▁accessible	-11.2626
▁Hong	-11.2628
▁Tribunal	-11.2628
▁peser	-11.2629
▁offrant	-11.2629
▁ordinaires	-11.2629
▁individuelles	-11.2631
▁cap	-11.2632
▁retraites	-11.2638
abandon	-11.2641
▁thon	-11.2646
▁repos	-11.2652
▁éleveurs	-11.2652
▁propriétaires	-11.2653
▁Al	-11.2658
▁souffrances	-11.2659
▁rapidité	-11.2664
▁publiquement	-11.2667
at	-11.2668
▁Paris	-11.2671
▁faiblesses	-11.2672
▁i	-11.2672
▁susciter	-11.2674
▁contrefaçon	-11.2674
▁Hier	-11.2676
▁Frontex	-11.2676
économiques	-11.2684
▁incapable	-11.2685
▁couvert	-11.2688
élargir	-11.2689
▁déposée	-11.2694
▁normalement	-11.2703
▁entrepreneurs	-11.2705
▁scandale	-11.2709
▁desquelles	-11.2711
▁électoral	-11.2715
▁évoquée	-11.2718
▁moments	-11.2723
OCDE	-11.2736
▁initialement	-11.2742
▁légalement	-11.2745
▁affecte	-11.2747
▁jugé	-11.2749
▁maintenu	-11.2749
▁licenciements	-11.275
▁revêtent	-11.275
▁nordique	-11.2757
▁plaide	-11.2764
▁Personnellement	-11.2771
▁chypriote	-11.2781
incertitude	-11.2782
▁déroule	-11.2785
▁dépassé	-11.2785
▁numéro	-11.2793
▁Ou	-11.2799
▁mutuellement	-11.2803
▁rejetée	-11.2807
▁exergue	-11.2807
▁confronté	-11.2809
▁traditionnels	-11.2816
▁dégradation	-11.2819
▁oblige	-11.2828
▁fraudes	-11.2829
▁liaison	-11.2829
ier	-11.2832
▁fournissent	-11.2845
achèvement	-11.2847
▁apportent	-11.2853
▁Hussein	-11.2856
▁exact	-11.2856
▁créent	-11.2862
▁demeurent	-11.2862
organes	-11.2864
▁2002.	-11.2865
exiger	-11.2867
▁souplesse	-11.2868
▁diplomatie	-11.2868
ma	-11.287
▁transférer	-11.288
▁comparables	-11.2885
di	-11.2885
▁troubles	-11.2888
▁2012	-11.2891
▁attiré	-11.2892
▁Washington	-11.2892
mo	-11.2896
ajoute	-11.2898
▁150	-11.2898
▁chargés	-11.29
▁signale	-11.29
▁mercure	-11.2904
▁signification	-11.2904
▁élargir	-11.2905
interdire	-11.2906
▁malades	-11.2906
▁causé	-11.2906
utilité	-11.2914
▁comprenons	-11.2916
▁Proche	-11.2916
▁références	-11.2917
▁reconnue	-11.292
▁justification	-11.2927
▁harmoniser	-11.2929
RO	-11.2929
▁déterminé	-11.2931
▁concepts	-11.2932
▁transparentes	-11.2937
▁protège	-11.2938
▁sensibilité	-11.294
▁envisagé	-11.2943
▁voyageurs	-11.2944
▁label	-11.2945
▁appliqués	-11.2949
▁approches	-11.2954
▁étendu	-11.2956
▁Amsterdam	-11.296
▁fléau	-11.2965
▁médicaux	-11.2965
appuyer	-11.2966
▁dure	-11.2967
▁dépensé	-11.2969
▁exclus	-11.298
▁filles	-11.2981
ose	-11.2987
▁contamination	-11.299
▁éventail	-11.2993
▁renvoi	-11.2996
qui	-11.2996
▁profession	-11.3001
▁réduisant	-11.3002
▁manifesté	-11.3006
▁mesurer	-11.3008
▁laitiers	-11.3013
▁carrière	-11.3017
▁introduites	-11.302
▁extérieurs	-11.3021
▁troisièmement	-11.3023
▁illustre	-11.3025
▁fructueuse	-11.3025
▁simultanément	-11.3027
am	-11.303
▁effectuées	-11.3038
▁déséquilibres	-11.3048
argument	-11.3051
▁intensifier	-11.3051
▁voterai	-11.3055
mer	-11.3061
▁spéciales	-11.3061
▁rouge	-11.3063
▁laissent	-11.3063
▁quiconque	-11.3063
▁SIS	-11.3065
inverse	-11.3066
▁pertinente	-11.3067
▁occidental	-11.3068
▁ciel	-11.3069
▁Laeken	-11.3076
▁intéressées	-11.3076
▁soutenus	-11.3084
▁financés	-11.3086
▁indications	-11.31
▁radicale	-11.3101
CNS	-11.3101
attaque	-11.3111
▁créés	-11.3112
étant	-11.3112
▁clonage	-11.3125
▁garantissent	-11.3127
▁découlent	-11.3129
▁examinée	-11.3135
▁évoqués	-11.3137
▁proposent	-11.3141
▁adéquats	-11.3142
▁Puis	-11.3145
▁satellite	-11.3149
▁veto	-11.315
▁gré	-11.3152
▁sortes	-11.3153
▁exclure	-11.3157
▁spéciaux	-11.3163
▁haine	-11.3163
▁comptent	-11.3164
▁flottes	-11.3169
▁III	-11.3172
▁symbole	-11.3174
▁offertes	-11.3176
▁intelligente	-11.3177
▁navire	-11.3187
▁cessé	-11.3188
▁normale	-11.3198
▁prestation	-11.32
▁cour	-11.32
▁animal	-11.3207
▁disparu	-11.321
▁universelle	-11.3212
instabilité	-11.3214
▁partiel	-11.3215
emblée	-11.3216
▁constituerait	-11.3216
▁quasiment	-11.3217
si	-11.3225
▁proviennent	-11.3225
▁fiers	-11.3229
▁fédéral	-11.3229
▁mentionnée	-11.3237
▁belles	-11.324
▁organisme	-11.3241
▁terminé	-11.3242
▁Darfour	-11.325
▁renouvellement	-11.3251
▁Dieu	-11.3256
▁résumer	-11.3257
▁ton	-11.3259
▁mentionnées	-11.3262
▁favorisant	-11.3263
accéder	-11.3265
▁linguistiques	-11.3265
▁acteur	-11.3269
▁sauvegarder	-11.3272
▁surprise	-11.3273
▁bloc	-11.3275
▁compétitif	-11.3275
▁jurisprudence	-11.3276
SV	-11.3278
▁livrer	-11.3283
▁suspendre	-11.3289
▁dite	-11.3289
▁intermédiaire	-11.3292
▁minimale	-11.3293
▁acheter	-11.3295
▁Guerre	-11.3301
▁Moscou	-11.3301
▁dioxyde	-11.3301
▁éthiques	-11.3304
j	-11.3309
(	-11.3309
▁compétents	-11.3312
▁Millénaire	-11.3314
▁scandaleux	-11.3314
▁continueront	-11.3315
▁invitons	-11.3327
▁parfait	-11.3329
▁commencent	-11.3332
▁rail	-11.3336
Institut	-11.334
▁combustibles	-11.3352
▁tiré	-11.3357
accepte	-11.3357
▁requise	-11.3359
Ouest	-11.3361
▁connus	-11.3361
▁Swoboda	-11.3364
▁générer	-11.3364
aménagement	-11.3366
▁poursuivent	-11.3366
▁assurances	-11.3371
▁touchant	-11.3377
▁plaît	-11.3378
▁opposer	-11.3384
▁soigneusement	-11.339
audit	-11.3392
▁détérioration	-11.3392
▁basées	-11.3392
▁enregistrés	-11.3395
▁endroit	-11.3398
▁entraînera	-11.3402
▁inévitablement	-11.3405
▁handicapés	-11.3406
▁pensé	-11.3407
▁instance	-11.3418
▁alliés	-11.342
▁anciennes	-11.3422
▁concurrents	-11.3422
▁Ici	-11.3426
▁bétail	-11.3428
▁précieuse	-11.3428
▁reprend	-11.343
▁venue	-11.343
▁réaffirmer	-11.3431
▁adressées	-11.3436
▁Pékin	-11.3441
▁institutionnels	-11.3442
id	-11.3444
ayant	-11.3446
▁dépense	-11.3451
▁illégales	-11.3454
▁Frattini	-11.3454
▁fermes	-11.3454
▁subissent	-11.3454
▁réviser	-11.3458
interopérabilité	-11.3459
▁contraignants	-11.3466
▁bande	-11.3467
▁oublié	-11.3472
▁fusion	-11.3473
▁honneur	-11.3474
infrastructures	-11.3477
▁permets	-11.3477
▁croit	-11.348
▁musulmans	-11.3481
▁réexaminer	-11.3488
▁nulle	-11.3492
organisations	-11.3492
▁Voici	-11.3493
▁structurel	-11.3493
▁kurde	-11.3493
▁bureaucratiques	-11.3505
▁Danube	-11.3505
▁intéressantes	-11.3512
▁symbolique	-11.3516
▁visible	-11.3516
▁Göteborg	-11.3518
▁distorsion	-11.3519
▁indépendantes	-11.353
▁automobiles	-11.353
▁attendu	-11.3538
▁vécu	-11.354
▁textiles	-11.3544
▁York	-11.3545
▁licences	-11.3545
▁survenus	-11.3547
▁front	-11.3557
▁arrêté	-11.3564
▁performances	-11.3568
▁propagande	-11.357
▁méditerranéens	-11.358
▁jouissent	-11.3583
▁blanchiment	-11.3584
▁produite	-11.359
▁néfastes	-11.359
▁déplacées	-11.3591
▁poursuites	-11.3593
5-00	-11.3597
émergence	-11.3597
des	-11.36
▁trouvée	-11.3605
▁Où	-11.3609
▁prisons	-11.3614
▁rassurer	-11.3617
▁génétique	-11.3621
▁reçoit	-11.3622
▁craindre	-11.3622
▁moderniser	-11.3623
▁dispositifs	-11.3623
▁rejoint	-11.3623
▁décennie	-11.3626
▁introduction	-11.3629
▁Barnier	-11.3635
▁concours	-11.3638
▁différends	-11.3641
▁détaillé	-11.3642
▁reconnus	-11.3646
▁Noël	-11.3648
▁REACH	-11.3649
▁venant	-11.3651
▁rendant	-11.3654
▁déposées	-11.3661
▁habitant	-11.3664
essence	-11.3677
▁admis	-11.368
▁introduite	-11.3681
▁bancaires	-11.3684
Estonie	-11.369
▁adaptées	-11.3693
▁radio	-11.3694
▁sincères	-11.3697
acceptation	-11.3703
ables	-11.3704
)]	-11.3712
▁Centre	-11.3713
▁frappe	-11.3714
se	-11.3719
▁routiers	-11.372
▁fixée	-11.372
▁95	-11.3722
▁solidaire	-11.3726
▁modeste	-11.3727
▁animales	-11.3727
▁Congrès	-11.3727
▁Poettering	-11.3727
▁diriger	-11.3728
▁offerte	-11.3733
▁assurée	-11.3737
▁inspections	-11.3738
▁consulté	-11.3747
▁dépendra	-11.3749
istes	-11.375
▁véhicule	-11.3754
Office	-11.3756
▁noir	-11.3758
onstitutionnelle	-11.3762
avantage	-11.3763
▁danoise	-11.3764
▁parvient	-11.3772
▁vastes	-11.3778
▁Bolkestein	-11.378
▁7,	-11.3787
▁doté	-11.3787
▁subsiste	-11.379
▁armée	-11.3793
Égypte	-11.3796
▁associé	-11.3801
▁jouir	-11.3808
▁réparation	-11.3809
▁Monténégro	-11.3809
▁servi	-11.3812
▁figurant	-11.382
▁diversification	-11.382
▁usagers	-11.3821
▁blocage	-11.3822
étudier	-11.3823
feu	-11.3827
▁rêve	-11.3829
▁terminerai	-11.3832
▁meurent	-11.3834
▁secours	-11.3835
ine	-11.3837
▁compétent	-11.3841
▁sentiments	-11.3842
▁Encore	-11.3847
▁céder	-11.3848
▁ridicule	-11.3849
▁performance	-11.3849
insécurité	-11.3849
harmoniser	-11.3849
méditerranéenne	-11.3851
▁extrémistes	-11.3852
ion	-11.3854
▁week	-11.386
▁matériaux	-11.386
▁doigt	-11.3862
auront	-11.3867
▁compétitifs	-11.3874
▁geste	-11.3876
▁témoins	-11.3876
▁Michel	-11.3887
▁abstenu	-11.3893
▁côtières	-11.3893
▁financé	-11.3896
▁viser	-11.39
▁chapitres	-11.3902
▁clarification	-11.3903
▁exécution	-11.3905
▁inscrits	-11.3906
auraient	-11.3907
assumer	-11.3908
▁mettra	-11.3908
▁peines	-11.3911
▁battre	-11.3914
▁significatifs	-11.3915
▁halieutiques	-11.3919
▁nette	-11.3919
▁chantiers	-11.3922
▁clos	-11.3922
▁formelle	-11.3928
▁belle	-11.3943
▁déroulement	-11.3944
▁satisfaite	-11.3944
ia	-11.3944
▁rencontrent	-11.3948
▁apparu	-11.3949
▁impulsion	-11.395
▁éventuelles	-11.3952
▁opposée	-11.3953
▁réputation	-11.3954
▁VIH	-11.3955
▁cinquante	-11.3955
▁essaie	-11.3955
▁déception	-11.3957
▁irresponsable	-11.3957
▁pragmatique	-11.3957
né	-11.3957
ég	-11.3963
▁accordées	-11.3965
▁recommander	-11.3966
▁légumes	-11.3968
▁verrons	-11.3968
▁désastre	-11.3969
▁implication	-11.3974
▁prenantes	-11.3978
▁pointe	-11.398
▁...	-11.3985
▁2007-2013	-11.3989
▁rejets	-11.3996
▁diminué	-11.3997
▁pèse	-11.3999
▁commencerai	-11.4001
▁collectives	-11.4008
▁tragiques	-11.4011
incapacité	-11.4011
▁familial	-11.4014
▁souffert	-11.4022
▁pourriez	-11.4025
▁hoc	-11.4027
▁richesses	-11.4032
proportionnalité	-11.4037
▁collège	-11.4038
ta	-11.4044
▁nier	-11.4049
▁devenus	-11.4049
▁indirectement	-11.4051
▁développée	-11.4061
▁sagesse	-11.4063
▁minoritaires	-11.4063
▁ultérieurement	-11.4065
▁applique	-11.4065
▁circuler	-11.4069
▁démontrent	-11.4069
▁exercée	-11.4071
▁constructeurs	-11.4082
▁qualifié	-11.4085
▁envisagée	-11.4086
▁rendra	-11.409
▁forcément	-11.4092
▁encouragé	-11.4099
▁laissant	-11.4105
▁présidences	-11.4105
▁passées	-11.4106
▁slovaque	-11.4107
▁cessez	-11.4109
ut	-11.4111
▁toxiques	-11.4112
▁occupés	-11.4116
▁aphteuse	-11.4118
▁sortie	-11.4118
▁confrontées	-11.412
▁annoncer	-11.4121
▁baisser	-11.4127
▁instituant	-11.4131
Yougoslavie	-11.4134
▁convictions	-11.4137
▁dérivés	-11.414
forme	-11.4142
▁existence	-11.4145
▁externe	-11.4149
▁Mugabe	-11.4159
▁infraction	-11.4162
▁certification	-11.4162
▁continu	-11.4163
▁conférences	-11.4167
▁représenté	-11.4169
▁imposée	-11.417
▁inévitable	-11.4174
▁drame	-11.4176
▁financièrement	-11.4185
▁Cotonou	-11.4187
▁déployer	-11.4187
▁préventive	-11.419
inspection	-11.4193
impôt	-11.4193
con	-11.4194
▁turcs	-11.4194
▁engagées	-11.4194
▁déséquilibre	-11.42
▁citerai	-11.4201
▁Guinée	-11.4202
▁approuvons	-11.4202
▁tire	-11.4208
▁lourd	-11.4209
▁marins	-11.4211
▁cartes	-11.4222
▁macro	-11.4228
▁Palacio	-11.4228
▁gratitude	-11.4228
▁rigoureux	-11.4228
▁déplacement	-11.4232
▁soulignant	-11.4242
▁UEN	-11.4243
éradication	-11.4245
autoriser	-11.4247
na	-11.4248
▁cible	-11.4253
ic	-11.4256
▁créativité	-11.4256
▁regrettons	-11.4256
▁coexistence	-11.4257
▁65	-11.4262
▁dimensions	-11.4266
▁arrivent	-11.4268
▁agissant	-11.427
▁rencontrés	-11.4273
▁refléter	-11.4277
▁obligé	-11.4279
▁entités	-11.4283
▁dise	-11.4283
06	-11.4285
▁consultatif	-11.4287
▁familiales	-11.4293
▁opposants	-11.4296
▁autorise	-11.4304
appuie	-11.4308
▁remarqué	-11.4313
prolifération	-11.4315
indique	-11.4316
ure	-11.4316
▁évoque	-11.4323
ale	-11.4325
▁virus	-11.4326
▁Puisque	-11.4327
▁e	-11.4331
▁course	-11.4335
▁sûrement	-11.4335
▁désigné	-11.4336
▁voyages	-11.4337
▁objections	-11.4341
go	-11.4342
▁tend	-11.4345
▁passés	-11.4347
▁fournie	-11.4357
▁candidature	-11.4358
▁capitales	-11.4361
▁retenue	-11.4363
impasse	-11.4371
▁juges	-11.4373
▁invités	-11.4375
▁refusent	-11.4375
▁slovène	-11.4382
▁professions	-11.4384
%	-11.4389
▁menacés	-11.4396
▁sûres	-11.4398
enjeu	-11.44
▁irakien	-11.44
▁55	-11.4404
▁réunis	-11.4405
▁pertinent	-11.4406
▁marquage	-11.441
automne	-11.4413
▁amené	-11.4421
▁espèce	-11.4425
▁sanction	-11.4431
▁contradictoires	-11.4436
▁retarder	-11.4437
▁San	-11.4438
▁cabillaud	-11.4439
▁respectueux	-11.4439
▁allemands	-11.444
▁sache	-11.4441
▁votons	-11.4453
▁contribuable	-11.4457
▁autorisation	-11.4458
▁immigration	-11.4461
▁conçu	-11.4463
▁portuaires	-11.4467
▁différemment	-11.4467
▁monsieur	-11.4467
▁accusations	-11.4467
ver	-11.4468
▁composante	-11.4472
▁allégations	-11.4473
▁bloquer	-11.448
▁ELDR	-11.4482
▁arrivée	-11.4482
▁prime	-11.4483
▁garantis	-11.4486
▁enthousiasme	-11.4491
FR	-11.4492
▁votera	-11.4494
▁Heureusement	-11.4495
▁fret	-11.4495
ient	-11.4497
▁pénurie	-11.45
▁enseignements	-11.45
▁incidents	-11.45
▁exemplaire	-11.45
▁combinaison	-11.451
▁sensibiliser	-11.451
▁mutuel	-11.4512
▁condamnés	-11.4513
▁préalables	-11.4518
▁Sakharov	-11.4524
▁perception	-11.4524
▁émises	-11.4531
▁38	-11.4532
acte	-11.4535
▁accroissement	-11.4539
▁parlant	-11.454
agira	-11.4541
▁louable	-11.4543
▁délit	-11.4543
▁Sous	-11.4545
▁observe	-11.4552
▁Espérons	-11.4553
▁réciprocité	-11.4553
▁appartenant	-11.4554
▁noms	-11.4555
▁macroéconomique	-11.4555
▁étiquetage	-11.456
th	-11.4562
▁dresser	-11.4566
aire	-11.4567
▁minimal	-11.4568
▁informel	-11.4568
▁retourner	-11.4568
▁formellement	-11.457
hémicycle	-11.457
▁Ni	-11.457
▁négliger	-11.4575
▁dotée	-11.4578
▁préfère	-11.4578
▁réacteurs	-11.458
▁surface	-11.458
▁Mercosur	-11.4582
▁bilatéral	-11.4586
▁messieurs	-11.4596
▁rentabilité	-11.4596
▁moteurs	-11.4602
▁productions	-11.4607
▁autorisée	-11.4609
ontrairement	-11.461
▁gagné	-11.461
▁armés	-11.4611
▁connues	-11.4616
opération	-11.4618
organe	-11.4619
▁axée	-11.4619
▁chasse	-11.4622
▁criminelles	-11.4623
▁suivent	-11.4625
▁objective	-11.4627
habitants	-11.4647
▁mers	-11.4649
▁organisées	-11.4652
▁excessif	-11.4659
▁périphériques	-11.466
empêche	-11.466
▁incidences	-11.4662
▁nuire	-11.4668
exploiter	-11.4672
▁appliquent	-11.4674
assemblée	-11.4675
▁rappel	-11.468
▁pouvions	-11.4682
▁signaux	-11.4682
▁diagnostic	-11.4683
▁terribles	-11.4686
▁montagne	-11.4703
▁élargi	-11.4705
▁méditerranéen	-11.4707
▁fuite	-11.4718
▁plantes	-11.4719
▁chaînes	-11.4725
▁Finalement	-11.4726
▁33	-11.4726
▁1989	-11.4726
▁classification	-11.4727
▁urbaines	-11.4731
▁formidable	-11.4732
▁réalisations	-11.474
▁marin	-11.4743
▁potentiellement	-11.4743
▁souple	-11.4746
▁scénario	-11.4746
▁côte	-11.4746
▁t	-11.4748
▁définitions	-11.4753
iser	-11.4754
envoi	-11.4755
▁correspondant	-11.4757
orateur	-11.4764
▁prérogatives	-11.4767
▁Poutine	-11.477
▁spectre	-11.477
▁redevances	-11.4781
▁sièges	-11.4782
op	-11.4783
▁manières	-11.4789
ba	-11.4791
émocratiquement	-11.4794
▁compliqué	-11.4797
▁fardeau	-11.4799
ignore	-11.4799
▁conviens	-11.4799
▁renvoyer	-11.48
▁rarement	-11.4801
▁baser	-11.4802
éthique	-11.4803
▁positivement	-11.4805
incompréhensible	-11.4807
▁reconnues	-11.481
▁confère	-11.4811
▁rationnelle	-11.4812
accidents	-11.4812
▁rigoureuse	-11.4817
alerte	-11.4818
▁é	-11.4818
▁comparer	-11.4824
▁représentés	-11.4825
▁visibilité	-11.4829
▁siècles	-11.483
▁exclu	-11.483
Année	-11.4832
▁polluants	-11.4835
▁1998.	-11.4837
▁témoigner	-11.4841
▁comportements	-11.4845
▁maternelle	-11.4846
octobre	-11.4847
▁exhaustive	-11.485
▁acquise	-11.4851
▁USA	-11.486
▁affectées	-11.4863
▁profitent	-11.4867
▁8,	-11.4868
▁prostitution	-11.4873
no	-11.4874
▁correspondent	-11.4875
▁exerce	-11.4875
▁statistique	-11.4879
▁flexibles	-11.4881
if	-11.4882
▁MEDA	-11.4888
▁reconnaissent	-11.489
▁incidence	-11.489
explique	-11.4891
▁exigeant	-11.4894
▁compatibles	-11.4895
erreur	-11.4902
▁concrétisation	-11.4903
▁dettes	-11.4904
▁déploiement	-11.4904
▁renforcera	-11.4906
▁fondations	-11.4909
▁partisan	-11.4913
▁fausse	-11.4915
▁conteste	-11.4922
▁préoccuper	-11.4922
▁loyale	-11.4923
▁primaire	-11.4924
▁gel	-11.493
▁décidée	-11.4935
▁devoirs	-11.4936
écoute	-11.4938
pé	-11.4939
▁lourdes	-11.494
▁limités	-11.4941
▁essais	-11.4942
▁renseignements	-11.4945
▁adapté	-11.4946
▁potable	-11.4948
▁pacifiques	-11.4952
▁kilomètres	-11.4956
▁hauts	-11.4956
▁super	-11.4961
▁inquiétant	-11.4962
▁revue	-11.4971
▁déplacer	-11.4972
élections	-11.4978
▁page	-11.4986
▁pertinents	-11.4988
▁alloué	-11.4991
▁découvrir	-11.4993
▁naturels	-11.4994
▁larges	-11.4994
▁théorie	-11.4999
▁répondant	-11.4999
▁sphère	-11.4999
▁dos	-11.5
▁retrouvent	-11.5011
nes	-11.5012
▁manquent	-11.5012
actes	-11.5012
▁agissent	-11.5026
▁37	-11.5028
▁ministérielle	-11.503
projet	-11.5033
▁âgés	-11.5059
▁éventuel	-11.5059
▁Se	-11.506
▁contribueront	-11.506
eurs	-11.5061
▁noté	-11.5061
▁semblerait	-11.5061
acquisition	-11.5062
▁états	-11.5063
▁disposant	-11.5067
dit	-11.5068
▁vacances	-11.507
important	-11.5071
apparition	-11.5071
abattage	-11.5071
▁industrialisés	-11.5073
▁précédé	-11.5073
▁formations	-11.5074
▁répété	-11.5082
▁PHARE	-11.5082
▁sommets	-11.5087
▁trilogue	-11.509
▁traverse	-11.5092
▁égale	-11.5097
▁relevé	-11.5097
auto	-11.5099
horizon	-11.5102
▁cadres	-11.5102
pprofondissement	-11.5102
▁Celles	-11.5105
▁Norvège	-11.5113
▁Évidemment	-11.5113
▁vaccination	-11.5114
huile	-11.5115
▁turques	-11.5117
tu	-11.5118
▁envergure	-11.512
▁2001.	-11.512
▁produites	-11.5125
▁conjoint	-11.5127
▁ajouté	-11.5128
▁pilotes	-11.5135
▁chinoises	-11.5142
ph	-11.5143
▁renforcées	-11.5151
▁physiques	-11.5154
▁recrutement	-11.5158
▁préadhésion	-11.5162
encouragement	-11.5165
▁évoquées	-11.5173
▁impliquent	-11.5179
▁mobiles	-11.5188
che	-11.519
▁innovations	-11.519
accompagner	-11.5196
▁personnalité	-11.5197
▁effectif	-11.5197
do	-11.5198
▁luxembourgeoise	-11.5199
▁importés	-11.52
équité	-11.5208
▁élection	-11.5213
▁Tchernobyl	-11.5219
▁réitérer	-11.522
▁provoque	-11.5226
ouest	-11.5227
▁fragile	-11.5227
▁rendement	-11.5229
▁valables	-11.5232
▁caractérise	-11.5233
▁cercle	-11.5243
▁primes	-11.5245
▁menacée	-11.5247
▁soutiendrons	-11.525
entreprendre	-11.5255
▁W	-11.5255
▁franchir	-11.5256
▁contente	-11.5256
▁paramètres	-11.5257
▁serbe	-11.5258
▁navale	-11.5266
▁réjouit	-11.5266
▁terreur	-11.5268
▁légèrement	-11.5268
▁augmentent	-11.5272
▁république	-11.5274
▁Agence	-11.5275
▁aucunement	-11.5278
▁contrainte	-11.5279
▁suggérer	-11.5281
▁insistons	-11.5281
▁the	-11.5281
excellence	-11.5285
▁exposer	-11.5286
▁effectuée	-11.5292
▁contraint	-11.5296
▁Ses	-11.5303
▁lettres	-11.5311
▁Watson	-11.5312
▁retiré	-11.5312
▁entré	-11.5312
▁mortalité	-11.5312
▁affectent	-11.5316
▁décrire	-11.5324
▁tarder	-11.5324
intéresse	-11.5326
▁manœuvre	-11.5326
▁opérationnels	-11.5327
▁noire	-11.5327
▁Posselt	-11.5327
▁vocation	-11.5327
▁paritaire	-11.5327
▁9,	-11.5334
▁massif	-11.5335
▁comprenant	-11.5343
▁consentement	-11.5343
▁respectée	-11.5344
▁tribune	-11.5351
▁salle	-11.5351
▁collectif	-11.5351
▁pilote	-11.5354
▁attentifs	-11.5359
▁acceptons	-11.5362
êtres	-11.5369
▁associer	-11.5373
▁vœux	-11.5374
▁Natura	-11.5374
▁PCP	-11.5375
▁joie	-11.5375
▁déroulent	-11.5378
ni	-11.5381
▁empêché	-11.5381
▁iranien	-11.5382
▁octroyer	-11.5384
ance	-11.5385
▁compromettre	-11.5391
▁revendications	-11.5392
▁mènent	-11.5395
▁réciproque	-11.5395
▁subvention	-11.5397
▁pauvre	-11.5398
▁idéologique	-11.5398
▁consacre	-11.54
▁prolifération	-11.5402
▁34	-11.5403
▁gaspillage	-11.5405
▁mère	-11.5407
▁critiqué	-11.5414
▁ambiguïté	-11.5417
espèce	-11.5418
▁contraires	-11.542
▁plate	-11.5422
iv	-11.5422
exposé	-11.5425
▁qualifier	-11.5427
▁banane	-11.5429
▁PE	-11.543
▁Taïwan	-11.5436
▁planétaire	-11.5436
▁leadership	-11.5436
▁Bref	-11.5436
▁fixant	-11.5437
▁détruit	-11.5437
▁indubitablement	-11.5437
▁exclusive	-11.5443
▁justifiées	-11.5448
▁étroit	-11.545
acier	-11.5453
▁Groupe	-11.5453
▁section	-11.5457
▁exceptionnel	-11.5463
▁douter	-11.5464
▁radicalement	-11.5471
30	-11.5477
▁seuils	-11.5478
▁présidentielles	-11.5481
▁scrutin	-11.5484
▁suffisent	-11.5484
▁sentent	-11.5484
▁stabiliser	-11.5485
▁coûteux	-11.5486
incidence	-11.5488
▁36	-11.5494
▁abordées	-11.5497
▁libérale	-11.5498
▁Français	-11.55
▁partagé	-11.55
▁intégralement	-11.55
OIT	-11.5502
▁association	-11.5506
▁biotechnologie	-11.551
▁éventuels	-11.5512
▁autorisées	-11.5513
▁harcèlement	-11.5515
▁reposant	-11.5517
cinq	-11.552
▁bâtir	-11.5524
▁spécialistes	-11.5524
▁froide	-11.5527
▁dynamisme	-11.5531
▁suprême	-11.5531
▁restreindre	-11.5531
▁sain	-11.5537
▁garantira	-11.5539
▁dépôt	-11.554
▁adresse	-11.5546
▁passera	-11.5553
▁unités	-11.5558
efforcer	-11.5562
▁primordiale	-11.5569
▁personnels	-11.557
estimer	-11.5571
▁confier	-11.5573
mé	-11.5577
▁subsistent	-11.5582
▁investi	-11.5583
▁empêchent	-11.5585
▁affirment	-11.5587
▁comparable	-11.5588
▁mien	-11.559
analyser	-11.5592
▁tarifaires	-11.5593
▁souscris	-11.5594
▁votant	-11.5594
effondrement	-11.5599
▁manqué	-11.56
▁secrets	-11.5602
▁mères	-11.5603
idées	-11.5606
▁douanières	-11.5607
unification	-11.5607
▁déboucher	-11.561
▁disposions	-11.561
▁médical	-11.5613
▁baltes	-11.5614
▁content	-11.5617
▁vins	-11.5618
▁préoccupé	-11.5622
▁soutienne	-11.5622
▁condoléances	-11.5626
▁parcourir	-11.5626
▁intitulé	-11.5629
▁améliore	-11.5632
▁envoie	-11.5637
▁absolu	-11.5643
▁observé	-11.5644
▁onze	-11.5644
▁collaborateurs	-11.5645
exposition	-11.5647
▁menacent	-11.5649
▁exposées	-11.565
▁fini	-11.5653
▁apparaissent	-11.5661
▁litiges	-11.5663
▁pharmaceutiques	-11.5664
▁législateur	-11.5669
▁engendre	-11.5671
up	-11.5671
▁Trois	-11.5674
▁fût	-11.5674
▁couvrant	-11.5674
▁servira	-11.5675
indiquer	-11.5675
▁milieux	-11.5676
▁retenu	-11.5676
▁prononcée	-11.5678
▁44	-11.5681
▁restant	-11.5682
▁arabes	-11.5689
▁influencer	-11.5689
▁contradictions	-11.569
▁croient	-11.569
abstenir	-11.5695
▁honnêtes	-11.5697
▁tourne	-11.57
ot	-11.5701
aliments	-11.5703
▁attribuer	-11.571
▁Député	-11.5711
utodétermination	-11.5712
▁maintient	-11.5717
ts	-11.572
▁financées	-11.5721
▁préoccupante	-11.5721
▁balance	-11.5722
▁paradis	-11.5722
▁longuement	-11.5724
extradition	-11.5727
▁parfaite	-11.5734
▁optimale	-11.5735
apporte	-11.5735
▁procède	-11.5736
▁frontaliers	-11.5737
▁Israéliens	-11.5738
▁1994	-11.5741
▁chargées	-11.5743
▁voyager	-11.5743
▁dramatiques	-11.5753
▁prolongation	-11.5755
▁600	-11.5755
▁originaires	-11.5756
▁découvert	-11.5757
▁exercé	-11.5757
▁puissant	-11.5758
▁souches	-11.5759
▁introduits	-11.5762
intensifier	-11.5764
▁entrent	-11.5764
▁citoyenne	-11.5767
▁délocalisations	-11.5769
▁donnons	-11.5771
▁transitoires	-11.5771
▁resteront	-11.5773
▁dégagé	-11.5773
▁juridiction	-11.5773
▁efforcer	-11.5775
▁tombe	-11.5781
▁ancienne	-11.5782
▁contribuant	-11.5787
écouter	-11.579
ssant	-11.5791
assassinat	-11.5792
▁impression	-11.5796
▁menacées	-11.5797
▁leader	-11.5798
▁intolérable	-11.5798
▁vieille	-11.5798
▁ultime	-11.5804
▁restreint	-11.5806
▁rendez	-11.5807
▁participant	-11.5811
▁Helsinki	-11.5811
▁grève	-11.5814
▁devise	-11.5817
▁contrôlée	-11.5818
hygiène	-11.5819
▁Sarkozy	-11.5819
▁intervenus	-11.582
indemnisation	-11.5825
▁journal	-11.5828
▁clandestins	-11.583
▁chimique	-11.583
▁complément	-11.583
▁travailliste	-11.5833
option	-11.5835
▁fiabilité	-11.5836
▁regroupement	-11.5837
▁préparatoires	-11.5838
▁déçu	-11.5838
▁séparément	-11.5838
▁finance	-11.584
▁souhaiterions	-11.584
offres	-11.5841
▁pharmaceutique	-11.5847
▁suspendue	-11.5849
▁sévère	-11.586
▁producteur	-11.5863
ombre	-11.5866
▁souviens	-11.5868
▁ramener	-11.5869
▁désigner	-11.5869
▁témoignent	-11.5874
▁insulaires	-11.5877
▁cache	-11.5879
accorde	-11.5881
▁tuberculose	-11.5885
▁Nigeria	-11.5885
▁forcé	-11.5885
▁titres	-11.589
▁imparti	-11.5893
▁recommandé	-11.5893
▁françaises	-11.5894
unique	-11.59
▁Viêt	-11.5902
▁constant	-11.5904
▁accueilli	-11.5909
▁logiciels	-11.591
▁comporter	-11.5912
▁démographiques	-11.5918
▁justes	-11.592
tes	-11.5923
▁multilatérale	-11.5927
▁privilège	-11.5929
▁conférer	-11.5929
▁préventives	-11.593
▁rhétorique	-11.5934
▁italiens	-11.5936
ler	-11.5939
enthousiasme	-11.5939
▁médicale	-11.594
▁opérer	-11.5943
▁v	-11.5943
▁illégalement	-11.5944
▁patient	-11.5945
▁résister	-11.5946
aurions	-11.5948
▁aurez	-11.5952
▁enseignement	-11.5953
ajouterai	-11.5955
▁tenues	-11.5956
▁espagnols	-11.5958
▁venus	-11.5962
▁rentrer	-11.5965
Occident	-11.5972
▁intense	-11.5979
▁forment	-11.5981
ive	-11.5981
▁fassions	-11.5984
▁appareils	-11.5985
▁aisément	-11.5986
inviter	-11.5994
opposent	-11.5995
▁douanes	-11.5995
▁composé	-11.6003
accompagnement	-11.6008
▁idéal	-11.6009
études	-11.6011
appeler	-11.6012
▁fictif	-11.6012
▁Jérusalem	-11.6017
▁provient	-11.6017
▁comptons	-11.6017
▁déterminés	-11.6019
▁officiels	-11.6022
accueillir	-11.6022
▁appelée	-11.603
▁serez	-11.6036
▁communiqué	-11.6037
▁tardive	-11.6038
▁traitons	-11.604
▁modifiées	-11.6042
▁posés	-11.6042
▁courrier	-11.6045
U	-11.6049
▁maisons	-11.6049
▁stricts	-11.605
▁Cambodge	-11.605
▁pétroliers	-11.6053
▁39	-11.6055
▁délibérations	-11.6056
▁colonies	-11.6057
▁illicite	-11.6062
▁mixte	-11.6062
▁souscrire	-11.6069
▁fossiles	-11.6071
▁marges	-11.6073
▁guider	-11.6077
▁communistes	-11.6079
▁vivants	-11.6084
obligations	-11.6084
▁moyennant	-11.6086
▁Bon	-11.609
▁quota	-11.6096
▁réalise	-11.6096
▁audition	-11.6097
▁Chambre	-11.61
▁originale	-11.6101
▁légaux	-11.6101
▁destin	-11.6101
▁permettraient	-11.6102
▁toucher	-11.6105
▁prestataires	-11.6108
équipe	-11.6108
▁magnifique	-11.6109
êtes	-11.6112
▁urgentes	-11.6121
▁urbain	-11.6122
▁Eurostat	-11.6122
▁signataires	-11.6127
▁Égypte	-11.6131
▁rurale	-11.6136
▁acceptées	-11.614
▁approuvées	-11.6141
▁réduites	-11.6143
▁alternatifs	-11.6146
▁informelle	-11.615
▁montrant	-11.615
▁protectionniste	-11.6154
▁surprenant	-11.6162
▁semblables	-11.6166
▁décideurs	-11.6168
▁améliorant	-11.6168
▁images	-11.6168
▁inspecteurs	-11.6169
▁attache	-11.617
▁menés	-11.6176
▁élaborée	-11.618
Islande	-11.619
▁1997.	-11.6192
▁absent	-11.6194
▁grippe	-11.6201
▁propagation	-11.6201
▁réguliers	-11.6201
▁rues	-11.6204
lu	-11.6205
▁perd	-11.6205
▁composée	-11.6211
▁Lomé	-11.6218
parole	-11.6224
▁problématiques	-11.6227
▁entrave	-11.6227
st	-11.6229
▁payé	-11.6241
▁prospère	-11.6245
▁assurance	-11.6246
▁nominal	-11.6252
entend	-11.6253
incitation	-11.6253
▁250	-11.6254
▁situés	-11.6258
▁adaptés	-11.6261
▁sportives	-11.6263
▁pétition	-11.6265
▁compatibilité	-11.6269
▁mardi	-11.6269
▁pertinence	-11.6269
▁restauration	-11.6269
▁demanderais	-11.6269
▁perdent	-11.627
armement	-11.6272
▁paient	-11.6274
▁professeur	-11.6282
aquaculture	-11.6286
▁raisonnement	-11.6286
▁aimé	-11.6287
octroyer	-11.6292
▁rejetons	-11.6293
▁exigeons	-11.6297
▁Roth	-11.6297
▁adaptation	-11.6298
▁rectificatif	-11.6299
▁Jarzembowski	-11.6303
▁synthèse	-11.6303
▁famine	-11.6303
▁Très	-11.6305
▁offert	-11.6308
▁classes	-11.6309
▁renforcent	-11.631
▁42	-11.631
▁Saint	-11.6315
▁respectueuse	-11.6316
▁accordés	-11.6316
▁voulaient	-11.632
▁égaux	-11.632
▁bénéficiant	-11.632
▁incluant	-11.6321
▁quart	-11.633
▁déplorable	-11.6333
▁pavillon	-11.6333
▁aimerions	-11.6337
▁exigé	-11.6342
▁révisé	-11.6346
ard	-11.635
▁Wallström	-11.6354
▁affirmant	-11.6354
▁troïka	-11.6354
allocation	-11.6356
▁écho	-11.6358
▁filets	-11.6359
▁légère	-11.6365
▁automatique	-11.6365
▁territoriales	-11.6366
▁sexuel	-11.6366
▁Oomen	-11.6371
▁connaissez	-11.6372
▁fi	-11.6373
▁usines	-11.6376
austérité	-11.6377
Observatoire	-11.6378
▁examinées	-11.6379
▁applications	-11.638
rions	-11.6381
▁souffrir	-11.6384
▁franc	-11.6384
▁autrichien	-11.6384
om	-11.6385
▁occupent	-11.6385
▁secondaire	-11.6385
10	-11.6387
▁spécificités	-11.6387
▁Reding	-11.6389
▁autonomie	-11.6392
▁attire	-11.6392
▁équipes	-11.6392
▁avocats	-11.6395
▁pratiquer	-11.64
aurons	-11.6408
▁orateur	-11.6415
▁Somalie	-11.6423
▁devriez	-11.6423
▁cités	-11.6429
▁inquiets	-11.643
▁cigarettes	-11.643
gu	-11.643
▁proportionnelle	-11.6432
institutions	-11.6439
▁contenir	-11.644
▁reconstitution	-11.6441
▁réhabilitation	-11.6441
▁médiation	-11.6441
▁46	-11.6442
▁uniformes	-11.6442
▁enseignants	-11.6448
▁blessés	-11.6451
ab	-11.6459
▁nationalisme	-11.646
▁accordons	-11.6463
▁affecté	-11.6464
▁longueur	-11.647
▁persécution	-11.6472
▁racines	-11.6472
▁arrêtés	-11.6475
▁TACIS	-11.6475
▁réadmission	-11.6475
▁Journée	-11.6476
▁résident	-11.6481
▁regretter	-11.6485
occupe	-11.6489
▁FED	-11.6493
▁incident	-11.6494
▁réclamé	-11.6502
▁distances	-11.6503
▁individuel	-11.6504
hommes	-11.6509
▁englobe	-11.6516
▁supprimé	-11.6516
▁respectives	-11.6517
▁journaliste	-11.6524
▁scolaire	-11.6525
▁termine	-11.6528
▁grecs	-11.6528
Écosse	-11.6534
étendue	-11.6534
▁éligibles	-11.6535
▁extrêmes	-11.6538
▁camions	-11.6538
▁rare	-11.6539
▁cacher	-11.654
▁légalité	-11.6544
▁retenir	-11.6545
▁survivre	-11.6545
▁réalisme	-11.6545
▁imposant	-11.6547
▁infrastructure	-11.6547
▁In	-11.656
▁lier	-11.6565
▁débarrasser	-11.6566
▁auditions	-11.6568
▁exercent	-11.6568
Démocrates	-11.6569
▁atténuer	-11.6569
▁débouché	-11.6577
▁Corbett	-11.658
be	-11.6581
▁appartiennent	-11.6582
EL	-11.6584
▁Nam	-11.6587
▁échéance	-11.6588
▁marquée	-11.6588
espérer	-11.6604
▁excuses	-11.6604
▁directeurs	-11.6608
▁entraînent	-11.6609
vo	-11.6612
▁vétérinaire	-11.6612
▁alimentation	-11.6615
▁saisi	-11.6619
ayons	-11.6619
excellente	-11.662
▁pires	-11.6624
▁appellent	-11.6624
▁crédibles	-11.6631
fi	-11.6635
▁urbaine	-11.6636
▁censée	-11.6647
▁synonyme	-11.6648
▁organisés	-11.665
▁Pacte	-11.6652
énorme	-11.6654
▁déplorer	-11.6659
▁opérationnelles	-11.666
▁poursuivra	-11.6666
▁risquons	-11.6669
▁existait	-11.6675
▁correction	-11.6683
▁démonstration	-11.6686
▁méfiance	-11.6686
▁fournissant	-11.6686
▁assume	-11.6689
▁législateurs	-11.6693
▁approfondir	-11.6697
▁conseiller	-11.6697
▁43	-11.67
▁frontalières	-11.6702
▁Sahara	-11.6704
▁délivrance	-11.6704
▁Pack	-11.6704
▁délibérément	-11.6704
▁fonctionné	-11.6707
▁placés	-11.6714
▁reposent	-11.6716
▁ciblée	-11.6721
▁souffrant	-11.6721
▁aviez	-11.6725
▁montée	-11.6728
▁bilatérale	-11.6728
▁meurtre	-11.6737
▁comptabilité	-11.6739
▁Jacques	-11.674
installation	-11.6743
▁signatures	-11.6743
▁réclament	-11.6745
▁sauvetage	-11.6757
▁Forum	-11.6757
▁annonce	-11.6762
▁préoccupant	-11.6765
tte	-11.6766
▁appelés	-11.6767
▁rue	-11.677
▁fondateurs	-11.6773
▁gazoduc	-11.6773
▁tunnel	-11.6773
▁rentable	-11.6773
▁coupable	-11.6774
▁distinguer	-11.6775
méditerranéen	-11.6777
▁protégées	-11.6783
▁entraînerait	-11.6785
▁significatives	-11.6787
endroit	-11.6788
▁optimiste	-11.6791
▁tension	-11.6791
Ruijten	-11.6793
▁évitant	-11.6793
▁maîtrise	-11.6795
▁dépassent	-11.6799
▁souverain	-11.68
▁pages	-11.6803
du	-11.6807
▁validité	-11.6811
▁condamnons	-11.6811
▁dues	-11.6818
▁Euro	-11.6818
4-02	-11.6822
▁0,	-11.6823
assister	-11.6824
▁imposent	-11.6825
éligibilité	-11.6829
▁souscrit	-11.6829
▁exceptionnelles	-11.6829
▁voyez	-11.683
▁élémentaires	-11.6833
▁stupéfiants	-11.6833
▁apportés	-11.684
▁original	-11.684
▁navals	-11.6841
▁remet	-11.6844
▁permanents	-11.6844
▁salué	-11.6845
▁interrompue	-11.6846
▁assurés	-11.6848
▁consentir	-11.6849
▁dépensés	-11.685
Algérie	-11.6854
▁utilité	-11.6863
▁Seule	-11.6864
▁soyez	-11.6865
▁aisé	-11.6866
▁lentement	-11.6867
▁manquer	-11.6867
▁révisée	-11.6869
▁prescriptions	-11.6869
▁instauré	-11.6877
▁El	-11.6879
▁controverse	-11.6881
▁innovantes	-11.6883
▁envisagées	-11.6883
▁recevront	-11.6883
égide	-11.6883
▁cherché	-11.6883
5-04	-11.6883
▁arrêtée	-11.689
▁radical	-11.6893
▁socialement	-11.6894
▁pieds	-11.6899
▁préparatoire	-11.6899
▁téléphone	-11.6899
▁dollar	-11.69
▁Lehne	-11.6901
FI	-11.6901
Bendit	-11.6902
ka	-11.6902
▁49	-11.6907
▁nourrir	-11.6908
▁effectifs	-11.6912
▁notification	-11.6917
▁filière	-11.6918
▁israélienne	-11.6918
▁réserver	-11.6918
▁Irlandais	-11.692
ants	-11.692
▁insistance	-11.6925
▁manifestants	-11.6925
▁pousse	-11.6932
▁incroyable	-11.6934
▁affecter	-11.6936
▁sportifs	-11.6937
▁vigilance	-11.6937
▁Jeux	-11.6939
▁coupes	-11.6939
ca	-11.6942
échéance	-11.6945
▁constructives	-11.6951
LT	-11.6952
▁arme	-11.6953
▁réponde	-11.6954
▁calme	-11.6954
▁négligeable	-11.6954
▁Cohn	-11.6956
▁Ferrero	-11.6956
▁entraves	-11.6962
oppression	-11.6963
tant	-11.6965
▁tournant	-11.6969
▁comptables	-11.6971
▁construit	-11.6982
éréglementation	-11.6984
▁progresse	-11.6985
rez	-11.6987
▁Inde	-11.6987
inégalité	-11.6989
▁insuffisantes	-11.6989
▁bassin	-11.6991
▁inquiète	-11.6991
▁Quinze	-11.6992
▁patience	-11.6992
▁flagrante	-11.6993
expansion	-11.6999
▁violent	-11.7
▁cessent	-11.7007
▁reviendrai	-11.7009
▁contrepartie	-11.7012
▁maximal	-11.7025
▁passeport	-11.7028
▁confidentialité	-11.7029
implique	-11.7032
▁verra	-11.7042
▁licence	-11.7046
▁Russes	-11.7047
▁capitalisme	-11.7049
▁85	-11.7054
▁réglé	-11.7057
▁ambitieuses	-11.7057
▁progressiste	-11.7064
▁Vitorino	-11.7066
bi	-11.7066
▁ordinaire	-11.7066
▁courageux	-11.7066
▁persuader	-11.7067
▁façons	-11.7079
gardant	-11.7082
▁ignore	-11.7084
▁bateau	-11.7084
▁substitution	-11.7085
▁jouit	-11.7085
▁avouer	-11.7087
▁puissants	-11.7091
chose	-11.7092
pi	-11.7092
▁tu	-11.7099
▁tremblement	-11.7101
▁originaire	-11.7101
▁complaisance	-11.7103
▁paraissent	-11.7103
▁adoptons	-11.7104
▁codes	-11.7104
▁Erasmus	-11.7105
▁médecine	-11.7106
▁innovation	-11.7112
▁Quelques	-11.7119
▁chère	-11.712
▁procureur	-11.712
▁neutralité	-11.7121
▁augmentant	-11.7121
▁embargo	-11.7121
▁protéines	-11.7124
▁souhaitez	-11.7136
▁Berlusconi	-11.714
▁associée	-11.7147
▁faciles	-11.7151
▁soutenues	-11.7153
eur	-11.7154
▁révéler	-11.7158
▁Costa	-11.7158
▁spatiale	-11.7159
▁défendent	-11.716
▁israéliennes	-11.716
▁accordant	-11.7167
▁bovins	-11.7167
▁régulière	-11.7173
▁attentive	-11.7174
▁compensations	-11.7177
Waldner	-11.7177
▁Serbes	-11.7177
▁Caraïbes	-11.7177
▁Haïti	-11.718
▁reviendrait	-11.7181
▁dirigée	-11.7181
▁travailleur	-11.7181
▁exécutif	-11.7182
▁maîtriser	-11.7183
▁ingrédients	-11.7183
université	-11.7185
ois	-11.7186
▁regarde	-11.719
▁Sinon	-11.7191
▁enjeu	-11.7191
▁sécheresse	-11.7195
▁semblait	-11.7196
▁constituait	-11.7196
▁visage	-11.7198
▁intéressants	-11.7201
▁séances	-11.7202
▁intéresse	-11.7203
▁sciences	-11.7205
▁célèbre	-11.7213
▁Soyons	-11.7214
▁Mann	-11.7218
avion	-11.7223
▁Liikanen	-11.7233
▁fructueux	-11.7233
▁signifier	-11.7236
▁combiner	-11.7238
▁insuffisants	-11.7241
▁intervenu	-11.7243
abri	-11.725
ign	-11.725
▁Canaries	-11.7252
▁progressif	-11.7252
▁tabagisme	-11.7252
▁transposer	-11.7252
▁voudraient	-11.7252
▁penche	-11.7256
▁étonnant	-11.7261
▁concurrentiel	-11.7268
▁Chili	-11.7271
4-00	-11.7274
▁préoccupent	-11.7278
▁traitent	-11.7278
▁avion	-11.7281
ud	-11.7281
va	-11.7283
▁120	-11.7284
▁combustible	-11.7289
▁remercions	-11.7289
▁évolué	-11.7289
▁vaccins	-11.7293
affirme	-11.7293
▁produise	-11.7294
▁terminée	-11.7297
▁ajoute	-11.7303
▁tangibles	-11.7305
▁41	-11.7305
▁br	-11.7307
▁attentif	-11.7308
▁Nombre	-11.7309
▁47	-11.7309
▁700	-11.731
▁IV	-11.731
ge	-11.731
impunité	-11.7316
▁accompagné	-11.7319
▁statu	-11.7319
▁internet	-11.7325
▁Böge	-11.7327
▁recueillir	-11.7329
▁stables	-11.733
▁basés	-11.7335
▁menacé	-11.7338
ante	-11.7338
▁jouera	-11.7339
▁régulier	-11.7346
▁touristique	-11.7346
▁honteux	-11.7346
▁désireux	-11.7347
▁goût	-11.7348
▁directions	-11.7353
adhérer	-11.7354
▁rempli	-11.7357
▁rencontrées	-11.7358
to	-11.736
▁modifie	-11.736
▁répondrai	-11.7363
▁publiée	-11.7364
▁conserve	-11.7364
▁inefficace	-11.7365
▁cruciaux	-11.7365
▁of	-11.7366
▁soulignent	-11.7369
accessibilité	-11.7373
optique	-11.7373
▁entrera	-11.738
▁suivra	-11.738
▁utilisons	-11.7386
▁ciblées	-11.7388
▁politiciens	-11.7389
▁traîne	-11.739
▁arrêts	-11.7393
▁inférieure	-11.7395
▁É	-11.7396
▁réalisable	-11.7403
accueille	-11.7403
ser	-11.7404
▁ultérieure	-11.7404
▁prendront	-11.7405
▁consacrées	-11.7406
▁communisme	-11.7406
▁protester	-11.7408
▁diffuser	-11.741
aggraver	-11.741
affirmation	-11.7411
▁International	-11.7412
▁maintenue	-11.7412
▁proportions	-11.7415
▁indemnités	-11.7416
▁pistes	-11.742
▁intensive	-11.742
▁2011.	-11.7422
▁homosexuels	-11.7428
annulation	-11.743
alliance	-11.743
OGM	-11.743
▁signifierait	-11.7431
▁criminel	-11.7437
▁horizontale	-11.7444
▁défendons	-11.7445
▁œuvrer	-11.7449
aéroport	-11.7449
▁dessous	-11.7451
▁privilégié	-11.7453
▁quarante	-11.746
▁choisie	-11.7465
attend	-11.7465
étape	-11.7469
▁séparé	-11.7469
▁vagues	-11.7469
▁insistant	-11.748
▁franchise	-11.748
▁objection	-11.7484
▁ayez	-11.7484
▁évidentes	-11.749
da	-11.7492
épargne	-11.7492
▁équivalent	-11.7497
apport	-11.75
▁septentrionale	-11.75
▁vent	-11.75
▁dominante	-11.7501
▁nôtres	-11.7507
▁concernait	-11.7518
▁convenir	-11.7518
▁dépistage	-11.7518
▁motivation	-11.7519
▁Durant	-11.7519
▁sage	-11.7521
▁résidents	-11.7523
▁annexe	-11.7525
▁compétitives	-11.7528
▁électorales	-11.7529
▁avérée	-11.7529
▁synergies	-11.7533
▁1996.	-11.7535
▁rencontres	-11.7537
▁intermédiaires	-11.7538
▁naître	-11.7542
▁adoptent	-11.7545
▁écarts	-11.7545
isolement	-11.7546
▁trans	-11.755
▁vive	-11.7552
▁axes	-11.7557
▁Harbour	-11.7557
▁olympiques	-11.7558
▁FEM	-11.7562
▁écosystèmes	-11.7564
▁massacre	-11.7575
em	-11.7576
▁web	-11.7576
▁requièrent	-11.7576
▁attente	-11.7577
▁obliger	-11.758
ib	-11.7582
▁vache	-11.7582
▁sauvages	-11.7585
nés	-11.759
▁visites	-11.7595
▁possession	-11.7596
▁opposons	-11.7596
▁diminue	-11.76
po	-11.7602
ac	-11.7606
▁assistants	-11.7606
imaginer	-11.7606
▁Moi	-11.7608
engagent	-11.761
04	-11.7613
▁aidé	-11.7619
▁payés	-11.762
▁habitudes	-11.7623
hypocrisie	-11.7623
avril	-11.7623
▁personnalités	-11.7625
▁préoccupée	-11.7633
▁temporaires	-11.7633
▁indirecte	-11.7634
▁multitude	-11.7635
▁garantisse	-11.7635
▁dotation	-11.7635
▁province	-11.7635
▁mobile	-11.7635
▁SPG	-11.7636
▁matériels	-11.7638
▁ECHO	-11.764
ateur	-11.764
▁vraisemblable	-11.764
▁potentielle	-11.7641
▁prononce	-11.7642
▁boissons	-11.7642
▁entraver	-11.7643
▁viendra	-11.7647
▁Barón	-11.7654
▁éclaircissement	-11.7656
▁restitutions	-11.7659
▁innocents	-11.7664
▁laissons	-11.7669
▁tentons	-11.7674
▁dictateur	-11.7675
▁malentendu	-11.7675
écentralisation	-11.7675
15	-11.7676
▁débloquer	-11.7676
▁rejetés	-11.7681
▁justifient	-11.7682
▁verser	-11.7685
▁remplacé	-11.7686
and	-11.7689
▁reconversion	-11.7693
▁quitté	-11.7694
▁basque	-11.7696
▁renforcés	-11.7704
▁protestations	-11.7708
▁rom	-11.771
▁Pacifique	-11.7714
▁impérativement	-11.7714
▁semblable	-11.7714
▁pèsent	-11.7717
▁lenteur	-11.7718
uranium	-11.7721
accomplir	-11.7721
▁placée	-11.7724
▁identifiés	-11.7731
▁judicieuse	-11.7731
▁vives	-11.7732
▁artistes	-11.7733
▁incluent	-11.7735
▁remplit	-11.7736
▁renvoie	-11.7739
05	-11.7746
▁Thessalonique	-11.7752
▁menons	-11.7757
▁faisaient	-11.7759
ga	-11.7761
isant	-11.7764
▁débattue	-11.777
▁fameux	-11.7772
▁actionnaires	-11.7772
▁spectaculaire	-11.7773
▁réparer	-11.7774
impossibilité	-11.7781
▁laissez	-11.7781
▁mentale	-11.7783
K	-11.7784
▁débuté	-11.7785
▁paie	-11.7785
▁plafonds	-11.7789
▁remerciant	-11.7792
▁amendes	-11.7793
▁folle	-11.7793
▁compétition	-11.7793
▁qualification	-11.7793
▁sexuels	-11.7796
DEM	-11.7797
▁touristes	-11.7797
▁inscrite	-11.7806
ssent	-11.7811
▁Sharon	-11.7812
▁chaos	-11.7812
▁reproduction	-11.7812
ateurs	-11.7813
▁spécificité	-11.7813
use	-11.7819
▁refusons	-11.7821
▁collectifs	-11.7821
▁exploitants	-11.7827
▁Ra	-11.783
▁Rehn	-11.7832
▁confrontation	-11.7833
▁préjudiciable	-11.7833
▁concurrentielle	-11.7836
▁acceptent	-11.7841
▁poussé	-11.7845
▁déplacements	-11.7847
▁égales	-11.7847
▁chocolat	-11.7852
▁racistes	-11.7853
▁transparents	-11.7857
▁longs	-11.7859
▁multilatérales	-11.7862
observer	-11.7864
▁identifié	-11.7865
▁précisions	-11.7865
▁religions	-11.7871
▁inscrire	-11.7871
▁confirmation	-11.7872
▁Bâle	-11.7872
OMS	-11.7872
▁symboles	-11.7873
encourage	-11.7873
▁refonte	-11.7874
▁parviendra	-11.7875
imagine	-11.7876
▁erronée	-11.7878
▁additifs	-11.788
▁ajustements	-11.7887
▁réuni	-11.7887
▁offres	-11.789
▁bénéficieront	-11.7891
Arctique	-11.7892
▁limitations	-11.7893
▁redoubler	-11.7899
▁phases	-11.7906
▁forcer	-11.7907
aires	-11.7907
excuser	-11.7908
▁pères	-11.7909
▁reconstruire	-11.7912
▁José	-11.7912
▁réunification	-11.7912
▁Justice	-11.7915
▁opportune	-11.7918
▁acquérir	-11.7919
▁tués	-11.7922
▁souhaitait	-11.7923
extrémisme	-11.7932
▁Déclaration	-11.7932
▁PNR	-11.7933
▁retire	-11.7935
▁parcours	-11.7937
Affaire	-11.7941
▁compliquée	-11.7941
▁dérouler	-11.7942
tout	-11.7944
tend	-11.7945
▁dirigé	-11.7946
▁africain	-11.7948
▁éducatifs	-11.7949
▁fragmentation	-11.7952
▁accueil	-11.7953
▁prétendent	-11.7953
▁forestière	-11.7954
▁dérive	-11.7954
▁Pr	-11.7958
Azerbaïdjan	-11.7961
▁champs	-11.7963
▁inconvénients	-11.7969
▁Bangemann	-11.7972
▁prévaloir	-11.7972
accompagne	-11.7973
▁logistique	-11.7974
▁vétérinaires	-11.7975
▁échapper	-11.7976
▁lacune	-11.7979
angle	-11.798
expertise	-11.7981
▁inutilement	-11.7982
▁transmises	-11.7985
▁2013.	-11.7985
▁dirigeant	-11.7987
▁engendrer	-11.7989
▁pur	-11.7992
▁biomasse	-11.7992
▁situées	-11.7998
▁viables	-11.8001
▁gagne	-11.8002
▁conjoints	-11.8003
▁urgents	-11.8003
▁comprendra	-11.8008
▁nommer	-11.8012
▁Loukachenko	-11.8012
▁choc	-11.8015
▁11,	-11.8016
▁décident	-11.8018
▁excessivement	-11.8019
▁courante	-11.8019
▁indication	-11.8023
arrestation	-11.8024
▁géré	-11.8027
▁angle	-11.803
▁rupture	-11.8033
▁autrefois	-11.8034
▁km	-11.8035
▁signée	-11.8044
▁invitation	-11.8045
▁marques	-11.8047
équipement	-11.8047
CS	-11.805
▁ralentissement	-11.8053
▁12,	-11.8062
▁rappellerai	-11.8065
▁pont	-11.8071
▁substantiel	-11.8072
▁veillant	-11.8073
▁maïs	-11.8073
▁aperçu	-11.8075
▁radioactifs	-11.8076
▁poursuivis	-11.808
▁intensité	-11.808
▁privilégier	-11.8082
▁discute	-11.8086
der	-11.8087
▁traitant	-11.8092
▁craignent	-11.8094
▁recouvrement	-11.8095
▁tendre	-11.8096
▁Lamy	-11.8096
▁arbitraire	-11.8096
▁père	-11.8099
sept	-11.8103
▁800	-11.8104
▁couvrent	-11.8105
▁amenés	-11.8108
+	-11.811
▁modestes	-11.8112
▁commettre	-11.8114
▁David	-11.8114
▁examinera	-11.8115
▁entraînant	-11.8115
▁Chypriotes	-11.8116
▁criminelle	-11.8121
▁végétales	-11.8123
▁quo	-11.8127
▁supérieurs	-11.8129
▁exécutions	-11.8135
▁IND	-11.8135
cadres	-11.8137
▁description	-11.8137
▁domestique	-11.8138
▁délocalisation	-11.8138
▁priver	-11.8138
▁facilite	-11.8143
enveloppe	-11.8144
entretien	-11.8144
iens	-11.8149
▁mélange	-11.8151
▁démission	-11.8151
échanges	-11.8153
▁armateurs	-11.8155
▁facto	-11.8155
▁laitier	-11.8159
▁grecques	-11.816
▁reçues	-11.8162
▁harmonisées	-11.8169
▁sexuelles	-11.8179
▁clôture	-11.818
od	-11.8184
acheter	-11.8185
commission	-11.8185
▁votée	-11.8187
▁envie	-11.8187
▁excessifs	-11.8189
▁occupé	-11.8192
▁Finances	-11.8196
▁PNB	-11.8196
▁demandait	-11.8196
▁introduisant	-11.8196
oc	-11.8199
▁conservateur	-11.82
ed	-11.82
▁Sri	-11.82
▁tuer	-11.8209
▁diplômes	-11.8213
▁trafiquants	-11.8217
▁Robert	-11.8217
▁catégoriquement	-11.8219
▁associées	-11.8222
▁suivies	-11.823
▁augmentations	-11.8231
▁populaires	-11.8234
▁Madère	-11.8238
▁Fondation	-11.8238
▁étranger	-11.824
▁catastrophique	-11.8241
▁contradictoire	-11.8241
▁contrer	-11.8242
▁éradiquer	-11.8245
bu	-11.8246
▁prudents	-11.8247
2.	-11.8247
▁secondes	-11.8249
▁asile	-11.8249
▁captures	-11.8251
▁interdite	-11.8257
▁Secrétaire	-11.8259
▁divisions	-11.826
▁précaire	-11.8262
▁éducatif	-11.8262
▁comptable	-11.8262
▁reconnaissante	-11.8264
á	-11.8266
▁désolé	-11.8269
▁horaires	-11.827
▁inférieurs	-11.8276
ana	-11.8279
▁dimanche	-11.8279
▁enfreint	-11.828
▁classique	-11.8283
▁menacer	-11.8283
▁révèlent	-11.8284
▁amène	-11.8285
▁villages	-11.8286
exige	-11.8288
▁défenseur	-11.8292
▁comportent	-11.8292
▁Venezuela	-11.83
clé	-11.8302
▁coordinateur	-11.8304
▁généralisée	-11.8308
▁interprètes	-11.8312
▁étudié	-11.8316
▁déclarée	-11.8319
▁foyer	-11.8325
▁brutale	-11.8325
▁appliquant	-11.8326
▁Autre	-11.8326
▁jusque	-11.8326
▁Accord	-11.8328
alors	-11.8331
▁2015	-11.8331
▁substantielles	-11.8331
▁alliance	-11.8337
tique	-11.8341
▁Chinois	-11.8342
ve	-11.8342
▁moindres	-11.8343
▁agréable	-11.8344
▁souterraines	-11.8349
▁couvertes	-11.835
▁inconditionnel	-11.8352
▁conçue	-11.8354
▁génère	-11.836
▁sépare	-11.8361
▁défauts	-11.8362
▁limitent	-11.8364
▁luttent	-11.8368
affectation	-11.8372
▁bombes	-11.8374
▁adoptera	-11.8376
▁saisis	-11.8376
▁trains	-11.8381
▁pourrez	-11.8383
▁52	-11.8383
▁restrictive	-11.8388
▁tangible	-11.8388
▁censé	-11.8395
▁composantes	-11.8399
rie	-11.8403
▁Barrot	-11.8405
▁chantage	-11.8405
▁prononcés	-11.8408
▁présidé	-11.8408
▁issues	-11.8409
▁Euratom	-11.841
per	-11.8413
▁trouvera	-11.8413
▁octroyée	-11.8414
opérer	-11.8415
▁sanctionner	-11.8416
▁forcée	-11.8416
▁perçu	-11.8422
oublier	-11.8423
▁Ligue	-11.8426
▁partielle	-11.8426
installer	-11.8427
▁consenti	-11.8428
émettre	-11.8437
▁barre	-11.8439
immigrants	-11.844
vi	-11.8442
▁contribuerait	-11.8448
▁remplissent	-11.8448
▁angulaire	-11.8451
▁neutre	-11.8451
▁écrasante	-11.8453
▁exacte	-11.8459
▁substantiels	-11.8466
▁Séville	-11.8468
▁dépendre	-11.8471
olive	-11.8472
▁songe	-11.8477
▁encouragent	-11.8477
ho	-11.8478
▁affaiblir	-11.8481
hi	-11.8481
▁cohérentes	-11.8481
▁carences	-11.8484
▁achevé	-11.8486
▁Troisième	-11.8487
▁Côte	-11.849
▁Force	-11.8491
▁préparés	-11.8492
▁souverains	-11.8492
▁rallier	-11.8495
▁contenue	-11.8497
appréciation	-11.85
▁visibles	-11.851
▁perpétrés	-11.8511
▁Lanka	-11.8511
▁gamme	-11.8511
▁valorisation	-11.8511
▁polonaise	-11.8511
▁semences	-11.8513
▁psychologique	-11.8515
▁pièce	-11.8516
▁espaces	-11.8517
▁forums	-11.8517
▁13,	-11.8524
iques	-11.8531
▁terrestres	-11.8533
atmosphère	-11.8542
▁sessions	-11.8543
▁inquiétante	-11.8545
▁ressemble	-11.8548
▁supposer	-11.8549
▁incapacité	-11.855
▁fermé	-11.8551
habillement	-11.8554
▁apportant	-11.8555
▁visité	-11.8556
▁intervient	-11.8557
▁quotidiennement	-11.856
▁améliorent	-11.856
oeuvre	-11.8562
avèrent	-11.8562
approfondir	-11.8564
▁menant	-11.8569
com	-11.8571
▁résolues	-11.8573
▁disposerons	-11.8574
▁cherchons	-11.8575
▁redistribution	-11.8575
▁modulation	-11.8575
▁jugés	-11.8579
▁constatation	-11.8581
▁créées	-11.8582
▁causer	-11.8591
▁lancés	-11.8594
▁assiste	-11.8596
▁Florence	-11.8596
▁Prenons	-11.8596
▁hôpitaux	-11.8597
▁ménages	-11.8598
▁licenciés	-11.8602
amène	-11.8605
▁collectivités	-11.8611
▁McCreevy	-11.8618
▁Prestige	-11.8618
▁Annan	-11.8618
▁contourner	-11.8619
▁facilitera	-11.8623
▁entité	-11.8627
immense	-11.8633
Ivoire	-11.864
▁Delors	-11.864
▁Kurdes	-11.864
▁51	-11.8643
▁viole	-11.8644
▁privilèges	-11.8646
audition	-11.8649
▁fournira	-11.8652
▁charger	-11.8659
▁sages	-11.866
▁massacres	-11.866
▁référer	-11.8661
ysfonctionnement	-11.8661
▁gardienne	-11.8661
▁appuyé	-11.867
esclavage	-11.8672
▁financée	-11.8675
▁condamnations	-11.8682
▁domination	-11.8683
▁dates	-11.8686
▁antibiotiques	-11.8686
▁synergie	-11.8688
▁excès	-11.8689
▁tissu	-11.8689
équipements	-11.8691
▁espagnoles	-11.8693
▁saper	-11.8696
▁croître	-11.8705
▁Albanie	-11.8707
▁interdisant	-11.8708
▁manipulation	-11.871
▁incitations	-11.871
▁devenues	-11.8711
▁prouvent	-11.8712
▁coups	-11.8715
▁persiste	-11.8721
▁conclurai	-11.8724
▁radicaux	-11.8726
▁Rio	-11.8726
▁conventionnelle	-11.8741
▁vigilants	-11.8742
▁reconnaisse	-11.8744
ANASE	-11.8748
▁Crespo	-11.8748
▁Tchad	-11.8748
▁refuge	-11.8748
▁transplantation	-11.8748
▁Socrates	-11.8751
▁Laissez	-11.8753
écho	-11.8758
▁migrations	-11.8765
▁bénéfiques	-11.8766
▁Açores	-11.877
▁visiteurs	-11.8771
mar	-11.8771
▁cruciales	-11.8776
▁désirer	-11.8777
▁militants	-11.878
▁signés	-11.8782
è	-11.8782
▁prévaut	-11.8792
▁prévoyait	-11.8792
▁faisabilité	-11.8792
▁limitant	-11.8792
▁tentation	-11.8797
▁vain	-11.8797
▁aille	-11.8799
insertion	-11.8802
▁1994,	-11.8802
▁unanimité	-11.8806
▁impasse	-11.8809
▁bienvenu	-11.8814
▁protestation	-11.8819
▁fournisseur	-11.882
▁potentielles	-11.882
▁conviendra	-11.882
Arménie	-11.8824
▁examinés	-11.8826
▁accompagnée	-11.8826
▁exportateurs	-11.8827
▁restrictives	-11.8832
▁portera	-11.8837
▁abordons	-11.8841
ingérence	-11.8846
▁restés	-11.8849
▁Démocrates	-11.885
outre	-11.8851
▁accompagner	-11.8853
▁attribué	-11.8855
▁informée	-11.8862
▁entretenir	-11.8866
▁subit	-11.8866
▁envisageons	-11.8867
Angleterre	-11.8869
▁homologues	-11.8869
▁allocations	-11.8874
▁appréciation	-11.8875
▁domestiques	-11.8877
▁allouées	-11.8877
▁rationalisation	-11.888
▁récupérer	-11.888
▁incluses	-11.8881
▁passons	-11.8886
épidémie	-11.8891
Russie	-11.8891
abandonner	-11.8891
Euro	-11.8891
▁ère	-11.8892
▁remplies	-11.8892
aurai	-11.8897
▁erroné	-11.89
▁roumain	-11.89
▁style	-11.8902
▁continuellement	-11.8903
▁stock	-11.8904
▁résultent	-11.8909
▁cosmétiques	-11.891
▁Seuls	-11.8911
▁évolue	-11.8911
Helsinki	-11.8913
espérons	-11.8913
ajout	-11.8914
▁autorisations	-11.8917
Chrétiens	-11.8919
▁fusions	-11.8923
▁ladite	-11.8924
▁prématuré	-11.8927
▁sensée	-11.8928
▁négligence	-11.893
▁Kong	-11.8934
ig	-11.8941
▁Johannesburg	-11.8946
▁Malmström	-11.8946
▁Velzen	-11.8946
▁douaniers	-11.8949
▁thématique	-11.8953
▁déçus	-11.8954
huit	-11.8959
▁excessives	-11.896
▁oppose	-11.8961
▁honorable	-11.8962
▁renationalis	-11.8967
▁recevra	-11.8968
▁dorénavant	-11.8968
▁empreintes	-11.8971
▁propice	-11.8975
▁jugements	-11.8976
▁traditionnel	-11.8977
OCM	-11.898
hypothèse	-11.898
▁réunies	-11.8984
▁Wogau	-11.8991
▁naufrage	-11.8991
▁Cox	-11.8991
▁divisée	-11.8992
tion	-11.9001
apparaît	-11.9002
intolérance	-11.9002
▁vrais	-11.9003
▁morte	-11.9008
alternative	-11.9009
▁censés	-11.9009
▁engendré	-11.9012
▁annexes	-11.9013
Alzheimer	-11.9013
▁Belgrade	-11.9013
▁domicile	-11.9013
▁détachement	-11.9013
▁multiplication	-11.9013
▁sincère	-11.9017
▁passation	-11.9018
Indonésie	-11.9024
étend	-11.9031
▁Act	-11.9033
▁créera	-11.9035
▁réception	-11.9036
▁restons	-11.9036
▁Bonino	-11.9036
▁prévisible	-11.9042
ll	-11.9043
▁massivement	-11.9044
▁apprécier	-11.9052
all	-11.9055
▁comprise	-11.9058
▁malheureux	-11.9058
▁coordonnées	-11.906
▁intra	-11.9063
▁intégralité	-11.9065
▁techniquement	-11.9067
▁accueille	-11.9068
▁fondés	-11.9068
▁dignes	-11.9069
exclure	-11.907
▁auto	-11.9074
▁reconsidérer	-11.9081
▁Seconde	-11.9081
▁10,	-11.9087
40	-11.9091
▁Galice	-11.9103
▁renouveler	-11.9103
▁tirent	-11.9108
▁immédiates	-11.9111
▁accrues	-11.9113
▁négociateurs	-11.9118
▁manquements	-11.9122
▁Combien	-11.9126
▁Medina	-11.9126
▁tarification	-11.9127
▁passeports	-11.9128
▁incluse	-11.913
▁formulés	-11.9131
▁forcés	-11.9133
▁Fontaine	-11.9148
absorption	-11.9148
▁intègre	-11.9149
▁autorisant	-11.9149
▁composent	-11.915
▁retombées	-11.9151
▁blessures	-11.9156
▁idéale	-11.9158
représentant	-11.916
ang	-11.9161
▁poussée	-11.9162
▁contrôlé	-11.9171
▁54	-11.9173
▁Nouvelle	-11.9173
▁défavorisés	-11.9174
▁résidus	-11.9174
lant	-11.9175
▁agisse	-11.9176
▁ingérence	-11.9183
expulsion	-11.9183
▁interculturel	-11.9183
ies	-11.9186
▁lit	-11.9189
uns	-11.9191
▁distribué	-11.9193
▁Lulling	-11.9194
▁Oostlander	-11.9194
INI	-11.9195
▁sois	-11.9197
▁complètes	-11.9202
inscription	-11.9206
observateurs	-11.9208
▁sine	-11.9216
▁plaider	-11.9217
▁abandonné	-11.9217
▁déplorons	-11.9217
▁libéraliser	-11.9217
▁fondamentalisme	-11.9219
▁net	-11.9224
admettre	-11.9229
▁représentée	-11.9234
▁56	-11.9234
ignorer	-11.9236
▁abstenus	-11.9236
▁ignoré	-11.9239
▁1980	-11.924
▁respectivement	-11.924
▁minimiser	-11.9243
land	-11.9244
▁Gauche	-11.9246
▁machine	-11.9246
▁suscitent	-11.9247
▁arrêtées	-11.9247
▁connexes	-11.9248
▁héritage	-11.925
agression	-11.9251
épreuve	-11.9251
impulsion	-11.9251
invitation	-11.9251
▁copie	-11.9252
▁frein	-11.9252
▁fausses	-11.9253
▁paysage	-11.9254
ssions	-11.9256
gouvernemental	-11.9261
▁suivons	-11.9263
▁mètres	-11.927
allons	-11.9271
▁étroits	-11.9273
▁accusés	-11.9275
▁imposés	-11.9277
▁italiennes	-11.9284
▁Kazakhstan	-11.9286
io	-11.9291
▁désirent	-11.9295
▁annoncée	-11.9296
port	-11.9297
appartenance	-11.9297
▁finalité	-11.9298
▁farines	-11.93
▁rec	-11.9302
▁tournée	-11.9305
▁John	-11.9309
▁achètent	-11.931
▁évalué	-11.9311
▁rappelons	-11.9312
ob	-11.9314
uc	-11.9315
▁portait	-11.9316
développement	-11.932
▁élèves	-11.9321
▁rapporte	-11.9323
▁sains	-11.9325
J	-11.9326
▁impliquée	-11.9328
▁po	-11.9328
▁comprendrez	-11.9328
▁poursuive	-11.9329
▁appauvri	-11.9329
▁OMC	-11.9332
▁Byrne	-11.9332
▁Cologne	-11.9332
▁reproduire	-11.9332
▁apprécions	-11.9333
▁130	-11.9335
▁unilatéralement	-11.9337
▁1991	-11.934
▁fragiles	-11.9343
▁gestionnaires	-11.9343
▁profité	-11.9344
▁continents	-11.9345
▁unis	-11.9346
▁régulateurs	-11.9351
▁coque	-11.9352
▁renferme	-11.9353
▁produira	-11.9355
intimidation	-11.9355
▁Mulder	-11.9355
▁indéniable	-11.9361
▁pénaliser	-11.9363
▁réfugié	-11.9366
iers	-11.9368
▁multiplier	-11.9372
▁visait	-11.9375
▁demeurer	-11.9377
▁protégé	-11.9378
▁définissant	-11.9378
▁violents	-11.938
▁réussie	-11.9381
▁rectifier	-11.9383
▁favorisent	-11.9384
▁sports	-11.9386
▁donnerait	-11.9388
▁feraient	-11.9388
▁augmentera	-11.9391
▁montrée	-11.9398
▁Golfe	-11.9401
▁complémentarité	-11.9401
▁efforçons	-11.9401
▁Nobel	-11.9401
▁régulières	-11.9403
▁convenablement	-11.9403
▁and	-11.9404
▁mérites	-11.9405
▁secondaires	-11.9407
▁développent	-11.9408
▁Européen	-11.9408
▁reproche	-11.9409
▁mariage	-11.941
extraction	-11.9428
lement	-11.9433
cu	-11.9433
▁réglementée	-11.9438
▁prudente	-11.9438
▁incertitudes	-11.9439
éco	-11.9447
▁González	-11.9448
▁Mandelson	-11.9448
▁coton	-11.9448
▁soudanais	-11.9449
▁capture	-11.9455
▁raisonnablement	-11.9467
▁tr	-11.947
▁curieux	-11.9471
▁resté	-11.9472
▁électrique	-11.9481
▁citoyennes	-11.9481
▁achats	-11.9481
▁Algérie	-11.9486
▁remonte	-11.9489
▁automne	-11.949
▁conversion	-11.9495
▁ra	-11.9495
▁incitants	-11.9498
▁centralisée	-11.9498
▁perçue	-11.951
apprête	-11.9513
▁nets	-11.9518
▁exhaustif	-11.9518
▁chauffage	-11.9519
▁axé	-11.9519
▁médecin	-11.9519
▁exclusion	-11.9523
▁frustration	-11.9527
▁bulgare	-11.9527
▁fonctionnaire	-11.9528
▁bouche	-11.9528
▁enceintes	-11.9528
▁initiales	-11.9531
▁visés	-11.9539
▁demandée	-11.9541
▁affirmation	-11.9541
Behrendt	-11.9542
▁Rothley	-11.9542
▁éprouvent	-11.9545
▁anglaise	-11.9545
alarme	-11.9549
▁aveugle	-11.9552
▁confirment	-11.9552
▁idéologiques	-11.9553
▁globales	-11.9553
▁chrétienne	-11.9554
▁perdus	-11.9558
▁décent	-11.9558
▁fière	-11.9566
he	-11.9568
▁qualités	-11.9568
▁punir	-11.9573
▁délégués	-11.958
▁innovants	-11.958
▁spécialisés	-11.9586
▁vienne	-11.9588
▁blocs	-11.959
▁quoique	-11.9595
▁intelligents	-11.9595
▁53	-11.9597
▁assurent	-11.9598
▁volontairement	-11.9601
entente	-11.9602
▁exporter	-11.9604
▁avertissement	-11.9606
▁marine	-11.9608
orienter	-11.9612
ienne	-11.9613
▁Merkel	-11.9613
▁affectant	-11.9613
▁confédéral	-11.9613
▁lobby	-11.9613
▁opèrent	-11.9616
▁sectorielles	-11.9618
▁clubs	-11.9621
▁atomique	-11.9622
▁asiatiques	-11.9625
intensification	-11.9626
organismes	-11.9627
▁réglée	-11.963
▁intitulée	-11.9636
▁lancées	-11.9636
▁protégeant	-11.9637
▁culte	-11.9637
▁chancelier	-11.9638
▁serve	-11.9639
▁sembler	-11.9641
rais	-11.9642
▁israéliens	-11.9653
▁Obama	-11.9661
▁Evans	-11.9661
▁généreux	-11.9661
▁équivaut	-11.9662
▁EUR	-11.9662
▁CIA	-11.9663
▁rebelles	-11.9667
▁cents	-11.9668
arrive	-11.9668
▁défavorable	-11.967
▁prédécesseur	-11.967
▁autonomes	-11.9672
▁Cardiff	-11.9685
▁décidées	-11.9689
▁chinoise	-11.9689
▁profitable	-11.9696
▁écoute	-11.9696
▁harmonisée	-11.9699
▁manger	-11.9701
▁concentrations	-11.9702
ug	-11.9703
énergies	-11.9704
▁élaboration	-11.9708
so	-11.9708
▁désertification	-11.9709
▁déclarant	-11.9709
▁pêcher	-11.971
▁Programme	-11.971
▁reviennent	-11.971
▁caractérisé	-11.9711
▁persistent	-11.9712
07	-11.9712
▁guide	-11.9715
▁atmosphérique	-11.9719
▁Rappelons	-11.9733
UCLAF	-11.9733
▁Hélas	-11.9733
▁Kyi	-11.9733
▁vigoureusement	-11.9734
ins	-11.9734
excuse	-11.9736
▁nordiques	-11.9738
br	-11.9739
▁vif	-11.9743
▁procurer	-11.9745
amp	-11.9745
idéologie	-11.9748
▁Ben	-11.9748
▁encontre	-11.9748
▁office	-11.9748
▁caractérisée	-11.9748
pa	-11.9752
▁visé	-11.9755
▁Mauritanie	-11.9757
▁colère	-11.9757
▁courir	-11.9757
▁préparée	-11.9757
▁Unies	-11.9759
alité	-11.976
▁chantier	-11.9767
▁capitaliste	-11.9768
▁pollueur	-11.9771
▁viol	-11.9776
interroger	-11.9777
▁consultés	-11.9778
▁réaffirmé	-11.9779
Plath	-11.9781
▁modération	-11.9781
▁convenus	-11.9782
▁formules	-11.9784
▁meurtres	-11.9784
▁Écofin	-11.9786
▁monnaies	-11.9791
▁indigènes	-11.9791
▁expansion	-11.9792
▁salariale	-11.9794
▁finlandais	-11.9796
▁drapeau	-11.9806
▁contraindre	-11.9806
fa	-11.9807
▁coûté	-11.9809
▁divergent	-11.9814
▁présider	-11.9816
▁orienter	-11.9817
endettement	-11.9818
héritage	-11.9818
▁intégrant	-11.982
▁rendues	-11.9823
▁conduira	-11.9829
▁ravis	-11.9829
▁Récemment	-11.9829
▁mécontentement	-11.983
▁pesant	-11.9833
agirait	-11.9835
▁logements	-11.9838
▁universitaires	-11.9839
payeur	-11.9843
11	-11.9843
▁écossais	-11.9846
fondé	-11.9847
ik	-11.9852
▁débit	-11.9858
▁lourdement	-11.986
▁détourner	-11.9864
▁facture	-11.9864
▁préalablement	-11.987
▁transeuropéen	-11.9876
▁donneurs	-11.9876
▁man	-11.9876
▁Bangladesh	-11.9878
▁Randzio	-11.9878
▁générosité	-11.9878
▁mourir	-11.9878
▁proactive	-11.9878
▁Nielson	-11.9879
▁Suu	-11.9881
▁scolaires	-11.9883
▁Britanniques	-11.9883
▁extra	-11.9884
▁authentique	-11.989
▁formalités	-11.9891
▁hiérarchie	-11.9903
▁enchères	-11.9903
▁opérant	-11.9905
▁fur	-11.9905
▁conseillers	-11.9906
▁2.	-11.9906
▁pain	-11.9907
▁provoquent	-11.9907
▁tromper	-11.9909
▁belges	-11.9909
car	-11.9911
▁Dell	-11.9914
gr	-11.9914
amener	-11.9916
▁île	-11.9918
ième	-11.9921
▁remplace	-11.9922
▁conjoncture	-11.9922
▁monter	-11.9923
▁saisie	-11.9925
▁Bourlanges	-11.9927
▁empêchant	-11.9927
▁es	-11.9927
▁touristiques	-11.9928
▁2012.	-11.9929
▁invitée	-11.993
▁cohérents	-11.9931
▁écrites	-11.9931
▁protocoles	-11.9934
▁dessus	-11.9941
▁parlez	-11.9943
▁bénéficiera	-11.9951
▁mesdames	-11.9952
▁soixante	-11.9952
▁rentables	-11.9955
▁accordent	-11.9961
▁dictatures	-11.9966
▁titulaires	-11.9967
▁machines	-11.9968
attire	-11.9975
▁dilemme	-11.9976
pour	-11.9978
▁controversé	-11.9979
▁formel	-11.9981
▁bombe	-11.9988
▁instants	-11.9989
inscrivent	-11.9989
expériences	-11.9992
▁Nul	-11.9993
▁interdictions	-11.9994
cul	-11.9994
▁cibles	-11.9995
▁foyers	-11.9997
▁exercées	-12
▁unifiée	-12
▁idéaux	-12.0002
▁Langen	-12.0002
▁confié	-12.0005
▁biométriques	-12.0006
▁rende	-12.0007
▁individu	-12.001
▁normales	-12.0013
▁midi	-12.0014
▁orientée	-12.0016
Al	-12.0026
▁Polonais	-12.0026
▁Yémen	-12.0026
▁madame	-12.0026
▁opté	-12.0026
▁considérants	-12.0033
tons	-12.0037
▁correctes	-12.0037
▁hâte	-12.0041
▁améliorées	-12.0042
▁dixième	-12.0042
▁prononcées	-12.0042
▁contrôlés	-12.0043
▁traverser	-12.0044
étonne	-12.0048
▁supérieures	-12.005
▁répétition	-12.0051
▁déterminante	-12.0051
▁réduisent	-12.0052
▁varient	-12.0053
▁énergiquement	-12.0053
▁standard	-12.0054
▁14,	-12.0057
▁traversons	-12.0063
Kong	-12.0064
ép	-12.0065
▁volets	-12.0069
▁Z	-12.0071
▁inverse	-12.0075
▁Rwanda	-12.0076
▁servant	-12.0076
▁échéances	-12.008
▁visiblement	-12.008
▁profitera	-12.0082
▁publiés	-12.0084
▁concertée	-12.0089
▁arrestations	-12.0091
▁Écosse	-12.0091
▁ordres	-12.0092
▁attendue	-12.0099
▁attitudes	-12.01
▁García	-12.01
▁promouvant	-12.0101
▁mènera	-12.0101
▁clôturer	-12.0102
▁bloqué	-12.0104
▁réunit	-12.0105
▁distribuer	-12.0106
▁réorganisation	-12.0112
HU	-12.0113
accélération	-12.0114
envergure	-12.0114
▁affirmations	-12.0116
▁informatique	-12.0117
▁vendus	-12.012
▁réussites	-12.0122
▁Bösch	-12.0125
▁fameuse	-12.0125
▁autobus	-12.0128
▁liaisons	-12.013
▁Ford	-12.0131
▁accusé	-12.0131
avantages	-12.0137
▁rigide	-12.0137
▁albanais	-12.0142
▁tri	-12.0144
▁violente	-12.015
▁découplage	-12.015
▁quatorze	-12.015
▁subsistance	-12.015
▁atrocités	-12.0151
▁radiodiffusion	-12.0151
▁Trop	-12.0151
offrent	-12.0154
isproportionnée	-12.0156
envisage	-12.016
▁partagées	-12.0161
▁néfaste	-12.0163
ozone	-12.0164
Nous	-12.0165
▁Ba	-12.0167
▁soutiendrai	-12.0172
▁adhéré	-12.0176
▁rapatriement	-12.0176
▁théâtre	-12.0176
▁Cinquièmement	-12.0176
▁conditionnalité	-12.0178
▁issu	-12.0179
▁désastreuses	-12.0179
▁persécutions	-12.0181
▁honnêtement	-12.0181
▁consisterait	-12.0183
▁accises	-12.0183
▁souhaitant	-12.0185
▁paraître	-12.0188
▁fréquence	-12.0188
▁policiers	-12.0198
ten	-12.0198
▁conceptions	-12.02
▁arrangements	-12.02
▁Coelho	-12.0201
européen	-12.0201
▁Di	-12.0202
ach	-12.0207
▁refusant	-12.021
én	-12.0212
▁restée	-12.0219
▁améliorera	-12.0222
▁démocrate	-12.0224
▁multilinguisme	-12.0226
▁désastreux	-12.0226
ces	-12.0227
.000	-12.0227
og	-12.0228
▁leaders	-12.0235
▁énergique	-12.0236
▁incertitude	-12.0237
▁incompatible	-12.0238
emprisonnement	-12.024
Australie	-12.024
▁relâche	-12.0241
▁armements	-12.0242
▁encouragée	-12.0249
▁proie	-12.0256
▁intelligent	-12.0257
▁employer	-12.0258
▁demandez	-12.0258
▁99	-12.0266
▁objectives	-12.0268
▁interlocuteurs	-12.0272
▁Arafat	-12.0279
▁octroyé	-12.0281
▁résume	-12.0287
isons	-12.0289
▁importateurs	-12.0289
▁inventions	-12.0292
▁transnationale	-12.0293
▁élaborés	-12.0298
▁Burundi	-12.0302
▁revers	-12.0302
▁grosses	-12.0308
▁déloyales	-12.0309
▁tué	-12.0311
▁préjugés	-12.0312
▁aidant	-12.0315
▁médicament	-12.0316
▁déçue	-12.0316
▁engage	-12.0322
▁comprenne	-12.0325
▁espéré	-12.0328
▁réitère	-12.0328
▁tsunami	-12.0328
▁densité	-12.0328
▁désespoir	-12.0329
▁habituellement	-12.033
▁isolé	-12.033
▁58	-12.0333
▁libérés	-12.0334
▁notable	-12.0338
▁procédés	-12.034
▁chambre	-12.0341
▁circonstance	-12.0341
▁handicaps	-12.0342
▁répartir	-12.0344
▁consister	-12.0345
▁clore	-12.0353
ist	-12.0353
▁prendrons	-12.0356
▁Pourriez	-12.0357
▁condamnée	-12.0357
▁assument	-12.0357
ran	-12.0359
▁attachés	-12.036
▁interprétations	-12.0363
▁publiées	-12.0364
née	-12.0365
▁divergence	-12.0366
▁respectons	-12.0369
▁Peu	-12.0373
tor	-12.0374
4-04	-12.0378
▁Guantanamo	-12.0379
▁réclamons	-12.0379
▁globalisation	-12.038
▁interdites	-12.0384
▁combiné	-12.0384
2001)	-12.0384
▁essaient	-12.0384
▁piège	-12.0392
▁allé	-12.0402
▁profil	-12.0402
▁séparer	-12.0403
▁Nabucco	-12.0405
▁démanteler	-12.0405
▁conjointes	-12.0407
▁recueilli	-12.0407
▁provoquée	-12.041
▁reporté	-12.0414
adhère	-12.0419
▁asiatique	-12.0419
▁morales	-12.0421
▁massives	-12.0422
▁atout	-12.0422
▁nationalistes	-12.043
▁Népal	-12.043
▁digitales	-12.043
▁pensais	-12.043
▁poursuivons	-12.043
ow	-12.0432
▁oiseaux	-12.0434
efforcent	-12.0437
▁envoyée	-12.0437
▁épuisé	-12.0441
▁Rapporteur	-12.0451
cé	-12.0455
▁rétention	-12.0456
▁lobbyistes	-12.0456
clés	-12.0457
▁commençant	-12.0459
▁aident	-12.0466
▁accroît	-12.0468
▁race	-12.0472
▁chrétiennes	-12.0472
▁calculs	-12.0478
▁parc	-12.0478
▁puissante	-12.0479
▁Juncker	-12.0482
▁tenais	-12.0482
▁venait	-12.0482
▁divergentes	-12.0485
▁exprimant	-12.0487
▁APE	-12.0487
▁négligé	-12.0488
▁professeurs	-12.0488
▁unanimement	-12.049
▁sauvage	-12.0493
▁substituer	-12.0501
▁saines	-12.0503
▁rallie	-12.0504
interviens	-12.0508
▁Chirac	-12.0508
▁Sierra	-12.0508
Les	-12.051
▁ferions	-12.0514
▁liquidités	-12.0521
▁boîte	-12.0524
▁rigoureuses	-12.0524
▁occidentales	-12.0525
):	-12.0528
▁dotés	-12.0531
emp	-12.0531
▁cherchant	-12.0534
▁commençons	-12.0534
▁Karas	-12.0534
▁Herman	-12.0537
▁pétrolières	-12.0537
▁sévèrement	-12.0538
▁impérialistes	-12.0539
▁versions	-12.0539
amiante	-12.0539
▁pêches	-12.0542
▁impôt	-12.0543
▁informatiques	-12.0548
▁méthodologie	-12.0548
▁côtière	-12.0548
van	-12.0554
associe	-12.0557
▁CECA	-12.0558
▁proposez	-12.0559
▁Collège	-12.056
▁appelant	-12.0561
erreurs	-12.0564
▁Allemands	-12.0567
▁obtenues	-12.0568
▁emballages	-12.0572
▁dits	-12.0581
▁Commissaires	-12.0583
ko	-12.0585
▁trouvant	-12.0586
▁percevoir	-12.0586
▁redonner	-12.0591
▁recherché	-12.0593
▁extraordinaires	-12.0593
▁laps	-12.0594
▁persuadée	-12.0595
ger	-12.0596
▁géopolitique	-12.0601
admission	-12.0601
▁freiner	-12.0603
▁esprits	-12.0607
▁intensif	-12.0612
▁dopage	-12.0613
▁rattraper	-12.0613
▁observons	-12.0613
▁éloignées	-12.0614
▁diffèrent	-12.0615
▁bus	-12.0619
éprouve	-12.0625
lin	-12.0627
dis	-12.0627
▁interroger	-12.0629
▁thématiques	-12.0632
▁plomb	-12.0635
▁approfondies	-12.0637
▁roms	-12.0638
▁globaux	-12.0639
▁canaux	-12.0639
▁antipersonnel	-12.0639
▁échouer	-12.0646
▁situent	-12.0646
▁médicales	-12.0651
▁Indonésie	-12.0652
▁Ar	-12.0653
▁décevant	-12.0656
4-03	-12.0657
éventuelles	-12.0657
▁né	-12.0659
jacentes	-12.0659
▁versement	-12.0661
▁Guantánamo	-12.0665
▁panel	-12.0666
▁bourses	-12.0666
▁envoyés	-12.0667
explication	-12.0669
▁prudent	-12.0672
▁déroulé	-12.0672
▁désirons	-12.0673
▁reconnaissants	-12.0677
▁gigantesque	-12.068
")	-12.0685
▁fonctionnera	-12.0686
▁souhaiterait	-12.0686
▁diviser	-12.0691
▁collaboré	-12.0692
▁possédant	-12.0692
▁appuie	-12.0695
▁air	-12.0708
▁décourager	-12.0709
▁rends	-12.071
▁simplifiée	-12.0711
usine	-12.0716
▁nuisibles	-12.0718
▁Schreyer	-12.0718
▁détresse	-12.0718
▁doctrine	-12.0718
▁requêtes	-12.072
▁étiez	-12.072
▁20%	-12.072
▁enveloppe	-12.0721
▁feux	-12.0721
▁bonnement	-12.0722
▁amont	-12.073
▁portefeuille	-12.0733
ov	-12.0741
▁croyez	-12.0745
▁prenions	-12.0745
▁joins	-12.0749
individu	-12.0749
▁63	-12.075
▁octroyés	-12.0758
rai	-12.0759
▁confirmée	-12.0759
▁médiatique	-12.076
▁schéma	-12.076
▁emprunter	-12.0761
▁acceptant	-12.0772
▁facilitation	-12.0772
▁touchée	-12.0773
▁transmise	-12.0774
antes	-12.0774
▁réformateurs	-12.0776
opt	-12.0776
▁huis	-12.0778
▁cotisations	-12.0778
▁palestiniennes	-12.0778
▁illicites	-12.0779
▁réfléchi	-12.0781
▁57	-12.0781
DA	-12.0782
▁différend	-12.0787
architecture	-12.0787
▁supprimée	-12.0796
Église	-12.0798
▁Seattle	-12.0798
▁Soit	-12.0799
19	-12.0802
▁excellents	-12.0803
▁ira	-12.0807
▁Erika	-12.0808
▁Liste	-12.081
▁élue	-12.0814
▁élaborées	-12.0817
▁Bali	-12.0818
▁arbitraires	-12.0822
▁particules	-12.0826
▁causée	-12.0826
ck	-12.0827
▁prolongement	-12.0827
▁hypocrite	-12.0839
▁rendons	-12.084
▁préliminaire	-12.0841
▁traversent	-12.0842
▁Florenz	-12.0852
▁précarité	-12.0852
Islam	-12.0854
démocrate	-12.0857
▁films	-12.0858
▁entendus	-12.086
▁génériques	-12.0864
▁file	-12.0866
▁sacrifices	-12.087
▁franchi	-12.0877
▁varie	-12.0878
▁deviendront	-12.0879
▁primauté	-12.0879
▁piraterie	-12.0879
▁Demain	-12.088
obstacles	-12.0882
▁fondamentaliste	-12.0891
▁changent	-12.0893
interconnexion	-12.0895
▁réticence	-12.0895
eu	-12.0896
▁craint	-12.0898
2/	-12.0904
▁consistait	-12.0906
▁divorce	-12.0906
▁antérieures	-12.0908
ven	-12.0908
▁évènements	-12.0912
▁Ka	-12.0914
▁continué	-12.0914
▁étroites	-12.0915
▁encouragera	-12.0917
▁contrôlées	-12.0918
ke	-12.092
▁totalitaire	-12.0922
▁obtenue	-12.0924
▁frappant	-12.0931
ak	-12.0931
▁Rocard	-12.0933
▁musique	-12.0933
í	-12.0935
▁Eurojust	-12.094
cri	-12.0941
▁bat	-12.0943
bl	-12.0943
▁chauffeurs	-12.0945
▁élargissements	-12.0945
incinération	-12.0949
insuffisance	-12.0949
▁décentralisée	-12.0951
▁emploie	-12.0955
attache	-12.0958
▁Cisjordanie	-12.096
▁scepticisme	-12.096
▁soufre	-12.096
▁Pouvez	-12.096
fr	-12.0963
▁entravent	-12.0965
admets	-12.0965
▁vitesses	-12.0968
▁retenus	-12.0971
▁intéressé	-12.0971
▁instructions	-12.0972
▁composants	-12.0974
assainissement	-12.0976
▁tactique	-12.0977
▁ukrainien	-12.0977
▁née	-12.0986
▁Castro	-12.0988
▁parlait	-12.0988
▁entendues	-12.0989
exposer	-12.0989
▁rappelant	-12.0991
▁piles	-12.0994
▁protègent	-12.0994
ja	-12.0994
▁rapproche	-12.0995
▁écart	-12.0996
▁coûteuse	-12.1005
ambassadeur	-12.1007
pro	-12.1012
▁octroyées	-12.1012
▁réinstallation	-12.1016
▁hormones	-12.1017
aime	-12.102
aine	-12.1021
▁irakienne	-12.1032
▁soulignons	-12.1042
▁mets	-12.1042
▁beaux	-12.1044
99	-12.1044
▁exclues	-12.1049
▁Seul	-12.1051
élèvent	-12.1051
25	-12.1058
espérance	-12.1059
▁fondation	-12.1065
▁prévision	-12.1069
▁Ro	-12.1069
▁congrès	-12.107
▁Dé	-12.1071
▁uni	-12.1071
▁interdits	-12.1072
interroge	-12.1076
▁réglementé	-12.1079
▁bio	-12.108
échanger	-12.1082
▁systématiques	-12.1082
▁concession	-12.1082
▁inquiet	-12.1087
▁quête	-12.1088
ème	-12.109
▁réaffirme	-12.1092
▁controversée	-12.1093
▁généralisées	-12.1096
▁duré	-12.1096
obésité	-12.1097
▁Dimas	-12.1097
▁tragédies	-12.11
▁adoptions	-12.111
▁habitude	-12.1116
▁66	-12.1123
entraîner	-12.1124
▁Albanais	-12.1125
▁Daphné	-12.1125
▁Wynn	-12.1125
▁maturité	-12.1125
▁urbains	-12.1133
▁évité	-12.1134
▁visées	-12.1135
▁restants	-12.1135
▁notions	-12.1137
▁remporté	-12.1137
▁distincte	-12.1139
affronter	-12.1142
▁incite	-12.1142
nons	-12.1145
▁espérant	-12.1148
▁informe	-12.1151
intéresser	-12.1152
▁Titley	-12.1153
▁soja	-12.1153
▁vulnérabilité	-12.1153
▁supprimant	-12.1153
▁planifier	-12.1155
▁composés	-12.1161
autarisation	-12.1161
▁pêcheries	-12.1162
▁vides	-12.1162
▁situé	-12.1163
▁excuse	-12.1167
▁1995.	-12.1169
▁précisant	-12.1169
▁stimulant	-12.117
▁vulnérable	-12.117
▁évidents	-12.1171
▁Ta	-12.1172
▁constitueront	-12.1177
▁multi	-12.1179
▁Sterckx	-12.118
▁contrebande	-12.118
▁adaptations	-12.1187
▁nuisances	-12.1189
▁répondra	-12.1191
▁bombardements	-12.1192
▁félicité	-12.1193
▁pratiquent	-12.1195
▁assis	-12.1195
▁scandaleuse	-12.1195
▁universitaire	-12.12
▁fabriqués	-12.1201
▁veuille	-12.1204
exigences	-12.1206
▁précieuses	-12.1208
▁représentons	-12.1208
▁vaincre	-12.1208
▁littéralement	-12.1208
▁verront	-12.1208
▁perçoivent	-12.1209
euse	-12.1209
▁passages	-12.121
▁durer	-12.1211
aille	-12.1211
▁collectivement	-12.1218
▁aideront	-12.1221
▁fidèle	-12.1223
▁slogan	-12.1226
▁Hongrois	-12.1236
▁baignade	-12.1236
▁promeut	-12.1236
▁militarisation	-12.1236
▁bénévoles	-12.1248
élever	-12.1253
▁tirées	-12.1263
▁douleur	-12.1264
▁facilitant	-12.1265
▁enregistrées	-12.1265
COS	-12.1265
▁riz	-12.1265
▁conduisent	-12.1266
▁agro	-12.1268
▁atteignent	-12.1269
▁œil	-12.1271
▁devises	-12.1276
isent	-12.1277
▁dénoncé	-12.128
res	-12.1283
bo	-12.1288
▁dépendants	-12.1292
▁Quatre	-12.1292
▁aviaire	-12.1292
▁spectacle	-12.1292
▁trouvait	-12.1292
▁Berès	-12.1292
▁surviennent	-12.1293
▁rouvrir	-12.1293
ru	-12.1294
▁aisée	-12.1297
▁allié	-12.1297
▁conclut	-12.1299
▁fondent	-12.1308
▁rôles	-12.131
▁volaille	-12.1311
abilité	-12.1314
▁contester	-12.1315
▁doublement	-12.1315
▁examinerons	-12.1315
▁Kaliningrad	-12.132
▁Singapour	-12.132
▁Verhofstadt	-12.132
▁Pensez	-12.1321
▁fierté	-12.1321
▁allaient	-12.1321
▁renverser	-12.1323
▁jugée	-12.1324
▁honorer	-12.1327
▁offrira	-12.1329
▁96	-12.133
▁Ko	-12.1331
▁harmonisé	-12.1331
alisation	-12.1336
▁supprime	-12.1337
▁ci	-12.1341
▁parvienne	-12.1346
▁artificielle	-12.1346
achever	-12.1347
▁séparés	-12.1348
▁Ortega	-12.1349
▁multilatéraux	-12.1349
▁­	-12.1351
▁veillera	-12.1352
▁encourageons	-12.1357
08	-12.1364
▁majoritaire	-12.1365
injustice	-12.1366
▁ressenti	-12.1366
▁jeté	-12.1371
▁visiter	-12.1371
▁protégée	-12.1374
▁agissements	-12.1377
▁cruellement	-12.1378
▁insulte	-12.1379
▁statuts	-12.1382
nel	-12.1382
▁sachent	-12.1383
▁concentrent	-12.1385
▁tendent	-12.1387
expérimentation	-12.1395
honnêteté	-12.14
▁Cancún	-12.1405
▁Parfois	-12.1405
▁rembourser	-12.1406
▁correspondance	-12.1406
▁1,5	-12.1407
▁im	-12.1408
▁tentant	-12.1408
▁certificats	-12.141
▁décrite	-12.1414
ï	-12.1416
▁entières	-12.1416
guerre	-12.1423
▁expertise	-12.1423
▁village	-12.1424
▁sensé	-12.1425
▁établissement	-12.1428
pp	-12.1428
▁mandats	-12.1428
▁séparée	-12.1433
Espace	-12.1434
▁dissiper	-12.1434
ip	-12.1437
▁comble	-12.144
▁oublie	-12.144
▁corrections	-12.1442
▁briser	-12.1442
▁conséquente	-12.1443
▁levier	-12.1446
▁insuffisances	-12.1447
existent	-12.145
▁consistent	-12.1451
▁tempête	-12.1453
▁conçus	-12.1454
▁Année	-12.1456
▁diffère	-12.146
▁sub	-12.146
▁verre	-12.1462
▁Blokland	-12.1463
▁Feira	-12.1463
▁Rübig	-12.1463
▁Vigo	-12.1463
▁accent	-12.1463
▁agissons	-12.1467
tri	-12.1474
2,	-12.1477
▁devrais	-12.1478
appartient	-12.148
▁envisageable	-12.1482
communautaires	-12.149
▁Cashman	-12.1491
▁Hautala	-12.1491
▁reviens	-12.1491
▁cerveaux	-12.1491
▁fumer	-12.1494
▁parlerai	-12.1494
▁joueurs	-12.1498
▁émergentes	-12.1499
indication	-12.1499
▁solennelle	-12.1501
▁motivé	-12.1502
▁interprété	-12.1503
▁préside	-12.1503
▁employé	-12.1504
▁prône	-12.1507
▁théorique	-12.1508
▁fuir	-12.1508
océan	-12.1509
▁1.	-12.151
plan	-12.151
▁prélèvement	-12.1511
▁poursuivie	-12.1511
▁proposait	-12.1514
▁Eu	-12.1517
▁reproduise	-12.1518
▁SWIFT	-12.152
▁rationaliser	-12.1521
▁compliquer	-12.1523
▁gagnent	-12.1524
▁révolutionnaire	-12.1527
▁Mar	-12.1528
▁correspondantes	-12.153
▁froid	-12.153
▁soulager	-12.153
▁vieilles	-12.153
▁isolés	-12.1534
ki	-12.1537
▁litige	-12.1539
▁sent	-12.1543
▁cinéma	-12.1549
▁comportant	-12.1549
▁exprimons	-12.1549
▁résout	-12.1549
▁treize	-12.155
▁civilisations	-12.155
▁frapper	-12.155
▁Caire	-12.1551
▁tombent	-12.1554
▁paysans	-12.1562
▁étendues	-12.1564
nce	-12.1564
▁structuré	-12.1565
innombrables	-12.1566
▁département	-12.157
▁relier	-12.1575
▁Broek	-12.1578
▁Lannoye	-12.1578
▁parcouru	-12.1578
▁XXe	-12.1578
▁invitant	-12.1579
▁RTE	-12.1579
▁obligée	-12.158
▁disais	-12.1581
▁tendant	-12.1586
ble	-12.1591
▁islamiques	-12.1591
▁attributions	-12.1593
▁comptez	-12.1596
▁divisé	-12.1596
▁ch	-12.16
▁pierres	-12.1601
multilatéralisme	-12.1602
uf	-12.1603
cc	-12.1609
▁offensive	-12.1611
▁permanentes	-12.1611
▁bis	-12.1613
▁scandales	-12.1613
▁organisationnel	-12.1613
▁couches	-12.1615
▁roi	-12.1616
▁jette	-12.1617
▁Hans	-12.1618
▁émergents	-12.1619
▁aggraver	-12.1622
▁généreuse	-12.1624
▁perdants	-12.1624
entretenir	-12.1625
enlèvement	-12.1626
▁irréaliste	-12.1627
▁toxicomanie	-12.1627
▁gouverneurs	-12.1633
▁constituant	-12.164
▁sombre	-12.1644
▁Jordanie	-12.1646
▁particularités	-12.165
▁concerner	-12.1651
▁évite	-12.1654
▁bar	-12.1654
▁présentons	-12.1656
▁désignés	-12.1657
▁club	-12.1657
▁Hezbollah	-12.1665
▁Mitchell	-12.1665
▁essayant	-12.1665
▁rénovation	-12.1665
▁soigner	-12.1665
▁ouvrant	-12.1665
▁assorti	-12.1666
▁branches	-12.1667
▁insensé	-12.1669
▁rage	-12.1671
ifié	-12.1676
▁formé	-12.1677
agriculteurs	-12.1678
entraîne	-12.1686
▁souveraine	-12.1692
▁barbarie	-12.1694
▁nécessitant	-12.1694
▁expose	-12.1694
▁café	-12.1694
▁LIFE	-12.1695
▁finaliser	-12.1696
ages	-12.1703
▁transformé	-12.1707
▁envisagent	-12.1707
▁anticiper	-12.1709
inquiéter	-12.1712
ainsi	-12.1712
atténuer	-12.1715
▁couche	-12.1722
▁équitablement	-12.1724
▁manoeuvre	-12.1725
▁qualifiées	-12.1725
▁satellites	-12.1725
▁rendrait	-12.1728
▁idéologie	-12.1728
▁dira	-12.1734
▁ultérieur	-12.1736
▁partagés	-12.1736
▁to	-12.1741
▁suffrage	-12.1744
▁client	-12.1744
▁conducteur	-12.1744
▁mutation	-12.1744
▁Ré	-12.1745
▁représenterait	-12.1745
▁écus	-12.1747
▁16,	-12.175
▁compassion	-12.1753
▁inconcevable	-12.1753
▁affiche	-12.1753
▁finissent	-12.1756
▁réalisent	-12.1758
▁inscrites	-12.1759
▁maximales	-12.1761
▁polluantes	-12.1761
▁ressentir	-12.1761
influencer	-12.1767
aff	-12.1768
engagements	-12.1771
▁balle	-12.178
▁prier	-12.1782
▁62	-12.1782
▁Bowis	-12.1782
▁minutieux	-12.1782
▁allemandes	-12.1782
▁évalue	-12.1784
▁doubler	-12.1786
▁entendent	-12.1787
▁supprimés	-12.1788
▁unilatérales	-12.1794
▁ratifiée	-12.1796
étiquette	-12.1801
▁attribués	-12.1804
▁libérales	-12.1806
▁coupe	-12.1809
▁abordables	-12.181
▁Lamfalussy	-12.1812
▁contraste	-12.1812
▁doublé	-12.1812
▁Faisons	-12.1812
▁rompre	-12.1812
▁célébrer	-12.1812
▁nettoyage	-12.1812
▁représentera	-12.1813
▁numériques	-12.1819
▁cubain	-12.1825
événements	-12.1827
▁sacrifier	-12.1827
▁superficie	-12.1829
importante	-12.1833
▁grossesse	-12.1833
▁semblé	-12.1834
▁Bar	-12.1837
annoncer	-12.1839
▁Wallis	-12.1842
▁Galles	-12.1842
▁patrie	-12.1842
▁apportons	-12.1844
▁dissimuler	-12.1847
acquitter	-12.1848
▁passion	-12.1852
▁TIC	-12.1853
▁dépassement	-12.1858
▁compatriotes	-12.1858
éventualité	-12.186
ire	-12.1861
arme	-12.1863
▁consolidée	-12.1867
▁instituts	-12.1868
▁posséder	-12.1871
▁raciale	-12.1871
▁natalité	-12.1871
▁montagneuses	-12.1871
▁attentat	-12.1872
▁50%	-12.1873
▁zu	-12.1873
▁traduisent	-12.1873
▁découverte	-12.1873
2002	-12.1882
▁achever	-12.1883
▁manifestent	-12.1883
▁chaussures	-12.1884
▁ajout	-12.1885
▁pénible	-12.189
▁record	-12.1893
▁degrés	-12.1894
▁Almunia	-12.1901
▁Leonardo	-12.1901
▁centraux	-12.1901
▁reprenant	-12.1901
▁soustraire	-12.1901
▁préparations	-12.1902
▁sceptiques	-12.1903
▁interrompu	-12.1909
▁risquerait	-12.1913
▁détermine	-12.1914
individuellement	-12.1917
▁59	-12.192
affaiblir	-12.192
appuyant	-12.192
ry	-12.1922
▁dirige	-12.1924
ec	-12.1927
▁audiovisuel	-12.1929
▁revêtir	-12.193
▁Concrètement	-12.1931
▁suivront	-12.1931
sur	-12.1933
gue	-12.1934
▁unir	-12.1935
arrête	-12.1936
▁versées	-12.194
▁transforme	-12.1943
▁faune	-12.1948
invasion	-12.195
▁apport	-12.1952
▁japonais	-12.1953
▁catastrophiques	-12.1956
▁reviendra	-12.1957
▁répandue	-12.1958
ris	-12.1961
▁éminemment	-12.1961
▁promettre	-12.1961
▁régression	-12.1962
▁circulent	-12.1962
▁isolées	-12.1963
éc	-12.1963
▁110	-12.1963
▁préfèrent	-12.1967
▁groupements	-12.1968
▁constituée	-12.1972
▁embryons	-12.1974
▁attaché	-12.1976
▁prêtes	-12.1977
▁voteront	-12.1977
▁laissée	-12.1978
▁mine	-12.1979
▁courageuse	-12.1981
▁couleur	-12.1983
▁spécialisées	-12.1988
▁assortie	-12.1989
▁suffira	-12.1991
▁Doyle	-12.1991
▁démarrage	-12.1991
▁pluraliste	-12.1992
gre	-12.1992
▁Leinen	-12.1993
▁filet	-12.1994
▁téléphones	-12.1995
▁distingue	-12.1995
élan	-12.1996
▁objectivement	-12.1997
▁pluriannuels	-12.1997
▁réservée	-12.1999
éli	-12.2
▁échecs	-12.2006
▁perpétrées	-12.2009
▁dernièrement	-12.2013
▁Me	-12.2013
▁versés	-12.2018
▁Prague	-12.2022
▁codification	-12.2022
▁craignons	-12.2022
▁dénominateur	-12.2022
▁paradoxe	-12.2022
▁stress	-12.2022
▁détection	-12.2022
▁furent	-12.2022
tre	-12.2024
▁accrus	-12.2024
▁obtiennent	-12.2025
▁maintenus	-12.2027
▁fils	-12.2032
▁uniques	-12.2036
immédiat	-12.2041
optimisme	-12.2041
nent	-12.2041
▁durablement	-12.2045
▁génétiques	-12.205
▁dominé	-12.205
▁qualifie	-12.2051
aligner	-12.2051
▁Cancun	-12.2052
▁catalogue	-12.2052
▁détient	-12.2052
▁recevons	-12.2052
▁subsides	-12.2054
▁allocution	-12.2056
▁offerts	-12.2059
▁registres	-12.2061
▁fluctuations	-12.2061
▁aval	-12.2062
▁U	-12.2064
▁légitimement	-12.2067
expiration	-12.2071
Erika	-12.2071
ouvre	-12.2071
▁Bonn	-12.2073
▁remède	-12.2074
▁sondages	-12.2075
occupent	-12.2076
▁encouragement	-12.2077
▁résidant	-12.2082
▁vaches	-12.2083
▁Ayant	-12.2083
▁couronné	-12.2085
▁déterminées	-12.2092
▁changera	-12.2093
▁déclarent	-12.2097
▁bulgares	-12.2101
▁encouragés	-12.2106
▁rangs	-12.2108
▁favorisera	-12.2112
▁Aznar	-12.2113
▁téléphonie	-12.2113
▁vaudrait	-12.2113
▁bleue	-12.2121
▁révélée	-12.2122
▁atteler	-12.2123
4-01	-12.2123
Je	-12.2125
aie	-12.2131
▁scénarios	-12.2131
min	-12.2133
attendent	-12.2133
▁abusive	-12.2134
▁for	-12.2135
▁échanger	-12.2135
▁provocation	-12.2136
▁inspirer	-12.2136
▁libéralisé	-12.2137
▁tue	-12.2138
▁soumission	-12.2139
▁accélérée	-12.214
inquiètent	-12.214
▁souffle	-12.2143
▁chaleur	-12.2143
▁développant	-12.2143
▁créons	-12.2145
▁débouche	-12.2146
▁fumée	-12.2147
▁SIDA	-12.215
▁per	-12.215
▁francs	-12.215
▁tourné	-12.2154
tage	-12.2154
antidémocratique	-12.2159
▁Tr	-12.2159
▁signifient	-12.2162
▁dynamiques	-12.2164
▁coutume	-12.2166
aborde	-12.2167
lis	-12.2169
▁gérés	-12.217
▁Baringdorf	-12.2174
▁GATT	-12.2174
▁escient	-12.2174
▁prorogation	-12.2174
▁satisfont	-12.2174
▁foule	-12.2174
▁inefficaces	-12.2174
aise	-12.2174
▁pervers	-12.2175
▁inclusive	-12.2176
▁arrivons	-12.2177
▁ta	-12.2177
▁coins	-12.2179
▁débuter	-12.218
▁respectueuses	-12.2181
▁+	-12.2186
▁compréhensibles	-12.2192
lée	-12.2194
atrice	-12.2196
▁roumains	-12.2196
▁laboratoires	-12.22
▁école	-12.2203
▁résoudra	-12.2204
▁Lampedusa	-12.2205
▁adhérents	-12.2205
▁exerçant	-12.2205
▁recourant	-12.2205
économies	-12.2211
▁w	-12.2212
ales	-12.2216
int	-12.2216
▁annuelles	-12.2217
▁él	-12.2218
▁pièges	-12.222
▁habituelle	-12.2227
▁Pro	-12.2227
▁exemption	-12.2228
▁dioxine	-12.2228
▁polémique	-12.2228
ind	-12.2228
▁stades	-12.223
▁précaires	-12.2231
▁priori	-12.2236
▁blanche	-12.2236
▁350	-12.2238
▁avocat	-12.2239
indicateurs	-12.224
▁parvenions	-12.2244
▁défendue	-12.2244
▁cibler	-12.2248
▁Na	-12.2256
anti	-12.2259
▁fédéraliste	-12.2261
isé	-12.2263
▁discutée	-12.2264
▁remarquables	-12.2267
▁beurre	-12.2267
▁régissent	-12.2267
▁nuisent	-12.2267
▁disparaissent	-12.2267
▁plaidé	-12.2271
▁légères	-12.2273
mat	-12.2278
▁abstenir	-12.2288
isée	-12.2288
▁immédiats	-12.2289
▁restitution	-12.229
▁déroulée	-12.2297
▁Daul	-12.2298
▁récolte	-12.2298
exister	-12.2298
▁réguler	-12.2299
▁alinéa	-12.2301
▁Aung	-12.2302
value	-12.2303
▁convenues	-12.2311
▁film	-12.2315
Association	-12.2318
enfance	-12.2318
existait	-12.2318
exporter	-12.2318
▁complété	-12.2321
▁homogène	-12.2322
▁prescription	-12.2322
▁boycott	-12.2327
▁Thaïlande	-12.2329
▁cérémonie	-12.2329
▁ultérieures	-12.2331
▁entretient	-12.2332
▁adressés	-12.2337
▁miel	-12.234
▁murs	-12.2341
▁temporairement	-12.2343
▁libéré	-12.2345
▁lot	-12.2349
idéal	-12.2349
▁tissus	-12.2353
intervalle	-12.236
▁McKenna	-12.236
▁représentait	-12.236
▁stimulation	-12.236
▁réinsertion	-12.2361
▁coopèrent	-12.2362
▁gérée	-12.2362
▁soumet	-12.2364
▁distincts	-12.2365
▁écarter	-12.2366
▁apprécie	-12.2367
garde	-12.2373
▁hypocrisie	-12.2378
acquérir	-12.238
]	-12.2384
▁solaire	-12.2385
▁bénéficiaire	-12.2385
▁coordinateurs	-12.2386
▁audit	-12.2387
▁féminine	-12.2388
▁otage	-12.2388
▁combats	-12.2389
▁disproportionné	-12.239
▁lente	-12.2392
▁radicales	-12.2398
▁Pa	-12.2399
essai	-12.2402
▁37,	-12.2405
▁abolir	-12.2407
▁opter	-12.2407
▁rabais	-12.2408
▁nécessitera	-12.241
ations	-12.2415
affecter	-12.2416
▁grosse	-12.2417
immatriculation	-12.2423
▁Graefe	-12.2423
▁déforestation	-12.2423
▁reflet	-12.2423
▁voeux	-12.2423
▁avantageux	-12.2423
inciter	-12.2424
▁télé	-12.2426
▁noyau	-12.2426
gi	-12.2426
▁exploités	-12.2427
09	-12.2428
▁lis	-12.2428
▁rigoureusement	-12.2428
▁col	-12.243
tent	-12.2432
▁fouet	-12.2435
pu	-12.2437
▁bibliothèques	-12.2438
allouer	-12.2443
▁parallèles	-12.2446
▁séminaire	-12.2448
▁ressortissant	-12.2448
▁trouverons	-12.2451
▁manquera	-12.2451
▁stipulé	-12.2452
▁démunis	-12.2452
eh	-12.2454
▁Collins	-12.2454
▁Theato	-12.2454
▁située	-12.2454
▁Haug	-12.2454
▁combinée	-12.2455
▁instaurant	-12.2455
▁parité	-12.2455
/2003	-12.2459
▁portées	-12.2461
▁spécifications	-12.2462
▁trouveront	-12.2465
▁2007-2013.	-12.247
▁prétendu	-12.247
oul	-12.2471
▁standards	-12.2471
▁Ha	-12.2472
Iraq	-12.2475
▁objets	-12.2476
▁proposera	-12.248
igne	-12.248
▁souhaitée	-12.2481
▁dictateurs	-12.2484
▁diesel	-12.2486
▁jachère	-12.2486
▁lucratif	-12.2486
▁prestige	-12.2486
▁survenu	-12.2486
▁différenciation	-12.2486
▁junte	-12.2486
▁préservant	-12.2486
▁rencontrons	-12.2487
▁Leone	-12.2488
▁abeilles	-12.2489
▁imminente	-12.249
▁retirés	-12.2501
▁expriment	-12.2503
ché	-12.2504
▁impacts	-12.2505
har	-12.2506
ha	-12.2508
▁émet	-12.2509
▁assumé	-12.251
▁pourrai	-12.251
▁apparus	-12.2512
▁Plutôt	-12.2518
▁Špidla	-12.2518
▁occupée	-12.252
▁violer	-12.2521
▁17,	-12.253
▁demie	-12.2531
▁facilités	-12.2532
▁peau	-12.2532
▁exécuter	-12.2533
▁exclut	-12.2533
▁comparé	-12.2535
▁assassinats	-12.2539
▁buts	-12.2541
▁vôtre	-12.2543
▁génésique	-12.2543
▁productive	-12.2549
Applaudissements	-12.255
▁Pirker	-12.255
▁récupération	-12.255
▁catalyseur	-12.255
▁mettions	-12.255
▁luxe	-12.255
▁acquises	-12.2551
tin	-12.2552
▁paquets	-12.2552
▁postal	-12.2561
▁levé	-12.2562
12	-12.2563
▁fille	-12.2563
▁roues	-12.2564
▁entendue	-12.2564
▁incompatibles	-12.2566
▁émise	-12.2566
▁suspects	-12.2567
▁décisionnels	-12.2567
0.000	-12.257
▁laissés	-12.257
▁témoin	-12.2575
▁apprend	-12.2578
▁couronnée	-12.2579
▁Gebhardt	-12.2582
▁préambule	-12.2582
▁électoraux	-12.2582
▁pause	-12.2582
▁pallier	-12.2582
▁désert	-12.2582
▁mettrait	-12.2584
▁contingents	-12.2585
▁satisfaisants	-12.2587
▁distributeurs	-12.2589
▁adolescents	-12.259
▁admet	-12.2591
▁déroulées	-12.2592
att	-12.2593
▁occupation	-12.2594
▁67	-12.2598
▁2015.	-12.26
);	-12.2601
▁contractuelles	-12.2601
▁allouer	-12.2602
▁alimenter	-12.2604
▁gr	-12.2604
▁rejetées	-12.2604
▁apparition	-12.2605
▁dénonce	-12.2607
▁pandémie	-12.2607
▁mentalité	-12.2607
▁ponts	-12.261
▁trompe	-12.261
▁vraies	-12.261
autorégulation	-12.2614
euses	-12.2616
▁rude	-12.2617
▁rumeurs	-12.2621
▁universels	-12.2623
▁ultra	-12.2627
21	-12.2627
▁identifiées	-12.2631
▁contrôleurs	-12.2631
éradiquer	-12.2635
▁choquant	-12.2638
▁flou	-12.2639
▁autoritaire	-12.264
▁licenciement	-12.264
▁sectorielle	-12.2641
▁cynique	-12.2643
imp	-12.2645
avènement	-12.2646
▁Transnistrie	-12.2646
▁cacao	-12.2646
▁samedi	-12.2646
▁soleil	-12.2651
▁fracture	-12.2653
▁imposition	-12.266
cher	-12.2662
▁Quelqu	-12.2664
riez	-12.2665
▁avertissements	-12.2665
▁condamnées	-12.267
▁pétrolier	-12.2672
▁couples	-12.2674
/2005	-12.2674
▁congestion	-12.2678
▁68	-12.2685
▁couverte	-12.2688
00)	-12.2688
▁dissidents	-12.2688
▁dialogues	-12.2689
â	-12.2692
▁emprisonnés	-12.2695
▁exposée	-12.2695
men	-12.2698
escalade	-12.2699
▁avais	-12.2699
▁compare	-12.2703
▁connexion	-12.2705
▁décidera	-12.2705
étudiants	-12.2705
▁gain	-12.2707
▁marchandise	-12.2707
▁eue	-12.2708
▁arrivera	-12.271
▁Fischer	-12.271
▁Jackson	-12.271
▁renoncé	-12.271
▁expliquant	-12.2711
▁productif	-12.2712
islam	-12.2712
▁irlandaises	-12.2719
▁hautes	-12.272
▁impliquerait	-12.2724
▁indemnisation	-12.2727
▁reculer	-12.273
▁vaccin	-12.2733
▁enregistre	-12.2735
échapper	-12.2735
▁86	-12.2736
▁qualitatif	-12.2737
▁finit	-12.2737
▁convaincante	-12.2741
ust	-12.2741
▁intervenant	-12.2741
▁présenterons	-12.2741
▁mini	-12.2742
▁volatilité	-12.2743
▁panique	-12.2743
▁consacrent	-12.2749
ros	-12.2751
Il	-12.2753
▁cor	-12.2755
▁distinctes	-12.2758
inter	-12.2758
▁serbes	-12.2759
▁couper	-12.2768
ction	-12.2769
▁variété	-12.277
éloge	-12.2771
▁ressortir	-12.2771
▁78	-12.2772
▁parts	-12.2772
▁faisable	-12.2773
▁écoulée	-12.2775
▁Duisenberg	-12.2775
▁spirale	-12.2775
▁violés	-12.2775
▁Tand	-12.2777
bon	-12.2781
▁1%	-12.2783
appareil	-12.2791
ev	-12.2794
▁afghan	-12.2794
▁limiterai	-12.2799
▁focaliser	-12.2799
▁métier	-12.2802
▁impérialiste	-12.2804
acteur	-12.2805
▁appuyons	-12.2808
▁infantile	-12.2808
▁amplement	-12.2809
▁évoluent	-12.2812
▁spéculatifs	-12.2813
▁correspondante	-12.2816
▁interpréter	-12.2817
▁coûteuses	-12.2822
appliquera	-12.2822
rit	-12.2823
▁frappés	-12.2827
W	-12.283
émotion	-12.283
nisme	-12.2835
▁donateur	-12.2836
▁élémentaire	-12.2838
▁vérifié	-12.2839
▁pratiquée	-12.284
▁Nassauer	-12.2841
▁diligence	-12.2841
▁tiendront	-12.2841
évasion	-12.2841
▁Ferber	-12.2841
▁pénétrer	-12.2841
▁écoulés	-12.2842
▁forteresse	-12.2843
▁annoncées	-12.2845
▁support	-12.2845
▁baissé	-12.2846
▁caractérisent	-12.2847
▁souhaitions	-12.2847
ç	-12.2849
▁équilibrées	-12.286
▁inflation	-12.286
▁violentes	-12.2862
vin	-12.2865
▁contrôleur	-12.2869
améliore	-12.2873
extinction	-12.2874
▁Kenya	-12.2874
▁Ludford	-12.2874
▁défaite	-12.2874
▁plaindre	-12.2874
▁diversifier	-12.2874
▁maintiennent	-12.2876
▁détecter	-12.2876
▁perdons	-12.2878
nu	-12.2893
▁talibans	-12.2898
▁abstenue	-12.2898
▁revendication	-12.2902
▁Per	-12.2904
▁chrétien	-12.2905
▁excédents	-12.2905
▁92	-12.2906
▁Haarder	-12.2907
▁veillé	-12.2907
▁parlions	-12.2907
▁finaux	-12.2908
98)	-12.291
espèces	-12.291
▁structurée	-12.2912
▁provisoirement	-12.2914
▁autoroutes	-12.2918
▁distinct	-12.2919
▁tonne	-12.2925
ues	-12.2927
▁renouvelé	-12.2929
instruction	-12.2929
▁rapportent	-12.2933
▁certificat	-12.2935
▁malade	-12.2935
coup	-12.2938
▁représentées	-12.2938
▁alarmante	-12.294
▁Croix	-12.294
▁Grossetête	-12.294
▁persévérance	-12.294
▁néant	-12.2942
▁engins	-12.2942
▁affectée	-12.2946
▁aboli	-12.295
ât	-12.2952
▁réutilisation	-12.2954
ole	-12.2957
▁indiscutable	-12.2957
enrichissement	-12.2962
Eurostat	-12.2962
▁obligatoirement	-12.2962
attaques	-12.2964
▁énoncés	-12.2965
dans	-12.2969
▁contienne	-12.297
▁malentendus	-12.2971
▁retrouvons	-12.2974
▁confondre	-12.2974
▁révélateur	-12.2974
ifs	-12.2977
▁privilégiée	-12.2978
ina	-12.2978
▁Européenne	-12.298
▁attachée	-12.2981
Alba	-12.2984
▁compensatoires	-12.2984
▁policières	-12.2985
▁honnêteté	-12.2987
parlementaire	-12.299
▁délivrer	-12.299
oli	-12.2991
▁trace	-12.2991
▁fréquent	-12.2992
▁user	-12.2993
mon	-12.2993
▁orales	-12.2993
▁englober	-12.2993
nations	-12.2994
accomplissement	-12.2996
▁Lange	-12.2996
atteler	-12.2996
pied	-12.2996
▁appréciable	-12.3001
▁variable	-12.3002
▁formelles	-12.3003
▁catégorique	-12.3004
▁Maghreb	-12.3006
▁possédons	-12.3006
▁préparons	-12.3006
▁contenait	-12.3006
▁entourant	-12.3006
▁Méndez	-12.3007
▁scrupuleusement	-12.3007
▁montrera	-12.3008
▁courent	-12.3008
▁étudie	-12.3008
pr	-12.3011
▁intégrale	-12.302
▁exceptionnels	-12.3021
▁atouts	-12.3023
▁économiser	-12.3029
▁rubriques	-12.3029
▁enregistrer	-12.3031
plus	-12.3033
tif	-12.3034
▁étend	-12.3034
ini	-12.3036
▁désastreuse	-12.3037
antisémitisme	-12.304
inématographique	-12.304
▁Quiconque	-12.304
▁cabotage	-12.304
▁obtiendrons	-12.3044
▁dose	-12.3047
opérations	-12.3049
▁Bo	-12.3049
▁usine	-12.3049
▁adhère	-12.3052
▁négociée	-12.3054
▁équilibres	-12.3054
▁découvertes	-12.3054
▁sections	-12.3055
▁61	-12.3056
▁atmosphère	-12.3057
▁origines	-12.3059
▁correspondants	-12.3061
élite	-12.3061
▁estimer	-12.3064
▁pomme	-12.3069
▁maître	-12.307
unir	-12.307
▁lobbying	-12.3074
▁buf	-12.3074
16	-12.3075
▁POP	-12.3075
▁aéronautique	-12.3076
▁soulignée	-12.3079
▁Reste	-12.3085
▁xénophobes	-12.3089
▁croissantes	-12.3089
▁amendé	-12.3091
avocat	-12.3091
▁superflu	-12.3094
▁coordonné	-12.3095
▁concentré	-12.3095
▁placement	-12.3096
▁élabore	-12.3104
▁Rompuy	-12.3107
▁pensant	-12.3107
▁probabilité	-12.3107
▁verdict	-12.3107
▁condamnant	-12.3108
▁collecter	-12.3108
▁15,	-12.3108
▁battent	-12.3108
▁gratuitement	-12.311
▁finales	-12.3113
▁urgences	-12.3117
▁formés	-12.3118
▁otages	-12.3118
▁réticences	-12.3121
▁décisives	-12.3125
▁Mal	-12.3126
▁intéresser	-12.3126
Accord	-12.313
exécutif	-12.313
▁exploitées	-12.313
arrache	-12.3136
▁fantastique	-12.3141
▁Berg	-12.3141
▁éolienne	-12.3141
▁ajoutant	-12.3143
▁minutieusement	-12.3143
▁Be	-12.3144
▁deçà	-12.3144
▁harmonie	-12.3145
▁transmissibles	-12.3146
▁Faute	-12.3146
▁décharges	-12.3146
(2001)	-12.3146
OMI	-12.315
▁saura	-12.3151
▁importer	-12.3151
▁revu	-12.3162
ich	-12.3169
▁ennemis	-12.317
▁réponds	-12.3172
▁motivations	-12.3174
▁Pouvons	-12.3175
▁successifs	-12.3175
▁minimaux	-12.3175
▁FAO	-12.3176
▁82	-12.3178
▁résulter	-12.3185
▁nouveauté	-12.3185
▁totalitaires	-12.3189
▁indésirables	-12.3194
outil	-12.3196
imagination	-12.3198
▁qualitative	-12.3202
effets	-12.3203
▁contingent	-12.3203
▁pétrolière	-12.3205
▁140	-12.3205
▁reprocher	-12.3206
▁Clinton	-12.3209
▁Savary	-12.3209
▁accueillons	-12.3209
▁1970	-12.3209
▁blocus	-12.3209
attacher	-12.3211
▁octroie	-12.3212
exhorte	-12.3213
▁atlantique	-12.3214
▁Sir	-12.3215
européens	-12.3215
▁satisfaisantes	-12.3222
▁sape	-12.3222
▁électricité	-12.3225
▁éclaté	-12.3226
Jeunesse	-12.3232
intensité	-12.3232
▁exagéré	-12.3232
▁juristes	-12.3232
ek	-12.3234
tiques	-12.3236
▁exécutive	-12.3239
▁répandu	-12.3242
▁aidés	-12.3242
▁Br	-12.3242
▁conçues	-12.3243
▁Helms	-12.3243
▁Salafranca	-12.3243
▁baronne	-12.3243
▁bonheur	-12.3243
▁facultatif	-12.3243
▁pornographie	-12.3243
▁tiendrons	-12.3243
▁prenez	-12.3243
▁intimement	-12.3244
Eurogroupe	-12.3245
▁dégage	-12.3246
▁Droit	-12.3246
▁réduira	-12.3249
▁préférentiel	-12.3251
▁hypothèse	-12.3256
▁réservés	-12.326
▁Green	-12.326
▁pacifiquement	-12.3262
▁louables	-12.3266
avertissement	-12.3266
▁amendée	-12.3268
accordent	-12.3272
teurs	-12.3276
▁Gibraltar	-12.3277
▁Klaus	-12.3277
▁Morillon	-12.3277
▁PVC	-12.3277
▁pillage	-12.3277
▁regagner	-12.3277
▁soutenable	-12.3277
▁triple	-12.3277
▁paperasserie	-12.3277
▁dépassant	-12.3278
▁centralisation	-12.3278
▁fermées	-12.3279
▁souhaitais	-12.3279
▁réitéré	-12.3281
▁tibétain	-12.3282
▁taire	-12.3283
▁fête	-12.3285
▁audiovisuels	-12.3287
▁organise	-12.3289
▁jugeons	-12.3289
▁fabriquer	-12.3291
éventuelle	-12.3294
nelle	-12.3295
▁incitation	-12.3296
emballage	-12.3296
▁causées	-12.3299
▁inspiré	-12.33
ET	-12.3301
▁Su	-12.3301
▁exploité	-12.3301
▁transposé	-12.3303
▁investis	-12.3307
▁miracle	-12.3308
▁bénévolat	-12.3312
▁ordinateur	-12.3312
4-05	-12.3312
▁répétées	-12.3313
▁albanaise	-12.3315
▁gains	-12.3318
ide	-12.3319
▁néo	-12.332
▁diplomates	-12.3322
▁apparue	-12.3322
▁départements	-12.3323
▁hausses	-12.3324
▁19,	-12.3326
▁centralisé	-12.3328
▁birman	-12.3334
▁consommer	-12.3337
▁pans	-12.3339
▁irréversible	-12.3342
▁al	-12.3342
▁douanier	-12.3342
▁Dayton	-12.3346
▁Howitt	-12.3346
▁confiée	-12.335
▁interviennent	-12.3351
▁poussent	-12.3351
sol	-12.3353
ensuit	-12.3353
▁démarrer	-12.3356
▁divergents	-12.3366
▁assassiné	-12.3369
▁dépendantes	-12.3375
▁indien	-12.3377
▁sélective	-12.3377
▁modérés	-12.3378
▁arctique	-12.3378
▁montrés	-12.3379
▁ministères	-12.338
▁1988	-12.3381
▁Buitenweg	-12.3381
▁Schröder	-12.3381
▁Turcs	-12.3381
▁chuté	-12.3381
▁pragmatisme	-12.3381
ano	-12.3384
hu	-12.339
▁Adam	-12.3391
▁traduits	-12.3393
▁nocifs	-12.3393
▁Da	-12.3393
iff	-12.3394
▁Plan	-12.3398
▁calendriers	-12.3399
rer	-12.3402
fl	-12.3403
▁généralisé	-12.3404
▁analysé	-12.3404
▁déployé	-12.3404
▁Pen	-12.3409
▁précède	-12.3413
étonner	-12.3413
80	-12.3415
▁proverbe	-12.3415
▁éloignés	-12.3416
▁tristesse	-12.3416
ton	-12.3421
▁nocives	-12.3424
▁exemptions	-12.3424
▁débattues	-12.3425
▁PECO	-12.3428
▁améliorés	-12.3429
ers	-12.3431
▁massifs	-12.3432
tal	-12.3432
▁Pi	-12.3432
▁délicates	-12.3433
▁exclue	-12.3433
▁fréquences	-12.3433
▁animé	-12.3439
aspects	-12.3441
▁récolter	-12.3442
95	-12.3445
▁fixes	-12.3448
▁Moldova	-12.345
▁soutiendront	-12.345
▁Brittan	-12.345
▁bienfaits	-12.345
▁éco	-12.3451
▁courants	-12.3452
▁vitaux	-12.3452
▁appliquons	-12.3452
▁64	-12.3461
▁communiqués	-12.3461
▁VI	-12.3461
ajouterais	-12.3462
▁supprimées	-12.347
ino	-12.3473
▁armé	-12.3474
privé	-12.3474
▁prématurée	-12.3476
▁fermés	-12.3478
▁typique	-12.3479
▁raciste	-12.3482
▁multinationale	-12.3483
▁Business	-12.3485
▁Minsk	-12.3485
▁Tajani	-12.3485
▁félicitant	-12.3485
▁délibérée	-12.3489
▁opposées	-12.3491
▁âme	-12.3494
ements	-12.3496
ly	-12.3497
▁entrant	-12.3503
hiver	-12.3506
ONG	-12.3509
▁transporter	-12.3511
attribuer	-12.3514
▁saumon	-12.3517
▁catholique	-12.3517
applaudis	-12.3518
▁Ensemble	-12.352
▁attachons	-12.352
▁stopper	-12.352
▁Monnet	-12.3521
▁augure	-12.3524
▁transmettrai	-12.3528
▁préparent	-12.3529
ification	-12.3529
vers	-12.3531
▁mutations	-12.3531
▁optimisme	-12.3533
▁espèrent	-12.3536
▁quotidiennes	-12.3538
observateur	-12.3541
Rapporteur	-12.3544
▁musulman	-12.3547
▁solliciter	-12.3549
▁reçue	-12.3549
▁convenable	-12.355
▁Vi	-12.3552
▁Ser	-12.3552
▁température	-12.3552
▁préjudiciables	-12.3553
▁versé	-12.3553
▁Primo	-12.3556
▁horrible	-12.3556
▁rédigée	-12.3557
▁choisissent	-12.3557
▁Cachemire	-12.3557
pre	-12.3561
▁gérées	-12.3567
▁rémunérations	-12.3573
▁répressives	-12.3579
isés	-12.358
▁veillerons	-12.3583
▁Martens	-12.3591
▁complicité	-12.3591
▁relais	-12.3591
implantation	-12.3591
▁malaise	-12.3592
▁soucieux	-12.3593
▁indicateur	-12.3593
▁douteux	-12.3596
▁lamentable	-12.3597
▁déficiences	-12.3597
▁tournent	-12.3597
▁cycles	-12.3602
▁rejettent	-12.3603
IC	-12.3603
▁épreuve	-12.3605
▁étonné	-12.3608
▁indirects	-12.3611
▁conversations	-12.3613
▁bleu	-12.3616
▁Alliance	-12.3617
ries	-12.3617
ng	-12.3619
▁George	-12.3619
▁logiquement	-12.3625
lan	-12.3625
▁Frassoni	-12.3626
▁Groenland	-12.3626
▁Guatemala	-12.3626
▁Philippines	-12.3626
▁infiniment	-12.3626
▁sterling	-12.3626
exerce	-12.3627
émigration	-12.3627
▁collaborent	-12.3628
droit	-12.3633
ah	-12.3635
▁compliments	-12.3642
▁ménage	-12.3651
▁chocs	-12.3658
▁branche	-12.3659
Honorable	-12.3662
▁Dalaï	-12.3662
▁rideau	-12.3662
▁citation	-12.3662
▁marginalisation	-12.3662
▁exactes	-12.3662
▁carrément	-12.3663
▁quittent	-12.3665
individus	-12.3666
▁manuvre	-12.3666
▁établissent	-12.3667
9/	-12.3669
▁occupant	-12.367
▁nés	-12.367
attarder	-12.3679
▁entiers	-12.3682
organisme	-12.3684
▁donneront	-12.3686
▁coopératives	-12.3693
▁rémunérés	-12.3695
▁émission	-12.3697
▁Turkménistan	-12.3698
▁posons	-12.3698
▁task	-12.3698
Burton	-12.3698
▁reproduisent	-12.3701
▁envisagés	-12.3702
▁observatoire	-12.3703
▁précautions	-12.3703
vé	-12.3705
▁attacher	-12.3706
▁subventionner	-12.3709
▁détruits	-12.3713
▁navigables	-12.3714
avier	-12.3714
insistance	-12.3722
▁clarifié	-12.3723
▁suspendu	-12.3723
dre	-12.3724
ica	-12.3725
▁siéger	-12.3729
▁discuterons	-12.3734
▁lignée	-12.3734
▁défendant	-12.374
▁achevée	-12.3741
▁maintenues	-12.3741
▁Vos	-12.3753
▁perturbations	-12.3754
hésite	-12.3755
▁abandonnés	-12.3758
Ouzbékistan	-12.3758
Sud	-12.3759
▁favorisé	-12.3759
▁arriverons	-12.376
▁dénomination	-12.3767
▁directrice	-12.3767
▁Désormais	-12.3769
▁Lamassoure	-12.3769
▁cruauté	-12.3769
▁stagnation	-12.3769
▁macrofinancière	-12.3769
▁Suite	-12.377
▁produisant	-12.377
▁PESD	-12.377
▁profonds	-12.3779
▁aboutit	-12.3784
▁sonores	-12.3788
ria	-12.3793
▁incombent	-12.3793
écosystème	-12.3794
▁bi	-12.3797
▁détaillés	-12.3803
▁imputable	-12.3803
▁terrestre	-12.3804
▁propriétaire	-12.3804
▁Crowley	-12.3805
▁combustion	-12.3805
▁douloureux	-12.3805
▁merveilleux	-12.3806
▁sévit	-12.3806
▁80%	-12.3806
▁injustifiée	-12.3806
▁anticipée	-12.3807
▁stéréotypes	-12.3808
▁irait	-12.381
▁demandeur	-12.3813
▁énoncées	-12.3817
▁créateurs	-12.3819
oir	-12.382
▁tranche	-12.382
omp	-12.3821
▁demandés	-12.3823
▁quitte	-12.3827
▁engendrés	-12.3831
chi	-12.3831
2000)	-12.3834
▁stations	-12.3837
▁incontournable	-12.384
▁sceptique	-12.384
nd	-12.3841
▁méridionale	-12.3841
▁Trichet	-12.3842
▁discutions	-12.3842
▁loyauté	-12.3842
▁déstabilisation	-12.3842
▁préjudices	-12.3842
▁définissent	-12.3844
ous	-12.3846
▁constatées	-12.3846
▁soucier	-12.3847
▁Front	-12.3847
▁intervenue	-12.3851
▁emploient	-12.3855
▁firmes	-12.3855
Acte	-12.3856
▁expliquent	-12.3857
▁épidémie	-12.3858
aggravation	-12.3867
▁reli	-12.3871
▁multiplié	-12.3871
▁acceptation	-12.3872
▁serviront	-12.3873
mall	-12.3874
▁affaibli	-12.3875
▁olympique	-12.3876
▁algérien	-12.3878
▁Macao	-12.3878
▁impensable	-12.3878
▁Proposition	-12.3878
applaudissements	-12.3878
▁concentrant	-12.3879
▁Jo	-12.3879
▁conviennent	-12.3879
▁tapis	-12.3881
▁limitrophes	-12.3884
▁formulations	-12.3891
▁témoigné	-12.3894
▁étiquettes	-12.3901
▁failles	-12.3901
Agriculture	-12.3903
amour	-12.3903
▁employées	-12.3904
▁excellentes	-12.3904
écarter	-12.3904
▁simplifié	-12.3905
▁libellé	-12.391
▁obsolètes	-12.3913
▁Kallas	-12.3915
▁Napolitano	-12.3915
▁Vingt	-12.3915
▁Whitehead	-12.3915
▁convenons	-12.3915
▁successives	-12.3915
▁totalitarisme	-12.3915
rofessionnalisme	-12.3915
▁Règlement	-12.3916
▁encourageants	-12.3917
▁engageons	-12.3918
▁3%	-12.3922
▁innocentes	-12.3924
▁visée	-12.3931
▁provoqués	-12.3935
▁téléphoniques	-12.3939
▁Dr	-12.3939
européenne	-12.3939
▁escomptés	-12.3939
intelligence	-12.394
▁axées	-12.3942
▁intérimaires	-12.3942
▁Kof	-12.3946
▁fabricant	-12.395
▁immunités	-12.395
▁barrière	-12.395
▁Valence	-12.3951
▁cynisme	-12.3951
▁Gradin	-12.3951
▁libéralisme	-12.3952
▁génèrent	-12.3956
▁passive	-12.3958
▁aéroportuaires	-12.396
accises	-12.3962
▁églises	-12.3963
▁dépôts	-12.3966
▁insistent	-12.3967
AR	-12.397
▁maux	-12.3973
politique	-12.3975
▁agressions	-12.3979
▁propriétés	-12.3985
▁stupide	-12.3986
▁quantitative	-12.3987
▁bourse	-12.3987
▁parvenues	-12.3987
▁demandera	-12.3987
▁Flynn	-12.3988
▁Sánchez	-12.3988
▁Tony	-12.3988
▁Hughes	-12.3988
▁désespérément	-12.3989
▁accompagnés	-12.3989
▁omis	-12.399
▁chargement	-12.399
▁aspirent	-12.3991
erie	-12.3993
▁munitions	-12.3995
axe	-12.3996
▁Ho	-12.4001
▁préliminaires	-12.4004
▁brèves	-12.4005
▁reçus	-12.4006
▁dialoguer	-12.4006
▁fa	-12.4006
gouvernementales	-12.4007
▁versements	-12.4007
▁rédigés	-12.4008
▁factures	-12.4009
▁livrent	-12.4013
▁garant	-12.4013
août	-12.4014
▁pl	-12.4017
▁légers	-12.4019
▁tchétchène	-12.4024
▁génie	-12.4025
▁Socialistes	-12.4025
▁brevetabilité	-12.4025
▁unifié	-12.4028
▁réglés	-12.4028
▁rassemblement	-12.403
pré	-12.403
ures	-12.4033
▁souhaitaient	-12.4036
▁provisoires	-12.404
▁entrés	-12.4043
▁abattu	-12.4047
▁querelles	-12.4051
▁minoritaire	-12.4061
▁Dührkop	-12.4062
▁israélo	-12.4062
utilise	-12.4063
▁cabinet	-12.4063
▁1990.	-12.4063
▁verrez	-12.4064
▁FEDER	-12.4064
▁Représentant	-12.4065
▁ruine	-12.4065
▁commise	-12.4065
▁bière	-12.4066
▁supranationale	-12.4066
▁pommes	-12.4067
▁canal	-12.4069
▁placent	-12.407
▁alléger	-12.407
▁commerçants	-12.4071
▁déni	-12.4071
▁instaurée	-12.4072
▁expérimentation	-12.4076
▁Mer	-12.4085
ennemi	-12.4089
▁renvoyé	-12.409
▁déploie	-12.4094
ap	-12.4095
▁risquer	-12.4098
▁Malaisie	-12.4099
▁voulant	-12.4099
▁reviendrons	-12.4099
▁comptant	-12.41
▁correspondre	-12.4101
▁pr	-12.4102
▁filières	-12.4103
▁ignorent	-12.4105
▁mienne	-12.4105
▁golfe	-12.4109
▁transformés	-12.4111
▁ha	-12.4112
aï	-12.4113
▁facettes	-12.4114
▁Autorité	-12.4116
▁450	-12.4119
▁2,5	-12.4121
▁souples	-12.4122
▁écoulé	-12.4127
▁assurera	-12.4129
▁entretien	-12.4131
▁réformée	-12.4131
intéressent	-12.4132
▁battus	-12.4132
▁reçoive	-12.4134
▁agressive	-12.4135
▁barbare	-12.4135
▁fédération	-12.4135
▁centrée	-12.4136
▁cadeau	-12.4136
▁Bagdad	-12.4136
▁Izquierdo	-12.4136
▁Néerlandais	-12.4136
▁approuvant	-12.4136
▁folie	-12.4136
▁coïncidence	-12.4136
opinions	-12.4139
▁modérée	-12.4141
▁quotidiens	-12.4146
▁travaillistes	-12.4149
▁mé	-12.415
yn	-12.4154
▁magasins	-12.4155
▁demandées	-12.4158
▁miner	-12.4158
anciens	-12.416
▁évalués	-12.4161
▁hectares	-12.4165
▁marines	-12.4165
ali	-12.4167
▁hostile	-12.4173
▁billet	-12.4173
▁suites	-12.4174
▁antérieure	-12.4174
▁bizarre	-12.4174
▁poignée	-12.4174
▁rotation	-12.4174
▁Andersson	-12.4174
▁Cunha	-12.4174
▁cohabitation	-12.4174
▁suffire	-12.4174
▁figurait	-12.4174
▁TAC	-12.4175
▁gratuite	-12.4176
▁critiquée	-12.4177
▁fournisse	-12.4178
▁étendus	-12.4179
▁concentrés	-12.4179
▁sortent	-12.418
▁inadéquate	-12.418
tendent	-12.418
▁attachement	-12.4183
▁remplacée	-12.4184
▁escalade	-12.4187
▁repousser	-12.4187
ite	-12.4188
ines	-12.419
ult	-12.419
▁participeront	-12.4197
explosion	-12.42
▁inévitables	-12.4203
▁bandes	-12.421
▁format	-12.4211
▁Soyez	-12.4211
▁littoral	-12.4211
▁mobilières	-12.4211
▁valent	-12.4213
▁FSE	-12.4214
▁prétendue	-12.4218
▁rails	-12.4221
▁terriblement	-12.4222
pédopornographie	-12.4223
▁observée	-12.4224
▁juridictions	-12.4225
▁élever	-12.4226
isse	-12.4229
▁déclencher	-12.4229
▁inhérents	-12.423
▁documentation	-12.4232
Argentine	-12.4238
▁ralentir	-12.4239
▁adéquatement	-12.4241
▁classiques	-12.4243
▁Faut	-12.4244
▁comparative	-12.4247
▁Schroedter	-12.4249
▁Thyssen	-12.4249
▁pertinemment	-12.4249
▁vicieux	-12.4249
▁énième	-12.4249
▁cédé	-12.4249
▁basse	-12.425
▁investissent	-12.4252
▁savait	-12.4257
8(	-12.4265
▁terrains	-12.427
▁tracé	-12.4271
▁communiquées	-12.4272
▁maint	-12.4275
équipage	-12.4276
▁éloigné	-12.4279
▁voudra	-12.4286
▁dérégulation	-12.4287
▁rappellent	-12.4288
ition	-12.4289
▁Interreg	-12.4289
▁vidéo	-12.4289
▁illustrer	-12.4293
5-05	-12.4294
▁autochtones	-12.4294
gen	-12.4295
▁efforcé	-12.43
▁contenterai	-12.4301
UEO	-12.4303
▁créerait	-12.4305
▁jugées	-12.4308
▁coûtera	-12.431
rg	-12.431
Soudan	-12.4314
sida	-12.4317
ères	-12.4318
ssons	-12.4321
▁répartis	-12.4322
▁serré	-12.4325
▁migratoire	-12.4325
▁antiterroriste	-12.4325
▁auspices	-12.4325
▁ténacité	-12.4325
▁Liese	-12.4325
▁soirée	-12.4326
▁CITES	-12.4327
▁exploitent	-12.4327
▁utilitaires	-12.4328
▁tuées	-12.4329
▁réorientation	-12.433
▁frappent	-12.4333
▁mutilations	-12.4344
ster	-12.4348
érosion	-12.4352
impuissance	-12.4352
▁écrire	-12.4354
▁aspire	-12.4354
▁inapproprié	-12.4355
▁Terre	-12.4356
▁négociés	-12.4356
irrégularités	-12.4361
▁1991,	-12.4363
affirmative	-12.4363
▁Goebbels	-12.4363
▁Téhéran	-12.4363
▁courtoisie	-12.4363
▁marketing	-12.4363
▁pensait	-12.4363
▁pouvais	-12.4363
▁nouer	-12.4364
▁77	-12.4364
▁Weber	-12.4364
▁10%	-12.4366
▁valoriser	-12.4366
▁vêtements	-12.4368
6/	-12.4368
▁prolongée	-12.4368
ène	-12.437
ong	-12.437
4(	-12.4375
▁contributeurs	-12.4381
impôts	-12.4381
▁impartiale	-12.4382
▁effectue	-12.4391
aborderai	-12.4391
▁disposera	-12.4401
Indépendamment	-12.4402
▁Alpes	-12.4402
▁Lucas	-12.4402
▁Tibétains	-12.4402
▁géant	-12.4402
▁harmonieux	-12.4402
▁portuaire	-12.4402
▁réalisables	-12.4402
▁pieux	-12.4402
▁tirés	-12.4402
▁datant	-12.4402
13	-12.4403
▁disparus	-12.4403
▁Autant	-12.4406
▁optimistes	-12.4407
▁récompense	-12.4407
▁Athènes	-12.4407
▁entamées	-12.441
▁nitrates	-12.4412
▁mixtes	-12.4413
▁expressions	-12.4421
▁empire	-12.4423
▁chat	-12.4426
▁désavantage	-12.4426
▁81	-12.4429
90	-12.4431
▁Trakatellis	-12.444
▁flore	-12.444
▁paternité	-12.444
▁trouvaient	-12.444
▁repenser	-12.444
97	-12.4444
monde	-12.4447
▁impressionnant	-12.4451
▁impératifs	-12.4452
▁prélèvements	-12.4453
▁innombrables	-12.4455
▁ouvrent	-12.4456
▁débattus	-12.4461
50	-12.4461
▁maire	-12.4461
Arabie	-12.4467
intégralité	-12.4467
▁doubles	-12.447
▁dirait	-12.4472
eff	-12.4477
▁discrétion	-12.4477
▁dévouement	-12.4479
▁onéreux	-12.4479
▁pondération	-12.4479
▁trimestre	-12.4479
▁viendront	-12.4479
▁spéculateurs	-12.4479
▁efforcés	-12.4479
▁renversement	-12.4479
▁préventif	-12.4479
atif	-12.448
▁72	-12.4485
▁éloignée	-12.4485
▁survenue	-12.4486
jo	-12.4486
▁océans	-12.449
▁apparues	-12.449
▁supranational	-12.4494
ls	-12.4496
▁volumes	-12.45
▁axe	-12.4502
ECHO	-12.4506
▁rapporter	-12.4508
▁perpétré	-12.451
▁violé	-12.4512
1(	-12.4513
▁relèvement	-12.4514
▁entretenu	-12.4516
▁Dernier	-12.4517
▁demeurant	-12.4517
▁inestimable	-12.4517
▁poursuivrons	-12.4517
▁travailleuses	-12.4518
▁négocie	-12.4518
▁exclusif	-12.4518
infractions	-12.4519
▁incitant	-12.452
▁Nigéria	-12.452
▁obtient	-12.4521
▁Ecofin	-12.4522
▁Ex	-12.4522
▁Va	-12.4531
▁manifestée	-12.4536
▁dépassée	-12.4536
▁transnationales	-12.4539
▁situer	-12.454
2(	-12.4545
formes	-12.4545
▁envahi	-12.4548
▁flagrant	-12.4548
▁deniers	-12.4552
▁dérives	-12.4552
▁("	-12.4552
▁Première	-12.4554
force	-12.4556
▁Lancker	-12.4556
▁mettrons	-12.4556
▁saoudite	-12.4556
▁Lambert	-12.4556
▁Romano	-12.4556
▁plateforme	-12.4557
immigrés	-12.4558
▁rendront	-12.4559
▁rouges	-12.456
rique	-12.4561
▁Paul	-12.4562
▁arrangement	-12.4564
▁pavillons	-12.4565
▁97	-12.4565
▁savions	-12.4567
▁habitués	-12.4567
▁rejetant	-12.4571
atteinte	-12.4572
▁injustice	-12.4573
▁utilement	-12.4573
▁allés	-12.4576
ative	-12.4583
amitié	-12.4584
équivalent	-12.4584
excès	-12.4584
▁consolidé	-12.4588
▁transféré	-12.4588
▁porcs	-12.4591
tions	-12.4592
▁eues	-12.4592
comme	-12.4593
▁1986	-12.4595
▁porteurs	-12.4596
▁indéfiniment	-12.4596
▁balayer	-12.4596
▁faculté	-12.4596
▁illustration	-12.4598
▁planche	-12.4601
han	-12.4602
duc	-12.4604
▁écoulées	-12.4605
▁réussirons	-12.4609
leur	-12.461
▁absente	-12.4612
ord	-12.4613
vent	-12.4618
ignorance	-12.4623
▁excellence	-12.4624
▁coin	-12.4627
▁Agenda	-12.463
acteurs	-12.4631
▁prévoie	-12.4632
▁bain	-12.4635
▁antifraude	-12.4635
▁vitales	-12.4635
▁Système	-12.4635
infection	-12.4636
▁compliquées	-12.4637
▁rivaliser	-12.464
▁paneuropéenne	-12.4641
▁oser	-12.4641
▁effectuent	-12.4641
▁observées	-12.4641
▁exigera	-12.4642
SL	-12.4642
▁concentrée	-12.4643
▁empreinte	-12.4644
▁restreinte	-12.4649
▁globalisé	-12.4652
▁simplifiées	-12.4655
▁constitutions	-12.4656
▁défaillances	-12.4658
▁aéroport	-12.4659
auparavant	-12.4663
▁islamistes	-12.4664
▁cré	-12.4665
▁pourcentages	-12.4667
uses	-12.4673
▁Sjöstedt	-12.4674
▁fragilité	-12.4674
▁Zaïre	-12.4675
▁apte	-12.4675
▁nuisible	-12.4675
▁étudiant	-12.4677
▁mortes	-12.4682
▁bond	-12.4683
▁inférieures	-12.4684
▁prendrait	-12.4684
ments	-12.4687
▁4.	-12.469
6(	-12.4692
rent	-12.4693
▁2000-2006	-12.4696
▁enquêter	-12.4697
▁auriez	-12.4702
▁Fr	-12.4704
▁gratuit	-12.4705
▁alarmant	-12.4707
▁fréquentes	-12.4708
interaction	-12.4709
▁institué	-12.4709
▁vend	-12.471
▁cri	-12.4711
▁Secundo	-12.4713
▁cogénération	-12.4713
▁redressement	-12.4714
▁convoquer	-12.4714
épuisement	-12.4714
▁localisation	-12.4715
▁Eurodac	-12.4718
▁superflue	-12.4721
▁tester	-12.4723
▁effectives	-12.4725
tar	-12.473
▁réciproques	-12.4731
▁défavorables	-12.4737
▁précédée	-12.4738
▁capitalistes	-12.4739
▁regrouper	-12.4742
▁minutieuse	-12.4751
▁péri	-12.4752
▁additionnel	-12.4753
▁Breyer	-12.4753
▁Sellafield	-12.4753
▁Fava	-12.4753
▁brutalité	-12.4754
▁conduirait	-12.4754
ssait	-12.4755
▁Dix	-12.4756
▁entoure	-12.476
▁forger	-12.4762
▁interrompre	-12.4762
▁constructifs	-12.4763
▁habitats	-12.4763
▁revendiquer	-12.4764
▁gage	-12.4765
▁réunira	-12.4766
▁Iraq	-12.4768
omb	-12.478
▁instaure	-12.478
▁promet	-12.4782
▁mensonges	-12.4783
▁rassemble	-12.4785
▁fou	-12.4786
▁pratiqué	-12.4787
ze	-12.4788
▁Dupuis	-12.4793
▁Mozambique	-12.4793
▁Tannock	-12.4793
▁disposait	-12.4793
▁persistance	-12.4793
▁métaux	-12.4793
▁Leader	-12.4793
▁Nombreux	-12.4793
acheminement	-12.4794
▁entretiens	-12.4794
▁immunité	-12.4794
▁croate	-12.4795
▁servirait	-12.4795
▁eût	-12.4795
▁merlu	-12.4795
▁inappropriée	-12.4801
▁interrogations	-12.4802
▁missiles	-12.4802
▁intéressée	-12.4803
▁dépendant	-12.4805
▁expert	-12.4812
▁calculé	-12.4815
▁immenses	-12.4817
orm	-12.482
▁suisse	-12.4821
anglais	-12.4822
▁fondant	-12.4826
▁Jan	-12.4832
▁décidés	-12.4832
▁Duff	-12.4833
▁Fraga	-12.4833
▁Giscard	-12.4833
▁Journal	-12.4833
▁détiennent	-12.4833
▁réclamant	-12.4833
▁aspirons	-12.4833
▁tenait	-12.4833
▁réunissant	-12.4833
▁disparité	-12.4835
cent	-12.4841
▁isolée	-12.4844
▁accusation	-12.4845
▁estimation	-12.4846
▁appareil	-12.4848
▁98	-12.4849
▁gouvernementaux	-12.4852
ó	-12.4857
ETA	-12.4858
▁consistera	-12.4858
hé	-12.4858
▁continentale	-12.4858
▁quantitatifs	-12.4861
deux	-12.4862
dix	-12.4862
pays	-12.4862
▁donnés	-12.4863
utilisateur	-12.4864
▁entravé	-12.4865
▁parental	-12.4866
atténuation	-12.4873
▁Piebalgs	-12.4873
▁Sacconi	-12.4873
▁directoire	-12.4873
▁rechange	-12.4873
▁dissémination	-12.4873
▁1985	-12.4873
▁malheur	-12.4875
▁consomment	-12.4875
▁sportif	-12.4876
emporter	-12.4879
▁diront	-12.488
▁excédent	-12.4884
▁impossibles	-12.4891
6-02	-12.4896
(1999)	-12.4896
▁choisis	-12.4897
Rouge	-12.4902
▁étatiques	-12.4903
produits	-12.4904
▁inverser	-12.4912
droite	-12.4913
▁BERD	-12.4913
▁Taiwan	-12.4913
▁Tomlinson	-12.4913
▁ignorant	-12.4913
▁entretiennent	-12.4915
▁obsolète	-12.4916
▁assassinés	-12.4918
▁Marco	-12.4918
ami	-12.4919
▁innovante	-12.4919
▁intelligentes	-12.492
▁guérir	-12.4921
▁unilatéral	-12.4922
▁apporteront	-12.4927
▁voyagent	-12.493
▁69	-12.4934
za	-12.4935
▁viols	-12.4937
▁prédécesseurs	-12.4938
lama	-12.4938
▁éclaircir	-12.4938
▁salariales	-12.4939
abolir	-12.4943
▁territorial	-12.4943
▁bienvenus	-12.4943
▁retardé	-12.4944
▁accéléré	-12.4947
avoue	-12.4948
américaine	-12.4949
▁citées	-12.4953
ö	-12.4954
Weggen	-12.4954
▁Manuel	-12.4954
▁Wurtz	-12.4954
▁paralysie	-12.4954
▁sillage	-12.4954
▁sincérité	-12.4954
▁intervienne	-12.4954
▁poursuivant	-12.4954
▁chaleureux	-12.4954
▁motrice	-12.4954
▁allions	-12.4954
▁huitième	-12.4954
▁pareille	-12.4955
▁cessation	-12.4955
▁Burg	-12.4955
▁PEV	-12.4956
▁tarifaire	-12.4956
▁paramilitaires	-12.4959
▁18,	-12.496
▁questeurs	-12.4961
▁engendrent	-12.4963
▁redire	-12.4964
▁municipalités	-12.4964
▁enrichi	-12.497
▁cliniques	-12.4975
▁range	-12.4976
▁antérieurs	-12.4978
▁prépondérant	-12.498
▁rationnel	-12.498
2004	-12.4982
estimé	-12.4983
▁maigres	-12.4983
interruption	-12.4983
▁forestiers	-12.4985
entraver	-12.4986
attentat	-12.4986
aval	-12.4988
▁Laos	-12.4991
▁quartiers	-12.4992
her	-12.4992
▁remplacés	-12.4993
▁trafics	-12.4993
ifier	-12.4993
▁Buzek	-12.4995
▁Cappato	-12.4995
▁Stream	-12.4995
▁foulée	-12.4995
▁Hatzidakis	-12.4995
▁dommageable	-12.4998
▁87	-12.5001
2002)	-12.5001
▁obligent	-12.5004
▁avancent	-12.5006
▁classement	-12.5012
▁secrètes	-12.5018
entraide	-12.5022
interpréter	-12.5024
[...]
