<unk>	0
<s>	0
</s>	0
<pad>	0
,	-2.7682
.	-3.33675
▁die	-3.40833
▁der	-3.49295
▁und	-3.71326
▁in	-4.30155
▁zu	-4.44229
▁den	-4.53757
▁für	-4.75416
▁von	-4.76963
▁ist	-4.78702
n	-4.87324
▁das	-4.96017
▁dass	-4.97447
▁wir	-4.99646
▁nicht	-5.00131
▁des	-5.0066
▁auf	-5.04039
▁eine	-5.09211
▁	-5.1467
▁werden	-5.15145
▁es	-5.24926
▁mit	-5.26255
▁im	-5.27265
en	-5.29861
▁ich	-5.29962
▁auch	-5.35419
-	-5.38468
▁dem	-5.42467
▁ein	-5.49712
s	-5.51107
▁sich	-5.53474
▁wird	-5.54817
▁Ich	-5.55854
▁haben	-5.61424
▁sind	-5.63186
▁Die	-5.66511
▁Europäische	-5.6766
▁hat	-5.73372
▁Kommission	-5.75614
▁um	-5.76106
▁über	-5.80785
▁-	-5.83255
▁an	-5.83486
▁wie	-5.85288
▁daß	-5.85655
▁sie	-5.87128
▁als	-5.87426
▁zur	-5.90823
▁Herr	-5.92021
▁Wir	-5.99743
▁einer	-6.0167
▁diese	-6.04579
▁Sie	-6.07223
e	-6.07787
▁Union	-6.08125
▁uns	-6.10405
▁bei	-6.10435
▁müssen	-6.14432
▁einen	-6.17989
▁dieser	-6.18829
▁möchte	-6.20377
▁Bericht	-6.28309
▁Es	-6.31008
▁noch	-6.3208
▁vor	-6.32393
▁können	-6.33183
▁Präsident	-6.34044
▁diesem	-6.35663
▁aus	-6.3716
▁Das	-6.37688
▁nur	-6.38072
▁kann	-6.38213
▁nach	-6.39838
▁Parlament	-6.40605
▁so	-6.41375
▁aber	-6.41382
▁wenn	-6.42997
▁zum	-6.43294
▁sein	-6.45201
▁EU	-6.45379
▁oder	-6.45388
:	-6.45947
▁sehr	-6.45964
▁durch	-6.46545
▁Mitgliedstaaten	-6.49081
!	-6.53937
▁einem	-6.63329
▁muss	-6.67498
▁dieses	-6.68011
▁Frau	-6.68385
▁Der	-6.68589
▁Europa	-6.68964
▁was	-6.69033
▁wurde	-6.71282
▁Rat	-6.77045
er	-6.78895
▁mehr	-6.80854
▁alle	-6.81284
?	-6.81677
▁In	-6.82072
r	-6.83296
▁ihre	-6.83656
▁Entwicklung	-6.86667
▁hier	-6.88289
▁zwischen	-6.91825
▁er	-6.92321
▁habe	-6.93182
▁man	-6.93451
▁europäischen	-6.94304
▁diesen	-6.95084
▁eines	-6.95121
▁(	-6.96626
▁gibt	-6.98834
▁keine	-6.99668
▁unsere	-6.99778
▁damit	-7.00994
▁mich	-7.0194
▁Frage	-7.02208
▁gegen	-7.03313
▁dies	-7.04342
▁jedoch	-7.06421
▁sondern	-7.07174
▁war	-7.08615
▁unter	-7.10124
▁am	-7.11414
)	-7.11681
▁Maßnahmen	-7.11684
▁anderen	-7.11796
▁Menschen	-7.11879
▁Herrn	-7.11969
▁sollte	-7.12564
▁"	-7.13104
▁heute	-7.13557
▁sollten	-7.14164
▁dann	-7.16677
▁sowie	-7.17375
▁Recht	-7.18687
▁da	-7.20023
▁bereits	-7.2011
▁Parlaments	-7.23372
▁immer	-7.23495
▁weil	-7.2479
▁Bürger	-7.27618
▁Arbeit	-7.27906
▁bin	-7.28262
▁meine	-7.29171
▁wurden	-7.29219
▁Vorschlag	-7.2983
▁darauf	-7.30177
▁unserer	-7.30928
vom	-7.30974
▁ganz	-7.32704
▁dafür	-7.33304
▁sagen	-7.33502
▁geht	-7.34919
▁jetzt	-7.36066
▁denn	-7.37727
▁denen	-7.37819
▁Wenn	-7.38037
▁dazu	-7.38059
;	-7.38441
▁Sicherheit	-7.3958
▁Kollegen	-7.40248
▁ihrer	-7.40561
es	-7.40957
▁mir	-7.42082
▁neuen	-7.44404
▁insbesondere	-7.44887
▁würde	-7.45793
▁Gemeinschaft	-7.46954
m	-7.47009
▁selbst	-7.47688
▁Länder	-7.48668
▁Kommissar	-7.48683
▁Zeit	-7.48866
▁muß	-7.49223
▁Diese	-7.49793
▁Zusammenarbeit	-7.50025
▁doch	-7.50831
▁wichtig	-7.51066
▁Ihnen	-7.51437
▁Bereich	-7.51881
▁allem	-7.52007
▁Rahmen	-7.52349
▁wollen	-7.52542
▁Unterstützung	-7.52712
▁Jahr	-7.53787
▁einige	-7.54513
▁machen	-7.54754
▁Richtlinie	-7.55173
▁%	-7.55225
▁neue	-7.55767
▁Regierung	-7.55832
▁bis	-7.56149
▁ohne	-7.56671
▁ob	-7.56879
▁andere	-7.57249
▁–	-7.57547
▁seine	-7.57757
▁allen	-7.58202
▁Land	-7.60141
▁Jahren	-7.61128
▁wissen	-7.61317
▁wäre	-7.62022
"	-7.63483
▁Problem	-7.64445
▁Dies	-7.65516
▁Im	-7.65883
▁tun	-7.66003
▁meiner	-7.66852
▁Unternehmen	-7.66868
▁Namen	-7.66966
▁schon	-7.6735
▁zwei	-7.67636
▁Wie	-7.67901
▁Ländern	-7.68842
▁einmal	-7.69002
▁Fall	-7.70416
▁Meinung	-7.70444
▁Thema	-7.70914
▁Ziel	-7.71408
▁europäische	-7.71741
▁soll	-7.71749
▁viele	-7.72921
▁Mittel	-7.73056
▁also	-7.73412
▁Bedeutung	-7.73781
▁darüber	-7.73922
▁Präsidentin	-7.74066
▁politischen	-7.7455
▁etwas	-7.74842
▁wirtschaftliche	-7.74845
▁Fraktion	-7.75102
▁Lage	-7.75705
▁Politik	-7.75814
▁worden	-7.75955
▁wieder	-7.75971
▁Fragen	-7.7642
▁nun	-7.7711
▁Rates	-7.77204
▁unterstützen	-7.77253
▁viel	-7.77426
▁besteht	-7.77581
▁geben	-7.77826
▁Wirtschaft	-7.77919
▁Zukunft	-7.78001
▁Welt	-7.78693
▁Frauen	-7.78867
▁ihren	-7.79264
t	-7.7936
▁Staaten	-7.79839
▁Probleme	-7.79884
▁Entschließung	-7.79965
▁daher	-7.80735
▁Was	-7.80829
▁wirklich	-7.8199
▁Situation	-7.82503
▁natürlich	-7.82608
ung	-7.83669
▁Rolle	-7.84743
▁Zusammenhang	-7.84749
▁gesagt	-7.85693
▁zwar	-7.87013
▁möglich	-7.87285
▁glaube	-7.88237
▁Deshalb	-7.88343
▁nämlich	-7.88604
▁letzten	-7.90637
▁Euro	-7.91193
▁Schutz	-7.9223
▁Verbraucher	-7.93265
▁große	-7.93274
▁seiner	-7.93768
Änderungsanträge	-7.94494
▁Wettbewerb	-7.94921
▁unseren	-7.94972
▁davon	-7.95998
▁Teil	-7.96057
▁Weise	-7.96322
▁betrifft	-7.96844
▁Ein	-7.97508
spolitik	-7.97761
▁könnte	-7.97856
▁ihr	-7.9807
▁Menschenrechte	-7.98616
▁Grund	-7.99548
▁daran	-8.00023
▁gegenüber	-8.00236
▁Europas	-8.0109
▁Aber	-8.01184
▁hoffe	-8.01427
▁weiter	-8.02313
▁Punkt	-8.02498
▁ja	-8.02554
▁drei	-8.02632
▁stellen	-8.03223
Berichterstatter	-8.03234
▁Weg	-8.03765
▁während	-8.04054
▁Umwelt	-8.04362
▁Jahre	-8.04471
▁darf	-8.04725
▁Und	-8.04772
▁kein	-8.04834
▁dabei	-8.05192
▁Vorschläge	-8.05408
▁politische	-8.06011
▁Lösung	-8.06538
▁nationalen	-8.06608
▁Ansicht	-8.069
▁ab	-8.06929
▁gut	-8.07495
▁waren	-8.07525
▁stehen	-8.07644
▁Entscheidung	-8.07653
▁Umsetzung	-8.0781
▁Möglichkeit	-8.08286
▁Rechte	-8.08399
▁wo	-8.08572
▁sowohl	-8.08577
▁Änderungsantrag	-8.0891
▁Art	-8.09153
▁lassen	-8.09193
▁Herren	-8.09259
▁darin	-8.09326
▁Debatte	-8.09473
▁Artikel	-8.09478
▁Ebene	-8.09743
▁führen	-8.10003
▁kommen	-8.10354
▁seit	-8.10365
▁Beispiel	-8.10475
▁besonders	-8.10546
▁brauchen	-8.1061
▁bringen	-8.10942
▁Beschäftigung	-8.11078
▁Damen	-8.11247
▁Aus	-8.11672
▁Abgeordneten	-8.11801
▁internationalen	-8.11818
▁Demokratie	-8.11912
▁ihnen	-8.11921
▁Kolleginnen	-8.12096
▁Bezug	-8.12232
▁steht	-8.12422
▁Abstimmung	-8.13874
▁klar	-8.13971
▁Auch	-8.14119
▁gemeinsamen	-8.14917
▁Verantwortung	-8.14999
▁liegt	-8.15177
▁dürfen	-8.1524
▁Haushalt	-8.15719
▁großen	-8.16519
▁erhalten	-8.16582
▁danken	-8.16612
▁Aussprache	-8.16741
▁Eine	-8.1679
▁Hinblick	-8.17752
▁Millionen	-8.179
▁aller	-8.18452
▁sozialen	-8.18482
▁weiterhin	-8.19
▁Verordnung	-8.192
▁welche	-8.19639
▁deshalb	-8.20329
▁Er	-8.20476
▁Hilfe	-8.20708
▁Verfahren	-8.20748
▁innerhalb	-8.20914
▁denke	-8.20951
▁Ziele	-8.2167
▁Ausschusses	-8.22066
▁Verhandlungen	-8.22343
▁Daher	-8.22493
▁erreichen	-8.22863
▁Ausschuss	-8.229
▁Mit	-8.22924
▁deutlich	-8.23052
▁Forschung	-8.23355
▁Abkommen	-8.23769
▁Auf	-8.23832
den	-8.23908
▁handelt	-8.23932
▁sollen	-8.23947
▁Vertrag	-8.24113
▁ersten	-8.24193
▁gerade	-8.24219
▁wichtige	-8.2457
▁Ihre	-8.24782
▁einigen	-8.2489
▁Grundlage	-8.25069
▁Ende	-8.25127
▁notwendig	-8.25802
▁solche	-8.26647
▁finden	-8.27037
▁Energie	-8.2728
▁alles	-8.27621
▁schaffen	-8.27623
▁gemeinsame	-8.27649
▁Strategie	-8.2786
▁Gesundheit	-8.27966
▁werde	-8.27994
▁Vereinigte	-8.28159
▁Regionen	-8.28521
▁weitere	-8.2875
▁Tatsache	-8.28753
▁sprechen	-8.29227
▁gemacht	-8.29495
▁Institutionen	-8.29557
▁gestimmt	-8.29729
▁Erweiterung	-8.29827
▁beiden	-8.29855
▁beim	-8.30021
▁gilt	-8.30217
▁will	-8.30342
▁Auswirkungen	-8.30597
▁Nach	-8.31494
▁Bevölkerung	-8.32042
▁Ausdruck	-8.32146
▁würden	-8.32867
▁indem	-8.33027
▁unterstützt	-8.33644
▁Da	-8.33653
▁Lissabon	-8.34122
▁stellt	-8.34153
▁kommt	-8.34573
▁Anwendung	-8.35096
▁Informationen	-8.35198
▁ebenfalls	-8.35571
▁darum	-8.35676
▁unser	-8.35729
▁hinaus	-8.35752
▁Förderung	-8.36008
▁Interesse	-8.36451
▁Markt	-8.36514
▁weniger	-8.36882
▁beispielsweise	-8.3712
▁Türkei	-8.38182
▁eigenen	-8.38339
▁B	-8.38608
▁dessen	-8.38724
▁hatte	-8.3893
▁Behörden	-8.39325
▁Beziehungen	-8.39398
▁verschiedenen	-8.39415
▁vielen	-8.39485
▁vielleicht	-8.39634
▁keinen	-8.39704
▁sehen	-8.39743
▁Meine	-8.39821
▁genau	-8.40067
▁bedeutet	-8.40095
▁Bei	-8.40686
▁besser	-8.41423
▁Erachtens	-8.41637
▁Schaffung	-8.41838
▁Gebiet	-8.41853
▁Als	-8.42315
▁Kosten	-8.42321
▁nehmen	-8.42541
▁einfach	-8.42726
▁Zugang	-8.43013
▁Region	-8.4303
de	-8.43036
▁erforderlich	-8.43183
▁sei	-8.43485
▁Antwort	-8.4397
Fraktion	-8.44267
▁seinen	-8.44269
▁Notwendigkeit	-8.44271
▁Kommissarin	-8.44358
▁nichts	-8.44476
▁öffentlichen	-8.44566
▁hätte	-8.45058
▁sogar	-8.45113
▁Interessen	-8.45499
▁aufgrund	-8.46192
▁dort	-8.46239
▁Bedingungen	-8.47206
▁all	-8.47468
▁Bekämpfung	-8.47932
▁sicher	-8.48149
▁Fischerei	-8.48508
/	-8.48611
▁So	-8.48661
▁Landwirtschaft	-8.48744
▁Schritt	-8.48911
▁System	-8.48947
▁angenommen	-8.49082
▁Verbesserung	-8.49269
▁könnten	-8.49531
▁Aufgabe	-8.49595
▁Leben	-8.49825
▁Beitrag	-8.49829
▁nächsten	-8.50132
▁Dieser	-8.50428
▁weiß	-8.50942
▁Finanzierung	-8.51106
▁Programm	-8.51326
▁gehen	-8.51789
▁soziale	-8.51826
▁Änderung	-8.52118
▁Reihe	-8.52187
▁erreicht	-8.52412
▁hinsichtlich	-8.5246
▁meinen	-8.52505
▁gute	-8.52629
▁heißt	-8.52964
▁Krise	-8.53129
▁Mehrheit	-8.5318
▁ihrem	-8.53295
▁Verfassung	-8.53312
▁Fortschritte	-8.53542
▁Gesellschaft	-8.53601
▁Haus	-8.5379
▁meines	-8.5381
▁Standpunkt	-8.54106
▁Vor	-8.54932
▁allerdings	-8.5517
▁Handel	-8.55569
▁Kinder	-8.5567
▁schriftlich	-8.56043
▁Form	-8.56261
▁wichtigen	-8.56533
▁USA	-8.56558
▁Präsidentschaft	-8.56832
svorschriften	-8.57028
▁Herausforderung	-8.57055
▁ihm	-8.57376
▁gehört	-8.5756
▁Kontrolle	-8.57692
▁begrüße	-8.57736
▁Industrie	-8.58093
▁Richtung	-8.58585
▁Für	-8.58644
▁halte	-8.58737
▁äußerst	-8.58991
▁Arbeitnehmer	-8.59219
▁Gelegenheit	-8.59327
▁ihn	-8.59344
▁fördern	-8.5954
▁Ergebnis	-8.5996
▁unterschiedlich	-8.60064
▁Dienstleistung	-8.60312
d	-8.6046
▁Auffassung	-8.60813
▁Bereichen	-8.60865
▁Jahres	-8.60907
▁halten	-8.60963
▁erste	-8.60991
▁dar	-8.61036
▁gegeben	-8.61193
▁gemeinsam	-8.61445
▁deren	-8.62078
▁jeder	-8.62429
▁Initiative	-8.62544
▁Berichts	-8.62555
▁einzelnen	-8.62675
▁Diskussion	-8.63056
▁meinem	-8.63373
▁weit	-8.63571
▁Wort	-8.63715
▁Mitglieder	-8.63868
▁erst	-8.63869
▁völlig	-8.64056
▁Reform	-8.64261
▁Tagesordnung	-8.64273
▁europäischer	-8.64373
▁Bürgerinnen	-8.6469
▁Dank	-8.6489
▁Transparenz	-8.65371
▁bereit	-8.65547
▁bleiben	-8.6557
▁Dialog	-8.65796
▁gestellt	-8.65859
▁„	-8.65913
▁tatsächlich	-8.66056
▁Solidarität	-8.66112
▁richtig	-8.66235
▁Erklärung	-8.66495
erstatterin	-8.6674
▁Einführung	-8.66784
▁Regierungen	-8.66847
▁gewährleisten	-8.6709
▁ebenso	-8.67404
▁gesamten	-8.67516
▁Geld	-8.6817
▁Beitritt	-8.68299
▁derzeit	-8.68657
▁Verfügung	-8.68864
▁gleichzeitig	-8.69125
▁Möglichkeiten	-8.69418
▁Vorschriften	-8.69438
sfähigkeit	-8.6964
▁Gewalt	-8.69764
▁Integration	-8.70297
▁Folgen	-8.7044
lichen	-8.70677
▁Seite	-8.70795
▁Binnenmarkt	-8.7169
▁gebracht	-8.72014
▁zusammen	-8.72028
▁verbessern	-8.72194
▁Erfolg	-8.72564
▁geführt	-8.73061
▁Entscheidungen	-8.731
▁Kampf	-8.73136
▁Verwaltung	-8.73164
▁Bildung	-8.73381
▁Bürgern	-8.73418
▁Text	-8.7365
▁Zu	-8.7381
▁nutzen	-8.73845
▁zunächst	-8.74056
▁wenig	-8.74065
▁bestehen	-8.74089
▁wohl	-8.74693
▁angesichts	-8.74799
▁Zweitens	-8.75204
▁unserem	-8.75321
▁Um	-8.75417
▁Außerdem	-8.75711
▁Personen	-8.7574
▁setzen	-8.75949
▁hatten	-8.75952
▁Angelegenheit	-8.76078
▁Hinsicht	-8.76147
▁Man	-8.76555
A	-8.76854
▁hin	-8.77144
▁jeden	-8.77216
▁fordern	-8.7724
verständlich	-8.7736
▁etwa	-8.77673
▁Ergebnisse	-8.77757
▁Terrorismus	-8.77892
▁wobei	-8.78272
▁Punkte	-8.78287
▁Ausschuß	-8.7842
▁stimmen	-8.78585
▁Nationen	-8.78645
bzw	-8.78656
▁macht	-8.78738
▁Themen	-8.7903
▁Freiheit	-8.79269
▁Hier	-8.79308
▁beitragen	-8.79325
▁Gefahr	-8.79484
▁seinem	-8.796
▁Bestimmungen	-8.797
sverfahren	-8.79807
▁Bemühungen	-8.79821
▁sagte	-8.79937
▁Qualität	-8.80233
'	-8.80668
▁Russland	-8.81353
▁arbeiten	-8.81363
▁Dinge	-8.81636
▁getan	-8.81656
▁Zeitpunkt	-8.81676
▁Frieden	-8.81902
▁großer	-8.82084
▁Angelegenheiten	-8.82311
▁leisten	-8.82483
▁Daten	-8.82764
▁internationale	-8.82793
▁Lebensmittel	-8.82876
▁d	-8.82988
▁bitte	-8.83243
▁bisher	-8.83313
▁vorgeschlagen	-8.83635
▁solchen	-8.83785
▁ermöglichen	-8.84042
▁vergangenen	-8.84153
▁lediglich	-8.84182
▁obwohl	-8.8462
▁sorgen	-8.84665
▁vorgelegt	-8.84777
▁Aufmerksamkeit	-8.84786
▁berücksichtigt	-8.84904
▁leider	-8.85028
▁voll	-8.85103
▁Doch	-8.85548
▁Dieses	-8.85795
▁unseres	-8.85802
▁Erstens	-8.85812
▁Information	-8.86055
“	-8.86178
▁Tat	-8.86196
▁eigentlich	-8.86413
▁Ansatz	-8.8648
▁meisten	-8.86504
▁fest	-8.86648
▁Arbeitsplätze	-8.86883
▁Wirtschafts	-8.87151
▁bleibt	-8.87468
▁erster	-8.87535
▁Investitionen	-8.87806
▁bezüglich	-8.87857
▁Wachstum	-8.88024
▁oft	-8.88242
▁China	-8.88334
▁Sache	-8.88585
▁zeigt	-8.88658
▁lange	-8.88662
▁Aspekte	-8.88717
▁Gründen	-8.88808
▁bestimmte	-8.89062
▁wichtiger	-8.89074
▁Annahme	-8.89114
▁hinweisen	-8.8914
▁000	-8.89155
▁zweite	-8.89317
▁helfen	-8.89391
▁genommen	-8.89705
▁Kultur	-8.89812
▁Landes	-8.90012
▁Zahl	-8.90093
▁Anstrengungen	-8.90171
▁begrüßen	-8.90318
in	-8.9041
▁Mal	-8.91043
▁Präsidenten	-8.91364
▁tragen	-8.91462
▁schnell	-8.91511
▁Finanz	-8.91582
▁hätten	-8.92207
▁weiteren	-8.92358
▁Verpflichtungen	-8.92562
sten	-8.92738
▁Öffentlichkeit	-8.92908
▁Grenzen	-8.93053
▁1	-8.93206
▁Darüber	-8.93382
▁führt	-8.93717
▁darstellt	-8.93833
▁Damit	-8.93976
▁Armut	-8.93989
▁2	-8.94004
sicherheit	-8.94014
▁Mitteilung	-8.94028
▁Abschließend	-8.94072
▁ergreifen	-8.94117
▁Zum	-8.94721
▁enthalten	-8.94855
▁dringend	-8.94941
▁eindeutig	-8.94994
▁danke	-8.95034
▁erinnern	-8.95051
▁Schwierigkeiten	-8.9516
▁Regeln	-8.9518
▁bekannt	-8.95433
▁Woche	-8.95533
▁berücksichtigen	-8.95657
▁Nr	-8.95733
▁Opfer	-8.95851
▁Änderungen	-8.95884
▁wegen	-8.95915
▁Chance	-8.96109
▁versuchen	-8.96285
politik	-8.96384
▁schließlich	-8.96459
▁Durchführung	-8.96493
ungen	-8.96827
▁Abgeordnete	-8.96893
▁morgen	-8.96945
▁stimme	-8.97012
▁Mitgliedstaat	-8.97117
▁Minister	-8.97226
▁demokratischen	-8.97366
▁Lassen	-8.97587
▁A	-8.97614
▁zeigen	-8.98077
▁20	-8.9852
▁behandelt	-8.98533
▁kurz	-8.98632
▁mein	-8.98708
▁Tag	-8.98786
▁verhindern	-8.98978
▁Kompromiss	-8.99002
▁Prozess	-8.99106
▁vier	-8.99271
▁erneut	-8.99376
▁Instrument	-8.99567
▁Vertrags	-8.99671
▁Sinne	-8.99689
▁2000	-8.99693
▁Vertrauen	-8.99772
▁Anerkennung	-9.00112
h	-9.00139
▁Position	-9.00428
▁Gesetzgebung	-9.00813
▁aufgenommen	-9.00913
▁fünf	-9.01096
▁betonen	-9.012
▁Kraft	-9.01227
▁Mitglied	-9.01258
▁Zunächst	-9.01258
▁öffentliche	-9.01281
▁vertreten	-9.0129
▁geschaffen	-9.0134
▁gar	-9.01403
▁gesamte	-9.01486
▁scheint	-9.01578
▁Staat	-9.01672
▁Stellungnahme	-9.01735
▁Vertreter	-9.01742
▁Druck	-9.01866
▁Kriterien	-9.01896
▁Sicht	-9.01925
▁vergessen	-9.02164
▁endlich	-9.02342
▁Parteien	-9.02356
▁leben	-9.02421
▁bessere	-9.02544
▁Republik	-9.02547
B	-9.02576
▁Stabilität	-9.02722
▁gab	-9.02735
▁Haltung	-9.02806
▁diejenigen	-9.0297
▁C	-9.02973
▁spielen	-9.03014
▁Ver	-9.03064
▁liegen	-9.0324
▁ver	-9.03385
▁Unsere	-9.03616
▁Lesung	-9.03919
▁zumindest	-9.03961
▁5	-9.03973
▁kleinen	-9.03988
▁weder	-9.03997
▁gleichen	-9.04085
▁Wahlen	-9.04131
▁Monaten	-9.04146
▁dadurch	-9.0419
▁Einigung	-9.04562
a	-9.04571
▁wichtigsten	-9.04654
▁Forderung	-9.047
▁allein	-9.0507
▁Konferenz	-9.05436
▁gefordert	-9.05449
▁Gemeinsamen	-9.05486
▁Regelung	-9.0561
▁Vereinbarung	-9.05647
▁ziehen	-9.05663
▁Sektor	-9.05805
▁freue	-9.05875
▁überhaupt	-9.05897
▁einschließlich	-9.05929
▁umgesetzt	-9.05955
▁Währung	-9.06092
▁Nicht	-9.06274
▁bekommen	-9.0635
▁anderer	-9.06404
▁recht	-9.06476
▁möchten	-9.06545
▁Stelle	-9.06839
▁Dezember	-9.06926
▁gemäß	-9.07159
▁sicherzustellen	-9.07393
▁gesprochen	-9.0744
▁Programme	-9.07608
▁erwähnt	-9.07843
▁guten	-9.08024
▁erzielt	-9.08077
▁entwickeln	-9.08405
▁Prioritäten	-9.0854
▁konkrete	-9.08766
▁Vereinte	-9.08782
▁An	-9.0886
▁überzeugt	-9.08936
▁'	-9.08948
▁finanziellen	-9.0898
▁Anfrage	-9.09005
▁einzige	-9.09083
santrag	-9.09158
▁enthält	-9.09248
▁eben	-9.09411
▁festgelegt	-9.09485
▁Verwendung	-9.09524
▁bestimmten	-9.0956
▁Produktion	-9.0959
em	-9.09594
▁unterstütze	-9.09666
▁schützen	-9.09729
▁3	-9.10116
▁Ressourcen	-9.10239
▁außerdem	-9.10256
▁Werte	-9.1026
▁Reformen	-9.10265
schutz	-9.10313
▁gewesen	-9.1034
▁Natürlich	-9.10505
▁treffen	-9.10531
▁akzeptieren	-9.10569
▁Ihrer	-9.1087
▁ermöglicht	-9.11164
▁erwarten	-9.11306
▁10	-9.11313
▁Zustimmung	-9.11358
▁fast	-9.11442
▁Initiativen	-9.11608
▁bitten	-9.11627
▁konnte	-9.11659
▁Seiten	-9.11733
▁größere	-9.11758
▁15	-9.11939
Geschäftsordnung	-9.12087
▁versucht	-9.1221
▁folgt	-9.12429
liche	-9.12645
▁Meiner	-9.12824
▁getroffen	-9.12895
▁angesprochen	-9.12944
▁unbedingt	-9.13226
▁geleistet	-9.13263
▁bewusst	-9.13346
▁beschlossen	-9.13427
gesellschaft	-9.13482
▁Fällen	-9.13483
▁Koordinierung	-9.13758
▁Verkehr	-9.13802
▁zweiten	-9.13956
▁stärker	-9.14019
▁Achtung	-9.14125
▁eingehen	-9.14172
▁Frankreich	-9.14175
▁Überwachung	-9.14191
▁prüfen	-9.14444
▁jedem	-9.14445
▁Verteidigung	-9.14486
▁vorgesehen	-9.14693
▁z	-9.14701
▁Sitzung	-9.1471
▁geworden	-9.14796
▁Dabei	-9.14862
▁genannten	-9.14884
▁Antrag	-9.15337
▁neuer	-9.1567
▁Diskriminierung	-9.15708
▁sieht	-9.15714
▁Schließlich	-9.15821
▁insgesamt	-9.16014
▁Grundsatz	-9.16021
▁Nutzung	-9.16214
▁Selbst	-9.16222
▁Rede	-9.16255
▁Allerdings	-9.16437
▁Macht	-9.16491
▁hingewiesen	-9.16543
▁WTO	-9.16643
▁warum	-9.17008
▁stark	-9.17045
▁verstehen	-9.1705
▁richtige	-9.17276
▁Stärkung	-9.17309
▁diskutieren	-9.1751
▁Bereiche	-9.17593
▁Rechts	-9.17669
▁Kenntnis	-9.1769
▁statt	-9.17705
▁gelten	-9.17723
▁nationale	-9.1781
▁hoffen	-9.18156
▁bestehenden	-9.18345
▁sicherlich	-9.18416
▁Einsatz	-9.18453
▁durchgeführt	-9.18473
▁heutigen	-9.18542
▁klare	-9.18557
▁Instrumente	-9.18575
▁Liberalisierung	-9.18675
▁erfüllen	-9.18706
▁Haushalts	-9.18777
▁Linie	-9.1888
▁h	-9.18933
▁Ratspräsident	-9.18942
▁jedes	-9.18976
▁Partei	-9.1905
▁gleich	-9.19185
▁Partnerschaft	-9.19411
▁Sorge	-9.19511
▁Beihilfen	-9.1953
▁Aspekt	-9.19986
▁allgemeinen	-9.20039
▁Verpflichtung	-9.20058
▁zurück	-9.2007
▁Behandlung	-9.20362
▁Anfang	-9.20364
▁somit	-9.20426
▁Berichte	-9.20478
▁Ausgaben	-9.20538
▁finanzielle	-9.20726
▁Kosovo	-9.20824
▁Durch	-9.20839
▁Organisationen	-9.21124
▁Hand	-9.21133
▁Juni	-9.21286
▁verpflichtet	-9.21437
▁G	-9.21587
▁Geschichte	-9.21751
der	-9.21809
▁Lösungen	-9.21915
▁Zweifel	-9.22028
▁konnten	-9.22108
▁feststellen	-9.22145
▁besondere	-9.22163
▁Brüssel	-9.22168
ge	-9.22431
st	-9.22548
▁Gipfel	-9.22665
▁Praxis	-9.22762
▁entscheiden	-9.22814
▁lösen	-9.23161
▁erzielen	-9.2331
▁jede	-9.2337
▁trotz	-9.2346
▁gezeigt	-9.2348
▁Fortschritt	-9.23646
▁Fraktionen	-9.237
▁gegenwärtig	-9.23713
▁Produkte	-9.23907
▁erklärt	-9.23923
▁Aufgaben	-9.23932
▁ändern	-9.23936
▁gehören	-9.23938
▁Vergangenheit	-9.24088
▁stärken	-9.24451
▁vorliegenden	-9.2459
▁Projekt	-9.24595
▁entsprechenden	-9.24842
ten	-9.24945
▁ganze	-9.25032
▁bietet	-9.25239
▁befinden	-9.25543
▁wesentlich	-9.25546
▁Folge	-9.25779
▁eingesetzt	-9.25855
▁Fonds	-9.26
▁Projekte	-9.26103
▁Aufnahme	-9.26137
te	-9.26196
▁notwendigen	-9.26315
▁entschieden	-9.26348
▁Volk	-9.26529
▁Beginn	-9.26559
▁handeln	-9.2658
▁zehn	-9.26645
▁Priorität	-9.26741
▁positive	-9.26868
▁Einhaltung	-9.26883
▁vorgeschlagenen	-9.26886
▁Grundrechte	-9.27322
▁Handels	-9.27392
▁Einwanderung	-9.27396
▁Heute	-9.27403
▁eher	-9.27597
▁Denn	-9.27753
▁liebe	-9.27837
Arbeitslosigkeit	-9.27907
▁darstellen	-9.27922
▁Deutschland	-9.28026
▁un	-9.28158
▁be	-9.28221
▁Bewertung	-9.28557
▁Strukturfonds	-9.28641
▁gesehen	-9.28854
▁offensichtlich	-9.28952
▁schwer	-9.29042
▁bieten	-9.29136
▁übernehmen	-9.29224
▁Beteiligung	-9.29318
▁Wahl	-9.29502
▁Aktivitäten	-9.29603
▁Gebieten	-9.29673
industrie	-9.29737
▁kommenden	-9.29868
▁Irland	-9.2997
▁Tätigkeit	-9.30023
▁Nun	-9.3004
▁ihres	-9.30164
▁Irak	-9.30459
▁Wochen	-9.30536
▁Entwurf	-9.30668
▁Abschluss	-9.30724
▁verfügen	-9.30743
▁letzte	-9.3082
▁geschehen	-9.30888
▁Schritte	-9.30941
▁stets	-9.31118
▁Kollege	-9.31197
▁Regelungen	-9.31198
▁Einrichtung	-9.31248
▁gerne	-9.31257
▁durchaus	-9.31283
▁findet	-9.31295
▁Medien	-9.3134
▁aufmerksam	-9.31404
▁Stimme	-9.31684
▁Milliarden	-9.31747
▁Januar	-9.31774
▁S	-9.31983
▁Worte	-9.31989
▁Von	-9.32043
▁Dennoch	-9.32063
▁positiv	-9.32096
▁Minderheiten	-9.32106
▁konzentrieren	-9.32278
k	-9.3235
▁Absatz	-9.32352
▁verbessert	-9.32521
▁Familien	-9.32881
▁fragen	-9.33005
▁hoch	-9.33012
▁gekommen	-9.33029
▁genug	-9.33038
▁Unter	-9.3304
▁dagegen	-9.33044
▁Un	-9.33159
▁besten	-9.33339
▁Falle	-9.33423
ste	-9.33427
▁25	-9.33428
▁Verbindung	-9.33462
▁Ausbildung	-9.33467
▁unternehmen	-9.33509
▁häufig	-9.33594
▁sechs	-9.33655
▁Angesicht	-9.33666
▁Globalisierung	-9.33855
▁grenzüberschrei	-9.33902
▁Ort	-9.34052
▁offen	-9.34091
▁Engagement	-9.34139
▁Dazu	-9.3419
▁gesetzt	-9.34224
▁hinter	-9.34353
smaßnahmen	-9.34535
▁Mai	-9.34609
▁gefunden	-9.34646
▁glauben	-9.34926
▁verantwortlich	-9.35011
▁gegenwärtigen	-9.35023
▁entsprechend	-9.35106
▁Forderungen	-9.35211
▁erfüllt	-9.35258
▁50	-9.35263
▁bringt	-9.35385
▁pro	-9.35448
▁Augen	-9.36018
▁Innovation	-9.36081
▁außerhalb	-9.36109
▁gleiche	-9.36122
▁Maße	-9.36379
▁zustimmen	-9.36439
▁größte	-9.36452
▁Europäer	-9.36454
▁Raum	-9.36502
skonferenz	-9.36566
be	-9.36968
▁Informations	-9.36993
▁verfolgen	-9.37015
▁nie	-9.37705
o	-9.3772
▁März	-9.37735
▁Leitlinien	-9.37787
▁beginnen	-9.37927
▁bevor	-9.37932
▁verfolgt	-9.38062
▁gewisse	-9.38101
erweise	-9.38341
▁wären	-9.38389
▁Internet	-9.38395
▁übrigen	-9.38505
▁Gleichzeitig	-9.38524
▁Leider	-9.38623
▁ergriffen	-9.38659
▁Empfehlungen	-9.38801
▁Ratsvorsitz	-9.38927
▁verschiedene	-9.39289
▁vermeiden	-9.39365
▁Sozial	-9.39405
▁zahlreiche	-9.39499
▁Steuer	-9.395
▁Völker	-9.39538
▁Landwirte	-9.39568
▁2004	-9.39763
4	-9.39839
▁demokratische	-9.39852
▁gerecht	-9.39884
▁direkt	-9.39886
▁Agrarpolitik	-9.39935
▁4	-9.40102
▁Grunde	-9.403
▁betont	-9.40377
▁Sprache	-9.40502
▁betroffenen	-9.40587
▁Agenda	-9.40651
▁entsprechende	-9.40652
▁Harmonisierung	-9.40712
▁gemeinschaft	-9.40715
▁weltweit	-9.40716
▁anderem	-9.40795
▁freien	-9.40797
lich	-9.40811
▁Justiz	-9.40869
▁Preis	-9.40882
▁gewährleistet	-9.40932
▁lässt	-9.40967
▁Überprüfung	-9.41001
▁befassen	-9.41054
▁gern	-9.41075
▁ganzen	-9.41218
sabkommen	-9.4126
▁hohen	-9.41288
▁30	-9.41509
▁festgestellt	-9.41631
5	-9.41664
▁Grundsätze	-9.41678
▁sage	-9.41716
▁möglicherweise	-9.41742
▁1.	-9.42002
▁schwierig	-9.42053
▁Israel	-9.42123
▁Richtlinien	-9.42211
▁Ihr	-9.42675
▁Kooperation	-9.42714
▁erforderlichen	-9.42738
▁Worten	-9.42788
▁einsetzen	-9.42802
▁angeht	-9.42817
▁nachhaltige	-9.42942
▁politischer	-9.42954
▁nationaler	-9.42999
▁Königreich	-9.43006
▁UN	-9.43043
▁Wasser	-9.43058
▁braucht	-9.43076
▁wesentlichen	-9.43125
▁entwickelt	-9.43208
▁unternommen	-9.43261
▁Zeitraum	-9.43295
▁eigene	-9.43368
▁de	-9.43396
▁Krieg	-9.43475
▁jene	-9.43613
▁diskutiert	-9.43752
▁Untersuchung	-9.43781
▁September	-9.43794
b	-9.43939
▁Be	-9.43955
▁ausdrücklich	-9.43971
▁entspricht	-9.44143
▁betroffen	-9.44224
▁bald	-9.44248
▁derzeitigen	-9.44421
▁außerordentlich	-9.44423
▁neu	-9.44527
▁Griechenland	-9.44548
▁Partner	-9.44663
re	-9.44668
▁2006	-9.4486
▁einiger	-9.45016
▁Rechnung	-9.45045
▁Italien	-9.45123
▁Gründe	-9.45151
▁2007	-9.45206
▁größten	-9.45374
▁Natur	-9.45484
▁absolut	-9.45633
▁Willen	-9.45701
▁Mitteln	-9.45723
▁Fehler	-9.45784
▁ländlichen	-9.45844
▁fordere	-9.45882
▁Bedenken	-9.45919
▁wünschen	-9.46046
▁Gesetze	-9.46088
▁Empfehlung	-9.46164
▁Drittländern	-9.46172
▁sicherstellen	-9.46198
▁kleine	-9.46208
▁Wert	-9.46216
▁Sanktionen	-9.4622
▁Nur	-9.46336
▁Am	-9.46358
▁Maßnahme	-9.46409
▁2010	-9.46457
▁Organisation	-9.46473
▁Höhe	-9.46502
y	-9.46538
▁Erfahrungen	-9.46622
▁außer	-9.4669
▁E	-9.46711
▁Gebiete	-9.46723
▁verbunden	-9.4678
▁2009	-9.46849
▁beglückwünschen	-9.46851
▁nochmals	-9.46882
▁Vielfalt	-9.4705
organisationen	-9.47102
▁mehrere	-9.47233
▁ins	-9.47245
▁Prinzip	-9.47275
▁Menschenrecht	-9.473
▁finde	-9.47357
▁Osten	-9.47485
▁Botschaft	-9.47488
▁Dokument	-9.47515
▁beteiligt	-9.47532
▁erhöhen	-9.4758
▁betrachtet	-9.47679
spräsidentschaft	-9.47758
▁wollte	-9.47836
▁gratulieren	-9.47865
▁dienen	-9.47881
▁1999	-9.48003
▁Über	-9.48035
▁möglichst	-9.48248
▁institutionelle	-9.48258
▁2005	-9.48353
▁Anpassung	-9.48386
▁beide	-9.48401
▁Wunsch	-9.48454
▁regionalen	-9.48573
▁erklären	-9.48778
▁Dimension	-9.48802
▁Flexibilität	-9.49042
▁Erhöhung	-9.49184
▁Gegenteil	-9.49258
▁gestern	-9.49307
▁Ja	-9.49404
▁Iran	-9.49405
▁fordert	-9.49635
▁Hauses	-9.49726
▁eingeführt	-9.49932
▁nennen	-9.49965
▁verwendet	-9.49987
▁Plenum	-9.50182
▁Agentur	-9.50471
▁Wege	-9.50566
▁Gesundheits	-9.5057
▁hervorheben	-9.50646
▁Liste	-9.50682
▁andererseits	-9.50891
▁Veränderungen	-9.50954
▁konkreten	-9.50957
▁künftig	-9.50968
▁Delegation	-9.51026
▁jüngsten	-9.51035
▁Aktionen	-9.51064
▁Idee	-9.51508
▁Alle	-9.51594
▁Absicht	-9.51682
zu	-9.51719
▁November	-9.51816
▁Nutzen	-9.51857
▁Rechtsgrundlage	-9.51859
▁Überzeugung	-9.51885
ver	-9.51906
▁Pflicht	-9.51959
▁erfolgreich	-9.52033
▁Problemen	-9.52082
▁Ab	-9.52159
▁Verbrechen	-9.52214
▁zusätzliche	-9.52227
▁abgelehnt	-9.52245
▁Übereinkommen	-9.52357
▁später	-9.52434
▁erkennen	-9.52439
▁Hoffnung	-9.52492
▁Zuständigkeit	-9.52492
▁Einige	-9.52502
▁Festlegung	-9.52649
▁Unabhängigkeit	-9.52829
unternehmen	-9.52875
▁einverstanden	-9.52879
▁sagt	-9.52934
▁stattfinden	-9.53023
▁Entlastung	-9.53235
▁britischen	-9.5334
▁Basis	-9.53516
▁Ukraine	-9.53601
▁Konzept	-9.53705
▁globalen	-9.53743
▁zudem	-9.53841
▁betreffen	-9.53996
▁persönlich	-9.54001
▁Klimawandel	-9.54048
▁T	-9.54062
▁KMU	-9.54475
▁verehrte	-9.54481
▁2008	-9.54537
▁Jetzt	-9.54623
▁Arbeitsmarkt	-9.547
▁geändert	-9.54731
▁Drittens	-9.54743
▁Vorbereitung	-9.54783
▁positiven	-9.54785
▁geschieht	-9.5483
▁Spanien	-9.54833
▁Ist	-9.54893
▁Tagung	-9.54923
sbereich	-9.54928
▁Inhalt	-9.54962
▁Eindruck	-9.54966
▁erfolgen	-9.55017
▁Ferner	-9.55277
▁Realität	-9.55282
▁seitens	-9.55344
▁Anforderungen	-9.55419
sländern	-9.55482
▁Vorschlägen	-9.55644
▁genutzt	-9.55679
▁nimmt	-9.55682
▁je	-9.55718
▁Protokoll	-9.55912
▁technischen	-9.55939
6	-9.56002
▁Oktober	-9.56004
▁Subsidiarität	-9.56059
▁ausreichend	-9.56091
▁vollständig	-9.56145
▁Anliegen	-9.56215
▁ernst	-9.56229
▁Vorteile	-9.56234
▁bezug	-9.56388
▁Anzahl	-9.56464
▁hohe	-9.56589
▁Erklärungen	-9.56622
▁kaum	-9.56715
▁Seit	-9.56809
▁gefördert	-9.57165
▁zweifellos	-9.57298
Berücksichtigung	-9.57537
▁Diskussionen	-9.57539
▁Afrika	-9.57581
▁künftigen	-9.57684
an	-9.57706
▁2003	-9.57712
▁Sinn	-9.58042
▁gelungen	-9.58045
▁Prüfung	-9.58261
▁Anspruch	-9.58341
▁benötigen	-9.58378
▁allgemeine	-9.5863
sausschusses	-9.58658
▁Vorschlags	-9.5881
▁2002	-9.58812
▁verabschiedet	-9.58853
▁ge	-9.58879
▁wahrscheinlich	-9.58947
▁Verträge	-9.58984
▁Hintergrund	-9.59014
▁Uhr	-9.59176
▁Einklang	-9.59204
▁Hause	-9.59207
▁solcher	-9.59269
▁Fälle	-9.59414
▁wichtiges	-9.59661
▁Gruppe	-9.59665
▁zufrieden	-9.59695
▁EUR	-9.59734
▁vorlegen	-9.59782
f	-9.59785
▁dennoch	-9.59887
▁Gleichstellung	-9.59964
▁besseren	-9.60144
▁anderes	-9.60157
▁Risiko	-9.60195
▁sehe	-9.603
▁anerkannt	-9.60341
▁Verbot	-9.60393
▁folgen	-9.6041
sländer	-9.60591
▁bekämpfen	-9.60594
▁Mio	-9.60734
▁Tagen	-9.60742
▁Monate	-9.60745
▁weshalb	-9.60814
▁Kritik	-9.61007
▁vollkommen	-9.61038
▁Dann	-9.61056
▁schwierigen	-9.61074
▁aktiv	-9.61077
▁Arbeitsplätzen	-9.61083
▁Zweck	-9.61224
▁Gruppen	-9.61281
▁Entwicklungen	-9.61285
et	-9.61306
▁Zivil	-9.61317
▁bestätigt	-9.61317
▁Schluss	-9.61375
▁Programms	-9.61391
▁Reaktion	-9.61489
▁landwirtschaft	-9.61527
▁Ausführungen	-9.61591
▁Einbeziehung	-9.61644
▁Voraussetzungen	-9.61701
▁Bemerkungen	-9.61832
▁vielmehr	-9.61924
▁Struktur	-9.61971
▁weiterer	-9.621
▁Ereignisse	-9.62197
▁Obwohl	-9.62228
H	-9.62288
▁Politiken	-9.62342
▁umfassende	-9.62442
▁Kindern	-9.62465
▁reagieren	-9.62592
▁Konflikt	-9.62722
▁anders	-9.62823
▁betrachten	-9.62851
▁trägt	-9.62867
▁F	-9.62909
▁Umfang	-9.62935
▁Haupt	-9.62978
▁Freiheiten	-9.62985
▁denken	-9.63148
▁hören	-9.63149
gunsten	-9.63324
▁aufgefordert	-9.63379
▁aussprechen	-9.63449
▁reden	-9.63545
▁Vermittlung	-9.63577
▁Standards	-9.63591
▁Staats	-9.63707
▁behandeln	-9.63776
▁Moment	-9.63996
▁Zudem	-9.64147
Strategie	-9.64155
▁6	-9.64225
▁Welche	-9.64375
▁frei	-9.64431
sprozess	-9.64472
▁politisch	-9.64624
▁12	-9.64672
▁umzusetzen	-9.64764
▁usw	-9.6483
▁Juli	-9.65064
▁Schlussfolger	-9.6534
▁40	-9.65399
▁internationaler	-9.65405
▁ausschließlich	-9.65451
▁Stellung	-9.65461
▁Charta	-9.65513
▁legen	-9.65516
▁bilden	-9.6555
▁erfordert	-9.65588
▁keinerlei	-9.65753
▁Unterschiede	-9.6588
▁besonderen	-9.6597
▁Beschluss	-9.66029
▁Besorgnis	-9.66179
▁Effizienz	-9.66244
▁Bemerkung	-9.6628
▁Regulierung	-9.66341
▁Während	-9.6639
▁Waffen	-9.66512
▁Gerichtshof	-9.66698
▁Den	-9.66709
▁grundlegenden	-9.66752
▁Ihren	-9.66808
▁miteinander	-9.66827
▁wesentliche	-9.66864
ssystem	-9.66945
▁nächste	-9.66952
sbedingungen	-9.66965
▁sämtliche	-9.6708
▁echte	-9.67136
▁Abkommens	-9.67216
▁Verhandlung	-9.6731
▁Kollegin	-9.67381
▁wer	-9.67505
▁Viele	-9.67517
▁Rumänien	-9.67614
▁Nahrungsmittel	-9.6769
▁verstärkt	-9.67756
▁Märkte	-9.6782
▁uneingeschränkt	-9.67885
▁Kommunikation	-9.6791
politischen	-9.67987
▁herzlich	-9.6802
▁Konsens	-9.6815
▁begrüßt	-9.6816
▁akzeptiert	-9.68202
▁Einfluss	-9.68272
▁Anteil	-9.6846
▁annehmen	-9.68472
▁Ziffer	-9.68573
▁anbelangt	-9.68716
▁Verständnis	-9.68746
▁daraus	-9.68757
2	-9.68801
▁AKP	-9.68801
▁abgeschlossen	-9.6885
▁Polen	-9.68851
▁Hohen	-9.68854
▁Blick	-9.68924
▁stimmt	-9.68938
▁Verringerung	-9.69074
▁äußern	-9.69254
▁Treffen	-9.69263
▁zuständigen	-9.69439
▁Dienste	-9.69473
▁einerseits	-9.69569
▁regionale	-9.69664
▁Versuch	-9.69735
▁Mein	-9.69764
▁zahlreichen	-9.69802
▁Deswegen	-9.69915
▁Gesamt	-9.69965
▁technische	-9.70005
▁a	-9.70038
▁jeweiligen	-9.70074
▁Warum	-9.70138
▁gelangen	-9.70148
▁Vorausschau	-9.70188
organisation	-9.70197
▁Vorgehen	-9.70248
▁Erfahrung	-9.70365
▁Beweis	-9.70537
▁Voraussetzung	-9.70639
z	-9.70725
▁Infrastruktur	-9.70784
▁bedarf	-9.70833
▁größeren	-9.70836
ä	-9.70885
▁gelöst	-9.70922
▁Technologien	-9.71129
▁zuletzt	-9.7119
▁Übereinstimmung	-9.7119
▁Mitgliedern	-9.71245
▁Phase	-9.71294
▁Mobilität	-9.71312
▁Vergleich	-9.7137
▁ausgesprochen	-9.71443
▁angemessen	-9.71588
▁bezieht	-9.71589
▁unabhängig	-9.71617
▁nachhaltigen	-9.71674
▁einig	-9.71816
▁sinnvoll	-9.71907
▁Gleichgewicht	-9.7194
▁Gesetz	-9.71949
▁Definition	-9.7206
▁ständig	-9.72149
▁Portugal	-9.72215
▁Beschlüsse	-9.72292
▁Zahlen	-9.72338
▁Vorsitz	-9.72402
▁ferner	-9.72438
▁verurteilt	-9.72539
▁bedeuten	-9.72596
▁aktuellen	-9.72672
▁I	-9.7275
▁entscheidend	-9.72781
S	-9.72867
▁Gedanken	-9.72937
▁Systems	-9.72965
▁Roma	-9.73055
l	-9.731
▁Normen	-9.73542
▁einheitlichen	-9.73558
▁2001	-9.73573
▁betreffenden	-9.73594
▁setzt	-9.73655
▁nachdem	-9.73688
▁Haushaltsplan	-9.73798
▁Freizügigkeit	-9.73851
▁erfahren	-9.7394
▁1998	-9.73995
▁spielt	-9.74083
▁Klima	-9.74133
▁kürzlich	-9.74165
▁Analyse	-9.74213
▁Volksgesundheit	-9.7426
maßnahmen	-9.74291
▁fallen	-9.74295
▁tätig	-9.74371
▁freie	-9.74475
▁wichtigste	-9.74519
▁Internationalen	-9.74546
▁April	-9.74607
▁Außenpolitik	-9.74617
▁diesbezüglich	-9.74717
▁Verkehrs	-9.74904
▁vorzulegen	-9.7494
sausschuss	-9.75038
▁grundlegende	-9.75275
▁treten	-9.75291
al	-9.75336
▁Politiker	-9.75354
▁aufzunehmen	-9.75391
▁Signal	-9.75397
▁angemessene	-9.75444
▁darunter	-9.75472
▁Ordnung	-9.75608
▁nachdrücklich	-9.75636
▁Nahe	-9.7564
sch	-9.75959
▁zufolge	-9.76042
▁wirtschaftlich	-9.76076
EN	-9.76131
▁Vereinbarungen	-9.7618
▁hält	-9.76225
▁neben	-9.76308
▁betreffend	-9.76355
▁anwesend	-9.7638
▁Kontrollen	-9.76397
▁gestalten	-9.76425
▁kulturellen	-9.76446
▁Angriff	-9.76453
▁Elemente	-9.76535
▁teile	-9.76566
▁erhebliche	-9.76643
▁lautet	-9.76755
▁starke	-9.76816
▁notwendige	-9.76822
▁2020	-9.76827
▁länger	-9.7693
▁geehrte	-9.76991
▁27	-9.77025
▁lang	-9.77027
C	-9.7706
▁genannt	-9.77096
▁alten	-9.77228
▁Schweden	-9.77262
▁funktioniert	-9.77329
▁vorgeschlagene	-9.77358
▁eingereicht	-9.77456
▁Mut	-9.77629
▁teilweise	-9.77688
▁französischen	-9.77809
▁Vielleicht	-9.77818
▁parlamentarisch	-9.7796
▁verloren	-9.77975
▁rasch	-9.77989
▁Punkten	-9.77997
▁Außen	-9.78068
▁7	-9.78074
g	-9.78092
▁Risiken	-9.78112
▁Unser	-9.78194
▁Zentralbank	-9.78215
▁Aufbau	-9.78256
▁möglichen	-9.78268
▁verfügt	-9.78276
▁Gemeinsame	-9.78292
▁bemüht	-9.78308
▁Polizei	-9.78381
▁Problems	-9.78403
▁Binnenmarktes	-9.78454
▁komme	-9.78456
▁wiederholen	-9.78458
▁Bestandteil	-9.78507
▁tut	-9.78592
▁nunmehr	-9.78672
▁Zur	-9.7881
▁abstimmen	-9.78838
ü	-9.78844
▁niemand	-9.78864
▁übrigens	-9.78898
▁Ebenso	-9.78933
ieren	-9.79031
▁leiden	-9.79078
▁Institution	-9.7922
▁Barroso	-9.79231
▁Stellen	-9.79323
w	-9.79392
▁näher	-9.79397
▁NATO	-9.79507
▁Amsterdam	-9.79512
▁Status	-9.79537
▁eingehalten	-9.79584
▁Glaubwürdigkeit	-9.79762
▁Strategien	-9.79768
▁keiner	-9.79854
▁beziehen	-9.7993
▁Sektoren	-9.79951
▁entsprechen	-9.80073
▁100	-9.80077
▁18	-9.80112
▁Erzeugnisse	-9.80223
▁Wer	-9.80263
▁Waren	-9.80339
▁8	-9.80457
▁Ratifizierung	-9.80507
▁bedauerlich	-9.80531
▁Befugnisse	-9.80713
▁Umständen	-9.8081
▁unterstreichen	-9.80913
▁lokalen	-9.80915
▁achten	-9.80936
▁UNO	-9.80937
▁Familie	-9.80962
▁fällt	-9.81021
sfreiheit	-9.81129
▁Vereinfachung	-9.8114
▁warten	-9.81195
▁K	-9.8128
▁Tiere	-9.81469
▁Zeichen	-9.81553
▁richten	-9.81568
▁Aktionsplan	-9.81667
▁Wirklichkeit	-9.81711
ig	-9.81876
▁kennen	-9.81991
▁Dem	-9.81993
▁ergeben	-9.8212
▁Überlegungen	-9.82127
▁mindestens	-9.82193
Mitgliedstaaten	-9.82232
keit	-9.82264
▁beste	-9.82355
▁Regime	-9.82411
▁verdient	-9.82528
▁Dienst	-9.82545
▁verlieren	-9.82596
▁informiert	-9.82603
▁Kriminalität	-9.82604
▁Sport	-9.82686
shilfe	-9.8269
▁Ausnahme	-9.82792
▁richtigen	-9.82803
▁hervorgehoben	-9.82871
▁Abschaffung	-9.82974
▁Sorgen	-9.83065
▁Verbesserungen	-9.8311
▁erfolgt	-9.83202
▁verstärken	-9.83352
▁neues	-9.83371
▁künftige	-9.8352
▁allgemein	-9.83615
▁suchen	-9.83664
▁verlangen	-9.83702
▁letztendlich	-9.83837
▁geprüft	-9.83986
▁bemühen	-9.84059
svorschlag	-9.84178
▁einbezogen	-9.84178
▁Prinzipien	-9.84222
▁spricht	-9.84255
▁ausgezeichneten	-9.84366
▁illegalen	-9.84387
▁geltenden	-9.84412
▁Antworten	-9.84432
▁amtierende	-9.84541
▁Kopenhagen	-9.84567
▁Abend	-9.84573
▁Gericht	-9.84585
▁verlangt	-9.84602
▁humanitäre	-9.84654
▁geschlossen	-9.84764
(	-9.84823
▁ausgesetzt	-9.84837
▁entscheidender	-9.84841
▁gezogen	-9.84944
▁mehreren	-9.84988
▁Begriff	-9.85119
▁erscheint	-9.85162
▁entstehen	-9.85208
▁Formen	-9.85255
▁US	-9.85261
▁Verhältnis	-9.85403
▁bereitgestellt	-9.85482
▁derartige	-9.85512
▁Krankheiten	-9.8554
▁Großbritannien	-9.85544
▁1997	-9.85577
▁PPE	-9.85774
▁abgestimmt	-9.85844
▁leicht	-9.85875
▁vorliegende	-9.86232
▁umfassenden	-9.86348
▁großes	-9.86417
▁ging	-9.86447
▁versichern	-9.8647
▁seines	-9.86509
▁Vorhaben	-9.86522
▁mündliche	-9.8657
▁Plan	-9.86573
um	-9.86678
▁schließen	-9.86863
▁anstatt	-9.86923
▁verantwortungs	-9.87256
schaftlichen	-9.87447
▁Gespräche	-9.87458
▁vorgenommen	-9.8762
ern	-9.87628
▁CO	-9.87685
▁begonnen	-9.87687
▁durchzuführen	-9.87706
▁Afghanistan	-9.87728
▁profitieren	-9.87795
▁entscheidende	-9.87805
▁Drogen	-9.87841
▁überein	-9.87856
▁befindet	-9.87941
▁bestimmt	-9.87986
▁Ablehnung	-9.88084
▁beschäftigt	-9.88094
▁Technologie	-9.88114
▁mag	-9.88178
▁jetzigen	-9.88317
▁Finanzielle	-9.88339
▁anschließen	-9.88352
▁geäußert	-9.88411
▁einzigen	-9.88475
▁bestimmter	-9.88502
▁Lebens	-9.88605
▁heutige	-9.88632
lichkeit	-9.88647
erstatters	-9.88715
▁seien	-9.88778
▁Erwartungen	-9.88792
▁weiteres	-9.88968
▁Umweltschutz	-9.89004
▁Handeln	-9.89041
▁übernommen	-9.89056
▁dritten	-9.89064
▁rechtlichen	-9.89076
▁Umweltfragen	-9.8908
ierung	-9.89334
▁beteiligen	-9.89358
▁Vielen	-9.89473
▁Männern	-9.89493
sektor	-9.89503
▁verleihen	-9.89541
innen	-9.89551
p	-9.89567
▁praktisch	-9.89569
▁Männer	-9.89589
▁Flüchtlinge	-9.8961
srecht	-9.89615
▁falsch	-9.89688
▁Todesstrafe	-9.89725
▁Spiel	-9.8977
▁Regierungschefs	-9.89937
▁bewegen	-9.89951
▁13	-9.89951
▁Straßburg	-9.90094
▁Belarus	-9.90165
ein	-9.90171
▁Katastrophe	-9.90184
▁Übergang	-9.90204
▁Platz	-9.90253
▁Sicherheits	-9.90283
▁Modell	-9.90302
▁Zielen	-9.90336
▁wirksam	-9.90357
▁All	-9.90438
▁Wirkung	-9.905
▁Des	-9.90582
▁Jugend	-9.90667
▁dankbar	-9.9069
beauftragten	-9.90728
▁hauptsächlich	-9.90759
▁Wohlstand	-9.90767
▁kam	-9.90988
▁spanischen	-9.91018
▁hoffentlich	-9.91057
▁Korruption	-9.91094
▁Katastrophen	-9.91157
▁heraus	-9.91267
▁Herzen	-9.9127
▁Gefahren	-9.91315
▁auffordern	-9.91404
▁Konsequenzen	-9.91463
▁Widerspruch	-9.91505
▁Praktiken	-9.91543
▁volle	-9.91656
▁speziell	-9.91679
▁Kontroll	-9.91722
▁informieren	-9.91767
▁Mitentscheidung	-9.91773
EG	-9.91883
▁jegliche	-9.91886
▁Einrichtungen	-9.92
▁festzulegen	-9.92031
▁wenigen	-9.92125
▁wodurch	-9.92186
▁Stand	-9.92199
Kohäsionspolitik	-9.92335
▁Reduzierung	-9.9234
▁welcher	-9.92353
▁Transport	-9.92397
Staaten	-9.92402
▁kämpfen	-9.92408
▁Mittelpunkt	-9.92417
▁Leute	-9.92517
▁sozialer	-9.92664
▁Schengen	-9.92682
u	-9.92708
▁Opposition	-9.92722
▁Versammlung	-9.92772
▁Februar	-9.92823
▁Führung	-9.92846
▁verteidigen	-9.92882
▁vorgesehenen	-9.92979
▁palästinensisch	-9.92995
▁bestehende	-9.93022
▁Zusammenhalt	-9.93197
▁Gewährleistung	-9.93279
▁frage	-9.93401
▁sichern	-9.93443
und	-9.93457
▁garantieren	-9.93518
▁Organe	-9.93698
▁Mindest	-9.93703
▁Ihrem	-9.93798
▁erhöht	-9.93873
▁spreche	-9.93895
▁her	-9.93904
▁verstanden	-9.93929
▁Parlamente	-9.9393
▁14	-9.93951
▁Marktes	-9.94148
▁Zeiten	-9.94171
▁schlägt	-9.94317
▁genauso	-9.94319
▁einheitliche	-9.94387
▁wünsche	-9.94388
▁beschäftigen	-9.94403
▁niemals	-9.94429
spräsident	-9.94506
▁zweitens	-9.94548
▁ernsthaft	-9.94554
▁einzelstaatlich	-9.94583
sstrategie	-9.9469
▁Systeme	-9.94724
▁geschützt	-9.94759
▁Zypern	-9.94811
▁überall	-9.94845
▁Trotz	-9.94968
▁Konvent	-9.94972
▁Österreich	-9.9514
▁Niveau	-9.95173
▁Produkt	-9.95267
▁gezwungen	-9.95268
▁letztlich	-9.95279
▁gelegt	-9.95349
▁Währungsunion	-9.95435
▁erheblich	-9.95555
▁übertragen	-9.95623
▁Schwerpunkt	-9.95721
▁gewährt	-9.95757
abkommen	-9.95783
▁klaren	-9.95802
▁wenige	-9.95859
▁gutes	-9.9588
▁gestärkt	-9.95942
entwicklung	-9.95961
▁beigetragen	-9.95963
wettbewerbsfähig	-9.96101
▁Fischer	-9.96206
▁Wiederaufbau	-9.96256
▁zugleich	-9.96365
▁ländliche	-9.96476
▁Dialogs	-9.96489
▁Grünen	-9.96651
▁gehalten	-9.96665
▁eingegangen	-9.96689
▁Preise	-9.9675
▁Paket	-9.96806
▁einzuführen	-9.96822
▁Mir	-9.96889
▁konkret	-9.969
▁unmittelbar	-9.96992
▁60	-9.97009
to	-9.97046
▁ECU	-9.97083
▁verringern	-9.97083
▁Patienten	-9.97151
3	-9.97184
▁öffentlich	-9.97188
▁Maß	-9.97199
▁Wahrheit	-9.97199
▁erleichtern	-9.97202
▁besorgt	-9.97241
sstaatlichkeit	-9.97273
▁wirksame	-9.97324
▁erwartet	-9.97334
▁H	-9.97458
▁Angaben	-9.97465
▁britische	-9.97508
▁jungen	-9.97517
1	-9.97545
▁amerikanischen	-9.97622
▁folgende	-9.97679
▁zunehmend	-9.97711
P	-9.97744
▁damals	-9.97762
▁GAP	-9.97798
▁Ohne	-9.97798
ischen	-9.97801
▁Schlüssel	-9.97815
▁welchen	-9.97835
▁Element	-9.97838
▁Austausch	-9.97887
▁erwähnen	-9.97977
system	-9.97992
▁Arbeitsplatz	-9.98011
▁abhängig	-9.98037
▁Öl	-9.98047
▁gewählt	-9.98071
▁Gegensatz	-9.98079
Bericht	-9.98086
▁finanziert	-9.98102
▁Bulgarien	-9.98129
▁Kern	-9.98257
▁Mandat	-9.98281
▁entschlossen	-9.98369
▁Stadt	-9.98387
▁16	-9.98404
▁mögliche	-9.98414
▁solches	-9.98417
▁stehenden	-9.98472
▁Freude	-9.98478
▁ursprünglichen	-9.98555
▁Prodi	-9.9856
Energieeffizienz	-9.98565
▁Straßen	-9.98572
i	-9.98706
▁zuvor	-9.98761
▁allzu	-9.98954
▁Banken	-9.98961
▁vorschlagen	-9.98989
▁schafft	-9.99041
▁jenen	-9.99071
▁wiederholt	-9.99213
▁Charakter	-9.99213
▁Volkspartei	-9.99285
▁sofort	-9.99309
▁globale	-9.99323
▁Personal	-9.99405
▁relativ	-9.9959
▁paar	-9.99607
▁dank	-9.99639
▁geregelt	-9.99648
▁Bedarf	-9.99758
▁verhindert	-9.9977
▁echten	-9.99858
▁illegale	-9.99865
▁gesellschaft	-9.99903
▁Beispiele	-9.99969
▁Bereitschaft	-10.0001
▁1996	-10.0002
▁acht	-10.0006
▁Aktion	-10.0018
▁wollten	-10.0023
▁unterzeichnet	-10.0024
▁Verantwortlich	-10.0024
▁beruht	-10.0034
ab	-10.0036
▁Strukturen	-10.0044
▁Wettbewerbs	-10.0045
▁Bau	-10.0056
▁derzeitige	-10.0059
▁eng	-10.0064
▁17	-10.0065
▁fehlt	-10.0069
smöglichkeiten	-10.0073
▁dritte	-10.0073
▁Wissen	-10.0074
▁Schaden	-10.0082
▁einzusetzen	-10.0095
▁M	-10.0103
▁ziemlich	-10.0112
▁Stoffe	-10.0129
▁nötig	-10.0131
▁entfernt	-10.0133
▁Tage	-10.0133
sfonds	-10.0136
▁Teilen	-10.0153
▁vorgelegten	-10.0153
▁beinhaltet	-10.0166
▁Arbeiten	-10.017
▁froh	-10.0182
▁Darum	-10.0192
▁folgenden	-10.0198
▁Flug	-10.0202
▁trifft	-10.0203
▁Religion	-10.0209
▁ausgezeichnete	-10.0231
▁mittleren	-10.0232
▁danach	-10.0233
▁guter	-10.0233
▁bestätigen	-10.0236
▁wiederum	-10.0241
▁humanitären	-10.0252
▁Bedürfnisse	-10.0257
▁junge	-10.0262
7	-10.0278
▁Beteiligten	-10.0287
▁Vorteil	-10.0288
▁Debatten	-10.029
▁80	-10.0293
▁sonst	-10.0306
▁Fremdenverkehr	-10.0308
▁soeben	-10.0312
▁gerichtet	-10.032
▁unmöglich	-10.0324
tenden	-10.0325
▁stärkere	-10.0326
▁u	-10.0327
▁Indien	-10.0328
▁überprüfen	-10.0329
▁erleben	-10.0333
▁menschlichen	-10.0363
▁solange	-10.0368
▁Studie	-10.0376
▁Arten	-10.0379
▁Gerechtigkeit	-10.0379
▁konfrontiert	-10.0379
▁Würde	-10.0397
▁manchmal	-10.0405
▁Verhalten	-10.0413
▁teilen	-10.0422
▁spezifischen	-10.0424
▁Gegenstand	-10.0426
▁bedanken	-10.0431
▁Gelder	-10.0436
gen	-10.0437
▁Re	-10.0439
▁Ansichten	-10.044
richtlinie	-10.0444
▁zuständig	-10.0447
▁verlassen	-10.0454
▁Friedens	-10.0454
▁kurzem	-10.0467
▁herrscht	-10.047
▁Einstellung	-10.0473
▁umsetzen	-10.0477
▁staatlichen	-10.0479
▁V	-10.0483
▁groß	-10.0484
le	-10.0491
▁unverzüglich	-10.0496
▁starken	-10.0506
▁privaten	-10.0508
▁erlebt	-10.0512
▁irischen	-10.0517
▁bislang	-10.0525
▁erfreut	-10.0537
▁früher	-10.054
▁Bereitstellung	-10.0541
D	-10.0545
▁Sprachen	-10.0546
▁vorhanden	-10.0548
▁verwenden	-10.0548
▁durchführen	-10.0553
▁gebeten	-10.0559
▁Arbeitnehmern	-10.0563
erstattern	-10.0594
▁erinnert	-10.0599
▁teilnehmen	-10.0613
▁Andererseits	-10.0615
▁deutschen	-10.0615
▁effektiv	-10.0618
▁Verwirklichung	-10.0619
▁Person	-10.0623
8	-10.0627
▁Kennzeichnung	-10.0633
▁wonach	-10.0654
▁zusätzlichen	-10.0655
▁Gas	-10.0658
▁Insbesondere	-10.0667
▁ansprechen	-10.067
▁Übrigen	-10.0673
▁Öffnung	-10.068
▁Kapital	-10.0682
▁befürwortet	-10.0686
iert	-10.0686
▁Geist	-10.0686
▁italienischen	-10.0689
▁dient	-10.0693
▁Kräfte	-10.0705
▁Teilnahme	-10.0707
▁Konsultation	-10.071
▁19	-10.0717
M	-10.0718
▁Einkommen	-10.0727
▁Hälfte	-10.0728
▁Ausarbeitung	-10.0728
▁europäisches	-10.0734
▁II	-10.0735
▁Bitte	-10.0737
▁D	-10.0738
zusammenarbeiten	-10.0739
▁Mangel	-10.0743
igen	-10.0743
▁Untersuchungen	-10.075
▁verurteilen	-10.076
▁zulassen	-10.0763
▁weitgehend	-10.0766
▁verstehe	-10.0766
▁Dringlichkeit	-10.0767
▁inter	-10.0773
▁Krisen	-10.0785
▁eingebracht	-10.0793
▁rechtliche	-10.0795
▁beschränken	-10.0796
▁Beseitigung	-10.0803
▁deswegen	-10.0803
▁Bedrohung	-10.0807
▁Redner	-10.0808
▁gefährdet	-10.0811
▁Prozeß	-10.0815
bereich	-10.0828
▁Unterschied	-10.0832
gesellschaften	-10.085
▁festgelegten	-10.0858
▁Steuern	-10.086
▁Methode	-10.0868
▁Bank	-10.0868
▁Methoden	-10.087
sausschuß	-10.0873
▁dürfte	-10.0882
▁sieben	-10.0887
▁Laufe	-10.0892
▁jährlich	-10.0893
▁Erhaltung	-10.0903
▁Bild	-10.0904
▁Chancen	-10.0906
▁Monat	-10.0908
▁verursacht	-10.0911
▁höhere	-10.0914
▁Vorrang	-10.0918
▁gewissen	-10.0921
▁Respekt	-10.0927
▁hervor	-10.0928
▁vorbereitet	-10.0931
land	-10.0944
▁Nein	-10.0946
institutionellen	-10.095
▁Fähigkeit	-10.0954
▁mitteilen	-10.0959
▁Faktoren	-10.0965
▁Staates	-10.0968
▁Versorgung	-10.0969
K	-10.0969
ing	-10.0971
▁Energien	-10.0971
▁Anbetracht	-10.0972
▁hinzufügen	-10.0985
▁Leistung	-10.0988
ar	-10.0999
▁Kontinent	-10.1
▁Hindernisse	-10.1
▁sodass	-10.1009
▁Gefühl	-10.1014
▁angebracht	-10.1027
politische	-10.1031
ner	-10.1034
▁stelle	-10.1042
▁sichergestellt	-10.1044
▁überzeugen	-10.1054
▁befasst	-10.1067
▁inzwischen	-10.1079
ngleichheit	-10.108
▁Volkes	-10.1081
▁veröffentlicht	-10.1086
▁früheren	-10.1105
tschaftswachstum	-10.1121
▁Durchsetzung	-10.1121
▁kulturelle	-10.1123
▁erhält	-10.1124
▁Erzeuger	-10.1125
Wirtschaftskrise	-10.1126
▁Senkung	-10.113
▁Asyl	-10.1137
▁entweder	-10.1139
▁gewinnen	-10.1144
▁Liberalen	-10.1152
▁Hohe	-10.1154
▁Mechanismen	-10.1164
▁strategischen	-10.1167
▁Beiträge	-10.1169
▁befürworten	-10.1175
▁Betrifft	-10.1176
▁Verletzung	-10.1178
▁anzunehmen	-10.1179
▁BSE	-10.1181
▁Hinweis	-10.1183
▁De	-10.1186
▁gegenwärtige	-10.1192
▁reicht	-10.1194
▁investieren	-10.1194
▁erstens	-10.1201
▁interessiert	-10.1206
▁Menge	-10.121
▁Grenze	-10.1222
▁Demokraten	-10.1225
schaftliche	-10.1225
▁9	-10.1228
▁einstimmig	-10.1229
▁grundsätzlich	-10.1244
▁Mrd	-10.1254
el	-10.1254
▁Eisenbahn	-10.1262
se	-10.1279
▁Ideen	-10.1288
▁läßt	-10.1292
▁welches	-10.13
Entschlossenheit	-10.13
sverletzungen	-10.1301
▁Kontext	-10.131
▁denjenigen	-10.1319
▁rein	-10.1323
▁speziellen	-10.1353
▁Sonder	-10.1356
▁gewähren	-10.1356
▁Konflikte	-10.1367
▁Rechnungshof	-10.1373
▁bewußt	-10.1374
F	-10.139
▁Anfragen	-10.1391
▁NRO	-10.1396
▁Gerade	-10.1403
▁passiert	-10.1408
Umstrukturierung	-10.1417
▁See	-10.1423
DE	-10.1432
▁festzustellen	-10.1436
▁aufnehmen	-10.1441
▁beschränkt	-10.1442
▁Allgemeinen	-10.1442
▁legt	-10.1452
▁Betracht	-10.1452
▁bezeichnet	-10.1455
▁ehemaligen	-10.147
▁Ursachen	-10.147
▁Tisch	-10.147
▁Schiffe	-10.1473
▁Beschluß	-10.1478
▁offenen	-10.1481
grund	-10.1482
▁schwierige	-10.1483
▁Presse	-10.1485
▁eingeleitet	-10.149
▁angesehen	-10.1493
▁Nachdruck	-10.1493
▁türkischen	-10.15
▁benötigt	-10.15
▁Funktion	-10.1502
▁mangelnde	-10.1502
▁Allianz	-10.1507
▁überwinden	-10.1507
▁Ausgrenzung	-10.1511
hilfe	-10.1522
▁Premierminister	-10.1526
▁geraten	-10.153
▁genügend	-10.154
▁bewältigen	-10.154
▁breite	-10.1546
▁Sektors	-10.1553
▁Export	-10.1554
▁Berichten	-10.1557
▁Revision	-10.1569
▁Sollte	-10.1576
▁zurückzuführen	-10.1583
▁11.	-10.1588
▁Nachbarschaft	-10.1589
▁Souveränität	-10.1592
KOM	-10.1602
▁Anlass	-10.1607
verfahren	-10.1608
▁Mittelmeer	-10.1611
c	-10.1613
▁Herstellung	-10.1633
▁einzelne	-10.1633
▁funktionieren	-10.164
▁getragen	-10.1642
▁entgegen	-10.1647
▁Teile	-10.1648
▁umfassend	-10.1661
▁schlecht	-10.1669
▁11	-10.1671
▁wirkliche	-10.1672
▁verweisen	-10.1678
▁Bürokratie	-10.1684
▁Drittstaaten	-10.1687
▁zentrale	-10.169
us	-10.1691
▁antworten	-10.1693
▁Nachhaltigkeit	-10.1712
▁Wesentlichen	-10.1738
▁garantiert	-10.1738
▁Vertretern	-10.1764
▁angewandt	-10.1768
▁Weiteren	-10.1776
ische	-10.1778
▁Kyoto	-10.1781
▁Perspektive	-10.1794
▁spezifische	-10.1794
▁politisches	-10.1805
ch	-10.181
▁behaupten	-10.1816
▁Wissenschaft	-10.1818
▁Nachbarn	-10.1822
▁Erfüllung	-10.1829
▁weltweiten	-10.1832
▁Sch	-10.1845
▁militärische	-10.1855
▁zahlen	-10.1856
▁Investition	-10.1856
▁EZB	-10.1865
programm	-10.1865
▁gestatten	-10.1871
▁Studien	-10.1873
▁erlaubt	-10.1873
versorgung	-10.1873
▁Japan	-10.1873
▁Konvergenz	-10.1875
▁vorsieht	-10.1875
▁gearbeitet	-10.1883
▁letzter	-10.1884
▁Abgeordneter	-10.1885
▁langfristig	-10.1893
▁jemand	-10.1897
▁verabschieden	-10.1898
▁zukünftigen	-10.1901
▁Zielsetzungen	-10.1902
▁Ausmaß	-10.1908
▁Gang	-10.1914
▁Prozesses	-10.1914
▁Leistungen	-10.1922
▁Amt	-10.1936
▁Dingen	-10.1943
▁vorliegen	-10.1948
▁Pläne	-10.1952
▁angenommenen	-10.1952
▁Erreichung	-10.1952
▁Ungarn	-10.1952
▁Mann	-10.1953
isch	-10.1957
▁zählen	-10.1957
▁Ge	-10.1959
▁Tätigkeiten	-10.1977
▁genannte	-10.1985
▁Geschlechter	-10.1988
▁jedenfalls	-10.1992
Programm	-10.1997
▁vieler	-10.2
▁spezielle	-10.2005
▁Errichtung	-10.2012
▁Luft	-10.2014
▁angewendet	-10.2017
▁Aufhebung	-10.2022
▁höchste	-10.2023
▁Sicherung	-10.2025
▁besonderer	-10.2025
▁ausgerichtet	-10.2027
▁Nachfrage	-10.2028
▁negativen	-10.2032
▁van	-10.2035
▁militärischen	-10.204
▁überaus	-10.2051
▁sofern	-10.2053
▁Urteil	-10.2055
▁Modernisierung	-10.2057
▁zugrunde	-10.206
▁1995	-10.2062
▁O	-10.2065
▁Krankheit	-10.2069
▁EG	-10.207
▁Mechanismus	-10.207
▁verletzt	-10.2072
▁auswärtige	-10.2077
aus	-10.2085
▁Ausweitung	-10.2092
▁Verabschiedung	-10.2097
▁Verbreitung	-10.2102
▁Positionen	-10.2104
▁vorstellen	-10.2104
▁niederländische	-10.2106
▁vollständige	-10.2106
▁falls	-10.2108
▁Identität	-10.2109
E	-10.2111
▁Militär	-10.2121
▁beabsichtigt	-10.2121
▁Angst	-10.2122
▁Wahrung	-10.2122
▁Kroatien	-10.2123
▁Grünbuch	-10.2128
▁bildet	-10.2139
▁Mitgliedschaft	-10.214
▁wesentlicher	-10.2143
▁21.	-10.2143
schaft	-10.2149
▁Nizza	-10.215
▁Regel	-10.2151
▁Zeitplan	-10.2156
▁Mitarbeiter	-10.2163
▁ausüben	-10.2167
▁Minuten	-10.2171
▁finanzieren	-10.2172
▁Prävention	-10.2178
▁Einheit	-10.2184
▁trotzdem	-10.2188
▁Augenblick	-10.2193
▁Vorsitzenden	-10.2194
rechte	-10.2197
▁Abhängigkeit	-10.2203
▁Kapitel	-10.2209
▁beantworten	-10.2212
▁Vorlage	-10.2212
▁Verbrauchern	-10.2216
▁dargelegt	-10.2221
▁Garantien	-10.2225
▁bedeutende	-10.2227
▁gerechtfertigt	-10.2233
▁müsste	-10.2245
▁lernen	-10.2249
▁offenbar	-10.225
▁Situationen	-10.2252
▁verbundenen	-10.2253
▁Klarheit	-10.2254
▁Beachtung	-10.2259
▁Auge	-10.2259
▁freuen	-10.2263
▁aktive	-10.2263
▁ausgeschlossen	-10.2276
▁langfristige	-10.228
tende	-10.2281
▁Barcelona	-10.2285
▁Regionalpolitik	-10.2296
▁Faktor	-10.2297
ul	-10.2299
▁Boden	-10.2312
2-	-10.2315
▁Zoll	-10.2319
▁Umgang	-10.2325
▁staatliche	-10.2326
▁Jeder	-10.2327
▁Anhörung	-10.2333
▁wann	-10.2336
▁Europol	-10.2337
R	-10.2344
▁Emissionen	-10.2347
▁erlassen	-10.2359
▁sorgfältig	-10.236
▁Planung	-10.2362
▁anerkennen	-10.2365
▁Stunden	-10.2368
▁Serbien	-10.2379
▁gelingt	-10.2382
▁hierbei	-10.24
▁umfasst	-10.2404
▁Verfasser	-10.2407
▁kontrollieren	-10.2408
▁rechtzeitig	-10.2411
▁Migration	-10.2415
▁Anmerkungen	-10.2418
▁geboten	-10.2419
▁Abbau	-10.2424
▁Problematik	-10.2428
▁Besteuerung	-10.2429
▁Dadurch	-10.2435
▁Vorstellung	-10.2438
▁endgültige	-10.2441
▁Verteilung	-10.245
▁Wähler	-10.245
▁Vertrages	-10.2455
▁eingerichtet	-10.2464
▁keineswegs	-10.2465
▁menschliche	-10.2465
▁angemessenen	-10.2469
sbehörden	-10.2473
V	-10.2474
▁bedauere	-10.2476
▁sozial	-10.2477
▁Arzneimittel	-10.2478
▁Verfahrens	-10.2484
T	-10.2485
▁P	-10.2489
▁auswirken	-10.2492
▁erörtert	-10.2495
▁betreiben	-10.2497
▁Balkan	-10.2503
▁lenken	-10.2507
▁zugestimmt	-10.2512
▁gegenseitige	-10.2512
▁müssten	-10.2513
▁entwickelten	-10.2513
▁Abfall	-10.2518
▁schwedischen	-10.2518
▁Mehrwertsteuer	-10.252
▁500	-10.2523
▁Finnland	-10.2526
▁Programmen	-10.2527
▁überlassen	-10.253
▁entstanden	-10.253
▁entscheidenden	-10.253
▁hängt	-10.2544
▁Noch	-10.2549
▁Betriebe	-10.2566
▁stattfindet	-10.2575
▁Luxemburg	-10.2576
▁verboten	-10.2581
▁Erarbeitung	-10.2581
ko	-10.2585
ur	-10.2587
▁Gesellschaften	-10.2589
▁Weiter	-10.2591
sprozesses	-10.2591
▁Betrieb	-10.26
▁Akteure	-10.2602
▁fassen	-10.2604
▁stolz	-10.2607
Die	-10.2615
▁praktische	-10.2629
▁infolge	-10.263
▁erteilen	-10.2637
▁Dokumente	-10.2637
sverhandlungen	-10.2639
Fischereipolitik	-10.2639
▁Finanzkrise	-10.2641
zeit	-10.2642
▁reichen	-10.2645
▁Inkrafttreten	-10.2647
▁reduzieren	-10.2649
▁vertritt	-10.265
▁Schäden	-10.266
sprinzip	-10.2662
▁Garantie	-10.2672
▁gemeinsames	-10.2676
▁BIP	-10.2688
▁Argumente	-10.2689
▁Formulierung	-10.2696
▁Steuerzahler	-10.2702
▁Agrar	-10.2702
▁besitzt	-10.2703
▁Genehmigung	-10.2708
▁zuerst	-10.2719
▁beraten	-10.2721
▁stattgefunden	-10.2724
produktion	-10.2738
▁Ausführung	-10.274
dienstleistungen	-10.2741
▁Ausbeutung	-10.2751
▁Trotzdem	-10.2751
srichtlinie	-10.2765
▁Minderheit	-10.2769
▁konzentriert	-10.2769
▁strategische	-10.2776
▁respektieren	-10.2783
▁Bosnien	-10.2788
▁untersuchen	-10.2788
▁Funktionieren	-10.2793
▁Erwägung	-10.2806
▁Rechten	-10.2811
▁Außenminister	-10.2814
▁Gewicht	-10.2819
▁mittlere	-10.2821
▁Dauer	-10.2821
▁Zahlungen	-10.2828
▁Dafür	-10.2832
▁90	-10.2836
▁Agenturen	-10.2837
▁sobald	-10.2838
▁Anstieg	-10.2846
▁französische	-10.2849
▁Partnern	-10.2852
▁Verordnungen	-10.2857
▁bedroht	-10.2859
▁Wichtigkeit	-10.287
▁jener	-10.2871
▁ratifiziert	-10.288
▁langen	-10.2885
ik	-10.2898
▁direkte	-10.291
▁Arbeits	-10.2923
▁österreichische	-10.2927
▁Petition	-10.2928
▁Wo	-10.2928
▁verändert	-10.2932
▁Aussage	-10.2935
▁Stimmen	-10.2938
▁Rußland	-10.2939
▁beseitigen	-10.294
▁Gemeinschafts	-10.2941
▁Behörde	-10.2942
ssysteme	-10.2944
▁eingeräumt	-10.2946
▁Kann	-10.2946
▁Quoten	-10.2947
▁hervorragende	-10.2951
▁beschließen	-10.2951
▁Frist	-10.2952
▁anzuwenden	-10.2955
ter	-10.2959
▁eindeutige	-10.2959
▁vorhin	-10.297
▁zukünftige	-10.2979
▁Tourismus	-10.2979
▁Kandidaten	-10.2987
▁Beratungen	-10.2988
▁Belgien	-10.2994
▁Neu	-10.3004
▁Kontakt	-10.3014
▁Gemeinschaften	-10.3015
▁mehrfach	-10.3023
sverfahrens	-10.3024
im	-10.3028
▁unterbreitet	-10.3033
▁Referendum	-10.3034
ige	-10.3036
▁westlichen	-10.3043
▁Kompromiß	-10.3045
▁Beamten	-10.305
▁2011	-10.305
▁Netze	-10.3056
▁Georgien	-10.3061
▁Fassung	-10.3062
is	-10.3063
▁inakzeptabel	-10.3063
auf	-10.3072
▁Abschluß	-10.3083
▁Schutzes	-10.3083
▁erlauben	-10.3085
▁konstruktive	-10.3097
ren	-10.3103
▁verdienen	-10.3106
▁Aspekten	-10.3106
▁Jahrhundert	-10.3111
▁schneller	-10.3115
▁Wird	-10.3123
▁effektive	-10.3125
▁höchst	-10.3125
▁verstärkte	-10.3129
▁Hersteller	-10.3131
präsident	-10.3133
▁Mitgliedsländer	-10.3134
▁70	-10.3135
▁gemeinsamer	-10.3138
▁anwenden	-10.3139
▁generell	-10.3143
bar	-10.3143
▁PSE	-10.3145
▁Fleisch	-10.3149
▁Offenheit	-10.315
markt	-10.3152
▁Amerika	-10.3158
▁Betrug	-10.3158
▁Gestatte	-10.3161
▁Uns	-10.3162
▁ablehnen	-10.3169
▁basiert	-10.3177
▁Zuständigkeiten	-10.3179
▁Anträge	-10.3181
▁enorme	-10.3186
svorschläge	-10.3189
▁überwachen	-10.3189
▁festlegen	-10.319
▁spät	-10.319
▁Jugendlichen	-10.3206
▁schlagen	-10.3207
▁aktuelle	-10.321
▁geeignete	-10.3211
▁Energiepolitik	-10.3216
▁Aufsicht	-10.3217
▁vorzunehmen	-10.322
▁Besuch	-10.3227
▁Welthandels	-10.3231
▁beibehalten	-10.3234
▁Niederlanden	-10.3236
▁Menschenrechten	-10.3237
▁russischen	-10.3238
▁Neben	-10.3241
▁abschließend	-10.3242
▁wenden	-10.325
▁erteilt	-10.3253
▁unabhängigen	-10.3256
▁erörtern	-10.3257
▁Assoziierung	-10.3257
▁jüngste	-10.3261
▁Energiequellen	-10.3262
▁vorgehen	-10.3267
▁Kohäsion	-10.3269
▁Wirksamkeit	-10.3274
▁bewerten	-10.3285
gleich	-10.3286
▁reagiert	-10.3293
▁Intervention	-10.3297
▁Zustand	-10.3298
▁Ministerrat	-10.3302
▁gegenseitigen	-10.3306
▁Donnerstag	-10.3308
▁vereinbart	-10.3312
szusammenarbeit	-10.3314
▁Ergebnissen	-10.3315
at	-10.3316
▁wahren	-10.3318
▁fortsetzen	-10.3319
Ebene	-10.3328
▁Tabak	-10.3336
▁Vielzahl	-10.3336
ol	-10.3336
▁bekräftigt	-10.3338
▁Einwanderer	-10.334
▁Potenzial	-10.3348
▁Taten	-10.335
▁welchem	-10.3351
▁Rassismus	-10.3353
▁Morgen	-10.3353
▁weist	-10.3355
▁demokratischer	-10.3356
▁erwiesen	-10.3362
▁Existenz	-10.3365
▁definiert	-10.3371
ation	-10.338
▁historischen	-10.3381
vorschriften	-10.3387
▁formuliert	-10.3396
▁rund	-10.34
▁Häfen	-10.3411
▁Netz	-10.3412
▁griechischen	-10.3422
▁Journalisten	-10.3434
▁Beziehung	-10.3436
▁internen	-10.3442
▁regelmäßig	-10.3444
▁läuft	-10.3446
▁Visa	-10.3454
▁laut	-10.3476
▁Randlage	-10.3479
sebene	-10.348
▁enthaltenen	-10.3482
▁Begründung	-10.3483
transatlantische	-10.3486
▁Wein	-10.3487
▁Ko	-10.3488
▁Gestaltung	-10.3498
▁Betrag	-10.3498
▁200	-10.35
▁durchzusetzen	-10.3504
▁größer	-10.351
▁Experten	-10.3515
▁Volkswirtschaft	-10.3517
▁besitzen	-10.3526
▁ent	-10.3532
recht	-10.3533
▁Mängel	-10.3537
▁einführen	-10.3539
▁laufenden	-10.3545
▁ergibt	-10.3546
▁voraus	-10.355
▁laufen	-10.3552
▁höheren	-10.3557
▁Ratsvorsitzes	-10.3559
▁Bestimmung	-10.3563
▁Stabilitätspakt	-10.3566
▁negative	-10.3572
▁schließe	-10.3572
▁Titel	-10.3575
▁Alternative	-10.3582
▁Stabilitäts	-10.3592
▁Zahlung	-10.3594
▁Vorgehensweise	-10.3601
▁Konvention	-10.3601
▁fördert	-10.3613
▁Mazedonien	-10.3614
▁mussten	-10.3615
▁Maastricht	-10.3619
▁erarbeitet	-10.3622
▁zusätzlich	-10.3629
▁Mehr	-10.3633
▁Renten	-10.3637
▁Raums	-10.3648
sentwurf	-10.3654
▁gelingen	-10.366
▁Schlußfolgerung	-10.3666
▁Grundsätzen	-10.3668
▁ersetzen	-10.3681
▁21	-10.3684
▁Pakistan	-10.3685
▁bereitet	-10.3695
sbeziehungen	-10.3695
▁Verfolgung	-10.3697
▁vernünftig	-10.3699
▁Tod	-10.3703
▁Rückkehr	-10.3707
die	-10.3719
Richtlinie	-10.3719
▁erneuerbaren	-10.3725
▁effizient	-10.3746
chen	-10.375
▁keinem	-10.3755
▁Ausbau	-10.3756
▁Zwei	-10.3763
▁Gerichtshofs	-10.3763
▁wirklichen	-10.3763
▁vorhandenen	-10.3769
▁schweren	-10.3769
▁nehme	-10.377
▁unterbreiten	-10.3778
▁Schuld	-10.378
▁Gipfeltreffen	-10.3789
▁Gebrauch	-10.3789
▁Erst	-10.3791
▁lieber	-10.3804
▁Mittelmeerraum	-10.381
ro	-10.3826
▁Kuba	-10.3827
▁regionaler	-10.3831
▁untersucht	-10.3833
▁ausgehen	-10.3837
▁Klimawandels	-10.3839
▁Feststellung	-10.3843
▁nahe	-10.3844
▁Umfeld	-10.3847
▁Rück	-10.3848
▁Vorredner	-10.3856
▁zweiter	-10.3856
▁befürworte	-10.386
▁Bewegung	-10.3861
▁Bis	-10.3867
▁zustande	-10.3877
▁Gründung	-10.3879
▁erfordern	-10.3881
▁ökologischen	-10.3882
▁respektiert	-10.3885
▁werte	-10.389
▁willkommen	-10.3893
▁Mehrwert	-10.3894
▁vornehmen	-10.3897
▁Auftrag	-10.3898
▁Produkten	-10.3906
▁Kohärenz	-10.3909
▁Klein	-10.3915
▁auftreten	-10.3927
▁äußerster	-10.393
▁Ganz	-10.393
▁manche	-10.3933
▁endgültigen	-10.395
▁Haushaltsplans	-10.3956
▁abgegeben	-10.3964
▁vorliegt	-10.3965
▁langsam	-10.3972
▁sagten	-10.3975
▁Sehr	-10.3995
▁sogenannten	-10.4001
▁Generation	-10.4006
sprogramme	-10.4008
FR	-10.4009
▁Handlung	-10.4018
▁bilateralen	-10.4018
▁persönlichen	-10.4022
▁Gebäude	-10.4027
▁irische	-10.4029
licher	-10.4044
▁erwähnten	-10.4045
▁Unternehmens	-10.4057
▁Schattenbericht	-10.4057
G	-10.4058
▁bestimmen	-10.4059
▁senken	-10.4064
▁Terroristen	-10.4084
))	-10.4085
▁soweit	-10.4086
▁beobachten	-10.4088
▁Marokko	-10.4093
▁offene	-10.4094
▁Verlust	-10.4094
▁Papier	-10.4096
▁verehrten	-10.41
▁arbeitet	-10.4113
▁ähnliche	-10.4114
▁Slowakei	-10.4116
▁General	-10.4123
▁Also	-10.4123
▁unzureichend	-10.4127
▁zugute	-10.4129
▁Äußerungen	-10.4139
▁Argument	-10.4142
▁nächster	-10.4145
▁24	-10.4149
▁Tieren	-10.4152
▁Wissenschaftler	-10.4156
▁erarbeiten	-10.4156
il	-10.4162
▁nachdenken	-10.4164
Gleichbehandlung	-10.4167
▁überprüft	-10.4172
▁Ehre	-10.4176
▁Weißbuch	-10.4178
▁bisherigen	-10.4178
▁hingegen	-10.4178
▁verwiesen	-10.4179
▁Ausschüsse	-10.4179
▁vernünftige	-10.4181
▁erwähnte	-10.4183
▁...	-10.4186
▁oben	-10.4191
▁Kompetenzen	-10.4194
▁vorher	-10.4196
▁konsequent	-10.4199
▁erscheinen	-10.4199
▁Tonnen	-10.4214
▁schwere	-10.4219
▁hergestellt	-10.4223
▁extrem	-10.4224
gemeinschaft	-10.4226
▁Zwar	-10.4228
▁Beurteilung	-10.4234
▁erinnere	-10.4265
▁Drittel	-10.4271
O	-10.4278
▁ehrlich	-10.4283
▁kritisiert	-10.4284
▁leistet	-10.4284
▁Werbung	-10.4302
▁existiert	-10.4302
▁Prozent	-10.4315
▁erheblichen	-10.4321
▁Finanzmittel	-10.4324
▁Überarbeitung	-10.4328
▁grundlegender	-10.4336
Christdemokraten	-10.4339
▁Ausland	-10.4341
▁zunehmende	-10.4342
▁beizutragen	-10.4356
▁bestand	-10.4364
or	-10.4366
▁Ausnahmen	-10.4366
▁begrenzt	-10.4375
▁hinweg	-10.4384
▁vorrangig	-10.4387
▁Datenschutz	-10.4396
▁EVP	-10.4397
I	-10.4403
▁Rindfleisch	-10.4403
▁ärmsten	-10.4414
▁Dänemark	-10.4415
▁Licht	-10.4416
▁demokratisch	-10.4431
▁Verlauf	-10.4434
▁Verlängerung	-10.4435
▁Schulden	-10.4443
▁Grundfreiheiten	-10.4448
▁Kommissare	-10.4453
▁N	-10.4457
▁Unterzeichnung	-10.446
▁Schreiben	-10.4462
▁verzeichnen	-10.4467
▁Ausgleich	-10.4469
▁Auseinandersetz	-10.4473
▁dieselben	-10.4477
▁kontrolliert	-10.448
▁unabhängige	-10.4482
demokratischen	-10.4486
▁unerlässlich	-10.4491
PT	-10.4503
▁insofern	-10.4505
▁außen	-10.451
▁kleiner	-10.4511
▁deutliche	-10.4521
▁oftmals	-10.4524
▁abgeben	-10.4525
Demokratisierung	-10.4528
Vertrag	-10.453
▁eintreten	-10.453
▁Beitrittsländer	-10.4536
▁Zulassung	-10.4539
▁Menschenhandel	-10.455
▁vermitteln	-10.455
▁Zunahme	-10.4551
▁Wachstums	-10.4555
▁Erinnerung	-10.4556
▁Rahmenprogramm	-10.4564
▁gebilligt	-10.4565
▁stärksten	-10.4578
▁Inter	-10.4578
▁Projekten	-10.4586
▁ernsthafte	-10.4592
▁direkten	-10.4593
▁ausgegeben	-10.4597
".	-10.4608
sfragen	-10.4608
▁praktischen	-10.4611
ismus	-10.4616
▁Kompetenz	-10.4619
▁Grundlagen	-10.4619
▁Heimatland	-10.4621
▁beträchtliche	-10.4626
▁erforderliche	-10.4628
▁Einschätzung	-10.463
▁Veränderung	-10.4631
▁Bewältigung	-10.464
▁persönliche	-10.4641
▁Schluß	-10.4644
▁umgehen	-10.465
▁Besonders	-10.466
▁stand	-10.4663
▁Legislativ	-10.4664
▁gefragt	-10.4666
▁Präsidium	-10.4667
srechts	-10.4667
▁solch	-10.4669
▁Wandel	-10.4672
▁einzubeziehen	-10.4673
▁einhalten	-10.4674
▁2013	-10.4679
▁Inneres	-10.4681
wirtschaft	-10.4687
▁hervorragenden	-10.4687
▁schlage	-10.4694
▁gegebenenfalls	-10.4699
▁deutsche	-10.4699
▁Tausende	-10.4706
▁sprach	-10.471
▁gekennzeichnet	-10.4712
▁Geschäft	-10.4712
▁ordnungsgemäß	-10.4714
▁musste	-10.4717
▁beantwortet	-10.4719
▁ausreichende	-10.472
it	-10.4722
▁gleichermaßen	-10.4725
▁Generationen	-10.4731
▁bedauern	-10.4741
9	-10.4747
▁Beschäftigten	-10.4754
▁Aktionsprogramm	-10.4755
▁Haushaltsjahr	-10.4759
▁22	-10.476
▁behauptet	-10.4763
EWG	-10.4771
▁Jahresbericht	-10.4771
▁innere	-10.4777
▁Fortsetzung	-10.4783
▁erläutern	-10.4784
mittel	-10.479
▁Schicksal	-10.4803
▁bezahlen	-10.4804
▁Märkten	-10.4815
▁Arbeitsgruppe	-10.4826
▁gefährden	-10.4829
▁wirtschafts	-10.483
▁derjenigen	-10.4832
▁müßte	-10.4833
▁Menschenrechts	-10.4833
▁entsteht	-10.4836
▁voller	-10.4837
▁Dokumenten	-10.4847
▁übermitteln	-10.485
▁Not	-10.4854
▁verändern	-10.4854
▁Anreize	-10.4855
▁Zwecke	-10.486
▁regeln	-10.486
▁Vision	-10.4861
▁Binnenmarkts	-10.4869
▁öffentlicher	-10.487
▁schrittweise	-10.4873
sprogramm	-10.4876
4-	-10.4877
Abkommen	-10.4878
▁wünschenswert	-10.4881
▁Arbeitgeber	-10.4881
▁fand	-10.4894
▁Erzeugung	-10.4896
▁Strom	-10.4897
▁ständigen	-10.4901
▁funktionierende	-10.491
▁Ebenen	-10.4914
▁natürlichen	-10.4914
▁Kulturen	-10.4915
▁tatsächlichen	-10.4922
▁Genau	-10.4925
▁Vertretung	-10.4935
▁scheinen	-10.4936
▁transeuropäisch	-10.4946
▁Mensch	-10.4954
▁Schulen	-10.4954
▁Ausrichtung	-10.4957
▁Beschränkungen	-10.4961
▁Armee	-10.4963
▁eingeschränkt	-10.4977
▁Großteil	-10.4983
▁Zuge	-10.499
▁Herkunft	-10.4996
ut	-10.5001
▁Luftfahrt	-10.5002
▁enttäuscht	-10.5003
▁Ostsee	-10.5008
▁reduziert	-10.501
▁langfristigen	-10.5014
▁bevorstehenden	-10.502
▁kurze	-10.5023
▁gefährlich	-10.5026
▁tritt	-10.5027
▁gestattet	-10.5031
▁Kürze	-10.5037
▁gestaltet	-10.5037
▁unterliegen	-10.5043
▁alte	-10.5044
▁beiträgt	-10.5045
▁ursprünglich	-10.5053
▁Suche	-10.5057
▁ersetzt	-10.5067
▁verringert	-10.507
▁effiziente	-10.5074
▁wählen	-10.5077
▁bedeutenden	-10.5078
▁ernste	-10.5083
▁eröffnet	-10.5091
00	-10.5095
▁Übereinkommens	-10.5107
▁beweisen	-10.5111
▁Übertragung	-10.5112
▁Eltern	-10.5113
▁hart	-10.5115
▁rechtfertigen	-10.5125
▁beteiligten	-10.5126
▁Statistiken	-10.5129
▁folglich	-10.5131
▁effizienter	-10.5137
▁Widerstand	-10.514
ausschusses	-10.514
▁gewonnen	-10.5149
▁Ratspräsidenten	-10.5152
▁behalten	-10.5152
▁vermieden	-10.5159
▁Flughäfen	-10.5159
▁Tragödie	-10.5166
▁erneuerbare	-10.5168
▁nützlich	-10.5173
▁abgesehen	-10.5174
▁aufbauen	-10.5176
▁abzielt	-10.5179
▁freut	-10.5181
ie	-10.5182
▁einfache	-10.5185
▁zugänglich	-10.5187
▁Zwischen	-10.5189
▁fortgesetzt	-10.5191
▁Angebot	-10.5191
▁Güter	-10.5193
▁leichter	-10.5204
▁öffnen	-10.5207
▁fairen	-10.5218
▁Entschädigung	-10.5226
▁elektronischen	-10.5229
des	-10.5233
isierung	-10.5237
▁erweisen	-10.5239
▁bewiesen	-10.524
▁unterscheiden	-10.5248
Länder	-10.5251
▁gewisser	-10.5256
rat	-10.526
▁zielt	-10.5262
▁widmen	-10.5263
▁Statut	-10.5263
▁Insel	-10.5265
▁Entschließungen	-10.5268
▁Kernenergie	-10.5269
▁umso	-10.5277
▁gehe	-10.5296
▁Finanzen	-10.5298
▁leiten	-10.53
▁genauer	-10.5302
▁eingereichten	-10.5303
▁Anti	-10.5306
▁Wille	-10.5309
▁23	-10.5311
▁zählt	-10.5312
santrägen	-10.5315
▁Nord	-10.5321
▁Kanada	-10.5326
▁Werten	-10.5326
▁Dafürhalten	-10.5338
▁abzielen	-10.534
▁Rechtsetzung	-10.5342
▁Redezeit	-10.5343
▁35	-10.5347
▁Grenz	-10.5355
▁Vorwand	-10.5366
▁akzeptabel	-10.5367
▁private	-10.5368
▁angekündigt	-10.5374
frage	-10.5376
▁vorgebracht	-10.5385
▁ausgewogenen	-10.5389
▁ermutigen	-10.5398
▁Anhang	-10.54
▁erzielten	-10.5402
ssystems	-10.5407
▁zentralen	-10.5409
▁bedenken	-10.5409
▁hierfür	-10.5411
saustausch	-10.5414
▁beenden	-10.5415
weitaus	-10.5418
▁Reise	-10.5421
▁hoher	-10.5422
▁externen	-10.5423
ent	-10.5428
▁gegangen	-10.5431
▁Le	-10.5433
▁konstruktiven	-10.5435
▁Verträgen	-10.5436
▁strenge	-10.5441
▁vorschlägt	-10.5452
▁Versprechen	-10.5457
▁beschleunigen	-10.5463
▁spanische	-10.5464
▁zukommen	-10.5465
▁Rechenschaft	-10.5471
▁mittels	-10.5475
▁Städte	-10.5475
spolitiken	-10.5475
▁Zugangs	-10.5479
▁angehen	-10.5482
▁Unterdrückung	-10.5485
▁hilfreich	-10.5492
▁Palästina	-10.55
▁Eurozone	-10.5501
▁benutzt	-10.5506
▁teilt	-10.5511
▁Standpunkte	-10.5513
▁Inseln	-10.552
▁zerstört	-10.5521
▁organisierten	-10.5523
▁langem	-10.5524
▁Automobil	-10.5526
▁gewählten	-10.5527
▁begangen	-10.5528
▁falsche	-10.553
▁mittel	-10.553
▁Nichtregierungs	-10.5534
▁Alternativen	-10.5538
▁verschiedener	-10.5542
▁Fakten	-10.5542
▁GVO	-10.5543
▁organisierte	-10.5545
▁Alter	-10.5551
▁Albanien	-10.5552
skontrolle	-10.5554
▁Fähigkeiten	-10.5555
▁Ost	-10.5555
▁nahezu	-10.5562
▁Ernennung	-10.5562
▁mögen	-10.5564
▁beglückwünsche	-10.5565
▁erstellt	-10.5567
Ländern	-10.5567
▁zurzeit	-10.5577
▁ausgeführt	-10.5588
▁Beihilfe	-10.5588
▁Sitz	-10.5597
▁einzuhalten	-10.56
▁gefährliche	-10.5604
▁erfolgreiche	-10.5606
▁Vizepräsident	-10.561
svertrag	-10.5614
▁Abstimmungen	-10.5616
▁enger	-10.5618
▁Konzentration	-10.562
▁Bauern	-10.5621
▁einzugehen	-10.5624
▁Regional	-10.5625
▁aufzubauen	-10.5627
▁klären	-10.5627
▁Präsenz	-10.5627
▁Sozialpolitik	-10.5631
▁rufen	-10.5638
▁Van	-10.5647
▁Aussagen	-10.5648
▁Betroffenen	-10.5649
▁Kräften	-10.5658
▁gebe	-10.5659
▁historische	-10.5661
▁Beratung	-10.5662
▁Lateinamerika	-10.5665
▁L	-10.567
ö	-10.5672
▁Marktwirtschaft	-10.5673
▁erheben	-10.5675
▁erfolgreichen	-10.5676
▁davor	-10.5683
▁Fisch	-10.5685
▁Straße	-10.5688
▁Erfolge	-10.5688
▁Ausübung	-10.5692
▁wiederhole	-10.5702
▁Subventionen	-10.5705
▁Glück	-10.5706
0	-10.5711
▁fühlen	-10.5712
▁breiten	-10.5715
▁verhandeln	-10.572
▁fehlende	-10.5722
▁interessant	-10.5723
▁Bilanz	-10.5727
▁Tschetschenien	-10.5734
▁portugiesischen	-10.5737
▁ausführlich	-10.574
▁einfacher	-10.5741
▁Jedoch	-10.5742
▁Sind	-10.5742
▁hohem	-10.5743
▁Sommer	-10.576
▁beitreten	-10.5762
▁Organen	-10.5763
santräge	-10.5767
▁verfügbaren	-10.577
sprozeß	-10.5776
▁korrekt	-10.5782
bau	-10.5784
art	-10.5784
▁liefern	-10.5785
▁Acht	-10.5795
▁Resolution	-10.5796
stellen	-10.5798
▁hierzu	-10.58
▁Pflichten	-10.5802
▁Außengrenzen	-10.5803
▁geeignet	-10.5805
▁Darin	-10.5808
▁Übernahme	-10.5812
▁bewirken	-10.5814
▁bekräftigen	-10.5815
un	-10.5821
▁beruhen	-10.5826
preise	-10.583
▁Palästinenser	-10.5833
▁bezeichnen	-10.5836
sammenzuarbeiten	-10.5837
▁La	-10.5843
▁Mitwirkung	-10.5845
os	-10.5853
▁wahr	-10.5857
▁eigentliche	-10.5859
Politik	-10.5861
▁enormen	-10.5862
Rechtsvorschrift	-10.5864
▁erklärte	-10.5874
heit	-10.5879
▁mal	-10.5882
▁Umstände	-10.5885
▁lokale	-10.5886
skosten	-10.5887
▁Wichtig	-10.5893
▁dasselbe	-10.5895
ra	-10.5907
katastrophen	-10.5915
▁eventuell	-10.5921
▁Beschwerden	-10.5922
▁angeboten	-10.5924
▁Evaluierung	-10.5941
▁diesbezügliche	-10.5943
▁Anwesenheit	-10.5943
▁1,	-10.5952
programme	-10.5956
▁einzig	-10.5959
steuer	-10.5959
▁gelassen	-10.5961
▁erweitert	-10.5961
▁intensiv	-10.5964
▁Somit	-10.597
▁Asien	-10.5974
ma	-10.5975
▁Konvents	-10.5977
▁ehemalige	-10.5985
▁stützen	-10.5985
▁drängen	-10.5987
▁hohes	-10.599
▁Unsicherheit	-10.5991
systeme	-10.6002
▁Termin	-10.6009
▁ausgearbeitet	-10.6011
▁geplant	-10.6013
▁Opfern	-10.6018
▁Glauben	-10.6026
▁afrikanischen	-10.6026
▁bewahren	-10.6035
▁schwieriger	-10.6035
▁Post	-10.6047
▁Stück	-10.605
plan	-10.605
▁wirksamen	-10.6052
▁friedliche	-10.606
▁ergänzen	-10.6061
▁schwedische	-10.6064
▁traditionellen	-10.6067
▁Studenten	-10.6068
▁geprägt	-10.607
▁Steigerung	-10.6071
▁Zucker	-10.6073
▁eigenes	-10.6075
▁lesen	-10.6075
▁beginnt	-10.608
Gipfel	-10.6087
li	-10.6099
▁Litauen	-10.6101
▁Simbabwe	-10.6101
▁heißen	-10.6102
▁beantragt	-10.611
▁Verletzungen	-10.6115
▁gehandelt	-10.6118
▁Meer	-10.6122
ster	-10.6123
▁Fehlen	-10.6124
▁abend	-10.6132
▁verwirklichen	-10.6133
▁neun	-10.6136
▁Verstärkung	-10.614
sstandards	-10.6141
sinstrument	-10.6147
▁Politikbereiche	-10.6148
▁enge	-10.6149
vorschlag	-10.6151
▁Anlagen	-10.6156
▁gehabt	-10.617
▁schnelle	-10.6174
▁Süden	-10.6174
▁genießen	-10.6179
ssektor	-10.6179
sgruppen	-10.618
sbericht	-10.6184
▁Ägypten	-10.6186
▁Arbeitszeit	-10.619
▁höher	-10.6192
▁Bürgerrechte	-10.6193
▁Vorbehalte	-10.6201
smitglied	-10.6203
▁Belastung	-10.6205
▁Freunde	-10.6209
▁Folglich	-10.6216
▁Vorstellungen	-10.6219
▁Bewusstsein	-10.6223
▁Leid	-10.6233
▁Wissens	-10.6234
▁armen	-10.6234
▁Lasten	-10.6236
▁modernen	-10.6238
▁begegnen	-10.6238
▁geklärt	-10.6246
▁Jugoslawien	-10.6256
igkeit	-10.6257
▁erleichtert	-10.6261
▁Tages	-10.6262
▁Gesprächen	-10.6267
▁integrierten	-10.6269
ber	-10.6274
▁kümmern	-10.6277
▁hinzuweisen	-10.6277
▁israelischen	-10.6277
▁Fahrzeuge	-10.6279
▁klarer	-10.6282
▁Kontakte	-10.6282
aufrechterhalten	-10.6284
▁Nachdem	-10.6285
▁Absichten	-10.6287
▁geringe	-10.6294
▁Unserer	-10.6294
▁Saal	-10.6294
▁momentan	-10.6299
▁festen	-10.6301
▁zutiefst	-10.6307
▁Kategorie	-10.6309
▁italienische	-10.6315
▁chinesischen	-10.6321
▁Jahrhunderts	-10.6323
▁technologische	-10.633
▁gering	-10.6333
▁Flüchtlings	-10.6337
▁Sozialdemokrat	-10.6343
▁auszuüben	-10.6345
▁Haushaltsmittel	-10.6354
▁Birma	-10.6354
▁kritisch	-10.6357
▁Z	-10.6363
▁Folter	-10.6367
▁Tradition	-10.6374
▁lokaler	-10.6374
▁Terror	-10.6375
▁Friedensprozess	-10.6385
▁Einfuhr	-10.6397
ien	-10.6403
▁rasche	-10.6409
▁angeblich	-10.641
▁Freihandel	-10.6411
▁Tschechische	-10.6412
▁Einnahmen	-10.6421
▁Grad	-10.6421
▁ökologische	-10.6422
▁gratuliere	-10.6424
▁international	-10.6425
▁Meinungen	-10.6428
▁Steuerung	-10.643
▁ersuchen	-10.6432
▁Immunität	-10.6438
▁gelangt	-10.644
▁Brasilien	-10.644
los	-10.6448
▁ansehen	-10.6454
▁Phänomen	-10.6458
ist	-10.6466
▁zugelassen	-10.6466
bekämpfung	-10.6466
▁Versicherungs	-10.6473
▁führte	-10.6476
▁keinesfalls	-10.6477
▁Sozialpartner	-10.6483
▁verankert	-10.6484
W	-10.6488
▁Fragestunde	-10.6491
▁verstoßen	-10.6493
▁Gewerkschaften	-10.6497
▁weg	-10.6503
▁Auto	-10.6503
▁Dollar	-10.6506
smitglieder	-10.6512
é	-10.6513
▁einnehmen	-10.6516
verkehr	-10.6517
ad	-10.6521
me	-10.6523
▁schenken	-10.6524
▁Bananen	-10.6539
▁vereinfachen	-10.6539
▁vorzuschlagen	-10.6539
▁Arbeitsweise	-10.6542
▁Hafen	-10.6553
▁Vordergrund	-10.6563
▁Doha	-10.6563
▁Rückgang	-10.6563
▁Aufforderung	-10.657
▁Kurs	-10.657
▁ohnehin	-10.6574
Bürger	-10.6578
▁beeinflussen	-10.6579
▁Verzögerungen	-10.6584
▁erkannt	-10.6587
▁zumal	-10.6587
▁GUE	-10.6588
▁1994	-10.6594
▁Wiederherstell	-10.6597
▁Organ	-10.6602
▁Dienststellen	-10.6605
▁derart	-10.661
▁Satz	-10.6612
Europäischen	-10.6621
▁Abfälle	-10.6621
▁beurteilen	-10.6626
▁definieren	-10.6626
▁dieselbe	-10.6643
ere	-10.6647
▁ethnischen	-10.6648
▁gefährlichen	-10.6649
▁außergewöhnlich	-10.665
▁Bedürfnissen	-10.6651
▁Handlungen	-10.6666
▁Tatsächlich	-10.6666
▁dahin	-10.6671
fragen	-10.668
▁einzurichten	-10.6681
▁Bewirtschaftung	-10.6681
▁Rest	-10.6683
▁Luftverkehrs	-10.6685
▁2012	-10.6685
▁klarstellen	-10.6693
▁Größe	-10.6697
▁erhoben	-10.6698
▁transparent	-10.6703
▁Tier	-10.6704
▁bereiten	-10.6705
▁Wieder	-10.6707
▁Zuwanderung	-10.6717
▁verständlich	-10.6717
▁3.	-10.6725
▁Behinderungen	-10.6733
▁verteilt	-10.6737
▁Gipfels	-10.6738
Meinungsäußerung	-10.6738
▁Tunesien	-10.6739
▁wozu	-10.6739
▁Alkohol	-10.6741
▁Beim	-10.6743
▁gewünscht	-10.6746
▁durchgesetzt	-10.675
▁Beobachter	-10.6753
▁Nachmittag	-10.6753
▁organisieren	-10.6753
▁verschaffen	-10.6761
▁Auslegung	-10.6761
▁wofür	-10.6763
la	-10.678
ken	-10.6784
▁amerikanische	-10.6792
▁beinhalten	-10.6802
▁Patten	-10.6802
▁angehören	-10.6805
▁Al	-10.6813
▁Ka	-10.6813
▁könne	-10.6814
▁reisen	-10.6818
▁gefasst	-10.6819
▁amtierenden	-10.6823
regelung	-10.6824
ir	-10.6824
▁ausgeübt	-10.6825
▁fürchte	-10.6826
▁stärkeren	-10.6827
▁b	-10.6828
▁Rechtsrahmen	-10.6831
über	-10.6831
▁auseinander	-10.6833
▁fort	-10.6835
N	-10.684
kosten	-10.6841
▁Privat	-10.6843
▁verursachen	-10.685
▁Landwirten	-10.685
▁dahingehend	-10.685
är	-10.685
▁Alles	-10.6851
▁Folgendes	-10.6865
NGL	-10.6866
▁ignoriert	-10.6866
Strafgerichtshof	-10.6869
▁W	-10.6878
▁anstreben	-10.6879
▁negativ	-10.6892
▁durchsetzen	-10.6898
▁ungeachtet	-10.6901
▁Fischereisektor	-10.6903
▁Stellungnahmen	-10.6904
▁Infrastrukturen	-10.6905
▁Montag	-10.6907
▁Stunde	-10.6912
▁Auswahl	-10.6913
▁Dublin	-10.6915
▁Rahmenbedingung	-10.6916
▁Missbrauch	-10.6922
▁verpflichten	-10.6926
▁jeweils	-10.6931
▁Einschränkung	-10.6931
▁Vorfeld	-10.6931
iv	-10.6946
Veröffentlichung	-10.6947
▁begründet	-10.6951
▁Mission	-10.6954
▁sch	-10.6962
▁sichere	-10.6968
▁Pfeiler	-10.6974
▁Ursache	-10.6977
▁anzupassen	-10.698
▁Südafrika	-10.698
▁berichten	-10.698
▁OLAF	-10.6982
▁Libyen	-10.6988
▁empfehlen	-10.6992
▁wider	-10.6995
▁Gewährung	-10.6997
▁Eines	-10.6998
▁Dort	-10.7005
▁voran	-10.7005
Aussprache	-10.7011
▁Gebühren	-10.7012
System	-10.7013
▁südlichen	-10.7016
▁sozusagen	-10.7016
▁bedaure	-10.7021
▁Gleichwohl	-10.7021
▁ca	-10.7028
wieweit	-10.7035
▁Ent	-10.7035
▁drittens	-10.7036
▁überrascht	-10.7037
▁Vorsitzende	-10.7038
▁Massen	-10.7044
he	-10.7048
▁Luftverkehr	-10.7051
▁umfassen	-10.7054
ell	-10.7077
▁Einfluß	-10.7079
▁streng	-10.7079
▁ausgewogene	-10.7081
▁interne	-10.7082
▁qualitativ	-10.7084
▁Können	-10.7095
▁ausgestattet	-10.7095
Emissionen	-10.7101
gruppen	-10.7102
▁bewertet	-10.7103
▁Erdöl	-10.7103
▁verbieten	-10.7104
▁Groß	-10.7104
▁zieht	-10.7106
▁rechnen	-10.7107
▁gäbe	-10.7112
schutzes	-10.7117
▁realistisch	-10.7121
▁höchsten	-10.7121
sabkommens	-10.7122
▁Einstimmigkeit	-10.7128
▁Demokratische	-10.7129
▁Sitzungen	-10.713
▁Malta	-10.7132
▁Spannungen	-10.7134
▁Syrien	-10.7137
▁20.	-10.7138
▁300	-10.7143
▁unterstrichen	-10.715
▁Lebensmitteln	-10.715
▁verschärft	-10.7153
▁Unternehmer	-10.7155
▁Tür	-10.7163
▁Arbeitskräfte	-10.7164
▁Management	-10.7167
▁Stärke	-10.7169
▁Logik	-10.717
▁Ausgangspunkt	-10.7171
stehen	-10.7173
▁Fristen	-10.7178
▁26	-10.7179
▁Mitte	-10.718
▁2.	-10.718
▁einfachen	-10.7181
▁Rahmens	-10.7181
▁erstellen	-10.7182
▁Annäherung	-10.7187
▁Sozialisten	-10.7191
ta	-10.7193
▁Inflation	-10.7194
▁August	-10.7195
▁verhandelt	-10.7195
▁Innovationen	-10.7201
▁Gemäß	-10.7209
▁manchen	-10.721
▁Libanon	-10.7212
▁effektiver	-10.7216
▁Zielsetzung	-10.7216
▁Derzeit	-10.7223
▁Milch	-10.7225
▁einzuleiten	-10.7237
▁appelliere	-10.7245
▁Nähe	-10.7245
▁London	-10.7246
▁Zerstörung	-10.7247
▁Führer	-10.725
▁Säule	-10.7253
▁Beruf	-10.7255
▁überlegen	-10.7261
forschung	-10.7261
▁bekanntlich	-10.7267
▁außenpolitische	-10.7268
▁Kampagne	-10.7269
▁ALDE	-10.7271
▁erweitern	-10.7271
▁weltweite	-10.7273
verschmutzung	-10.7275
▁Meeres	-10.7275
▁beendet	-10.7279
▁zwölf	-10.7279
▁herzustellen	-10.7279
▁gespielt	-10.7281
▁Verbindungen	-10.7281
L	-10.7287
ALE	-10.7287
▁organisiert	-10.7289
ti	-10.7294
▁Einzelnen	-10.7294
▁Insofern	-10.7296
▁Arbeitsprogramm	-10.7297
di	-10.7308
▁Kohäsionsfonds	-10.7322
▁Lohn	-10.7332
▁eröffnen	-10.7338
▁tief	-10.7347
▁Niemand	-10.7347
▁Nordirland	-10.7347
▁weisen	-10.736
krise	-10.7363
▁bekämpft	-10.7372
▁Kluft	-10.7372
▁Konflikts	-10.7377
▁Budget	-10.7378
▁betrieben	-10.7378
▁beachten	-10.7381
▁Gleichheit	-10.7381
▁erwarte	-10.7381
▁anbieten	-10.7385
▁Ganzes	-10.7387
▁geringer	-10.7388
▁Zusammenhalts	-10.7399
fall	-10.7404
▁dänischen	-10.7405
▁Appell	-10.7405
▁Dynamik	-10.7406
spflicht	-10.7414
▁zwingen	-10.7418
bedingungen	-10.7418
▁Freitag	-10.7422
▁besagt	-10.7422
▁abgeschafft	-10.7423
▁Verzögerung	-10.7427
▁stellte	-10.7428
U	-10.743
▁Ergänzung	-10.7435
▁erweiterten	-10.7436
▁überwacht	-10.7438
▁Weiterbildung	-10.7441
▁National	-10.7443
▁sitzen	-10.7451
ft	-10.7454
▁irgendeine	-10.7456
▁anzugehen	-10.7459
▁Norden	-10.7461
▁übermittelt	-10.7469
▁behindert	-10.747
▁Einzelheiten	-10.7475
▁Anreiz	-10.7476
▁offiziellen	-10.748
▁belgischen	-10.7481
▁Tatsachen	-10.7482
▁Aufstockung	-10.7483
▁Scheitern	-10.7487
go	-10.7489
▁abzulehnen	-10.7492
▁bereitzustellen	-10.7493
▁friedlichen	-10.7495
▁Branche	-10.7496
▁Zentrum	-10.7497
Abstimmung	-10.7502
▁gesichert	-10.7503
▁Wahlkreis	-10.7503
▁eigentlichen	-10.7505
▁schlimmer	-10.7505
▁fortzusetzen	-10.7509
▁müsse	-10.752
▁womit	-10.752
▁wenigsten	-10.7523
▁Werden	-10.7525
▁festhalten	-10.7529
▁vernünftigen	-10.7531
▁sterben	-10.7535
▁richtet	-10.7538
▁Forschungs	-10.7541
▁geblieben	-10.7544
▁Lebensqualität	-10.7544
Rechtssicherheit	-10.7546
verkehrs	-10.7546
▁Koordination	-10.7553
▁koordinieren	-10.7558
▁untergraben	-10.7562
▁Ungleichheiten	-10.7563
▁Mitbürger	-10.7564
as	-10.7567
▁Schließung	-10.757
▁fünfzehn	-10.757
▁finanzieller	-10.757
▁getreten	-10.7576
stand	-10.7578
▁hilft	-10.7579
▁Hilfen	-10.7582
▁gedenkt	-10.7587
▁investiert	-10.7587
Mittelmeer	-10.7589
▁Erstellung	-10.759
▁Liebe	-10.7594
▁Gefängnis	-10.7595
▁Effektivität	-10.7596
gehen	-10.7596
▁Ausschüssen	-10.7598
satz	-10.7604
▁Moldau	-10.7605
▁eingestellt	-10.7607
▁Textes	-10.7616
▁existieren	-10.7621
▁Aufklärung	-10.7622
▁Bevor	-10.7623
▁Gesetzgeber	-10.7631
ität	-10.7632
▁zurückkommen	-10.7632
▁St	-10.7639
▁gewiss	-10.764
▁Menschheit	-10.764
▁geehrter	-10.7644
▁Internationale	-10.7647
▁genaue	-10.7648
▁Lehren	-10.765
▁hinein	-10.7663
on	-10.7663
vor	-10.7663
▁beunruhigt	-10.7666
▁kamen	-10.7666
▁nachzudenken	-10.7667
▁Städten	-10.7669
▁Andere	-10.7676
▁Weil	-10.7676
▁f	-10.7677
▁Ernährungs	-10.7679
▁Minute	-10.7687
▁vorsichtig	-10.769
systems	-10.7691
▁droht	-10.7692
▁19.	-10.7693
▁of	-10.7696
▁ergänzt	-10.7701
▁verstärkten	-10.7702
▁geplanten	-10.7708
▁ungefähr	-10.771
▁Truppen	-10.7714
▁Verheugen	-10.7719
▁gesundheitliche	-10.7719
▁kaufen	-10.7728
▁fertig	-10.7731
▁Protokolls	-10.7732
▁Aufrechterhalt	-10.7736
▁Wortlaut	-10.7737
▁Kapazitäten	-10.7743
▁durchgeführten	-10.7744
▁täglich	-10.7746
▁Defizit	-10.7749
arbeit	-10.775
dienste	-10.7754
▁Privatisierung	-10.7754
▁wenigstens	-10.7759
▁finanziell	-10.776
▁wirksamer	-10.7764
▁deutlicher	-10.777
▁Solana	-10.7772
ia	-10.7775
▁hinzu	-10.7777
▁multilateralen	-10.7778
▁Flüchtlingen	-10.778
▁Jugendliche	-10.7785
Industriepolitik	-10.7789
▁Kopf	-10.7799
▁Kompromisse	-10.7801
▁interessante	-10.7802
▁Parlamentarier	-10.7805
▁Kohle	-10.7806
▁Gefangenen	-10.7806
▁Ashton	-10.7807
▁Richter	-10.7809
▁Verhaltenskodex	-10.7811
▁Hinweise	-10.7811
▁Vorbereitungen	-10.7814
▁Versuche	-10.7817
▁führende	-10.7824
stellung	-10.7827
▁Schweiz	-10.7829
▁Königreichs	-10.7835
▁Viertens	-10.7841
▁beeinträchtigt	-10.7843
▁verzichten	-10.7843
▁Generalsekretär	-10.7847
▁begreifen	-10.7849
▁globaler	-10.7849
▁Aussicht	-10.785
▁Völkern	-10.7853
▁R	-10.786
▁solide	-10.786
institutionelle	-10.7862
▁Leitung	-10.7877
▁beruflichen	-10.7879
▁Indikatoren	-10.7882
▁Errungenschaft	-10.7888
▁gestiegen	-10.7888
▁Verts	-10.7888
konferenz	-10.7893
▁Geltungsbereich	-10.7899
▁langer	-10.7901
▁Abänderung	-10.7901
co	-10.7903
▁Küsten	-10.7908
▁Vorsitzender	-10.7908
▁wachsende	-10.7909
▁sexuellen	-10.791
▁Osteuropa	-10.7911
▁Migranten	-10.7915
▁ausgelöst	-10.7915
▁Darlehen	-10.7918
▁10.	-10.7925
▁k	-10.7928
▁Option	-10.7929
▁Berlin	-10.793
▁Gesetzes	-10.793
▁vorzugehen	-10.793
EU	-10.7939
▁Sachverständige	-10.7942
▁größerer	-10.7944
▁schlechte	-10.7947
▁vollständigen	-10.7947
▁anmerken	-10.7951
▁Beträge	-10.7951
▁abzu	-10.7955
smechanismus	-10.7961
j	-10.7964
▁automatisch	-10.7967
▁bilaterale	-10.7971
▁genetisch	-10.7973
▁Forum	-10.7973
▁türkische	-10.7974
▁Hoch	-10.7975
▁Pro	-10.7977
▁klares	-10.7981
▁wenngleich	-10.7985
ausschuss	-10.7989
▁Instrumenten	-10.7989
▁jährlichen	-10.7994
▁Kurz	-10.7994
▁Amerikaner	-10.7995
▁geeinigt	-10.7996
▁Verkauf	-10.7996
▁Niederlande	-10.8001
Generaldirektion	-10.8005
▁gedacht	-10.8005
strategie	-10.8009
▁wachsenden	-10.801
▁Beitritts	-10.8013
▁Spielraum	-10.8015
▁OSZE	-10.8015
sbestimmungen	-10.8017
▁Fischler	-10.8023
▁rechtlich	-10.8025
▁früh	-10.8028
▁Straßenverkehr	-10.8031
▁hinnehmbar	-10.8032
▁einsetzt	-10.8041
▁geachtet	-10.8041
▁berechtigt	-10.8042
▁fahren	-10.8043
▁ungarischen	-10.8047
▁Gegen	-10.8048
▁derartigen	-10.8056
her	-10.8063
▁teilgenommen	-10.8069
stätigkeit	-10.8072
▁verwirklicht	-10.8078
▁per	-10.8078
▁Eigentum	-10.808
▁beschrieben	-10.8087
▁Kommissars	-10.8088
▁Kriterium	-10.8089
▁dauerhafte	-10.8089
▁Solche	-10.8094
▁versteht	-10.8096
▁lehnen	-10.8097
▁Sachen	-10.8098
▁Bestände	-10.8105
▁Jahrzehnten	-10.811
sarbeit	-10.811
▁ersucht	-10.8117
▁Bedauern	-10.8123
▁Beibehaltung	-10.8133
▁umfangreiche	-10.8134
▁vereinbar	-10.814
▁28	-10.8149
▁Inanspruchnahme	-10.8151
diskriminierung	-10.8157
▁sicheren	-10.8158
▁Beweise	-10.8159
▁makroökonomisch	-10.8161
▁dargestellt	-10.8161
▁anschließend	-10.8162
):	-10.817
▁sämtlichen	-10.817
▁derselben	-10.8171
▁einbringen	-10.8172
handel	-10.8178
▁gestrichen	-10.8179
▁Zusammensetzung	-10.8179
▁wahrnehmen	-10.8179
▁Lernen	-10.8183
regelmäßigkeiten	-10.8185
shaushalt	-10.8192
▁umgehend	-10.8192
▁starkes	-10.8194
▁erläutert	-10.8199
▁geistigen	-10.8202
▁Drittländer	-10.8204
▁Konjunktur	-10.8209
▁13.	-10.821
▁gefallen	-10.8213
▁legislativen	-10.8215
▁Gaza	-10.8225
▁Klaren	-10.8226
▁zunehmenden	-10.823
▁Reden	-10.823
▁territorialen	-10.8231
▁gewahrt	-10.8234
▁Linken	-10.824
▁gebraucht	-10.8243
▁aufgegriffen	-10.8245
▁Mitgliedstaates	-10.8246
▁Traditionen	-10.8247
▁aktiven	-10.8248
▁Staatsangehörig	-10.8251
▁beseitigt	-10.8253
▁Einer	-10.8253
▁technischer	-10.8258
▁1992	-10.8262
▁ausgewogen	-10.8266
▁Heimat	-10.8266
▁konkreter	-10.827
▁denselben	-10.8271
▁versprochen	-10.8271
▁sogenannte	-10.8272
▁Denken	-10.8278
▁Bush	-10.828
▁aussehen	-10.8281
▁Angriffe	-10.8281
▁Rubrik	-10.8288
▁Hunger	-10.829
▁befaßt	-10.829
▁verhalten	-10.829
▁religiösen	-10.8291
▁Fang	-10.8294
▁Legitimität	-10.8299
▁verteidigt	-10.8299
▁Stellenwert	-10.83
▁kritischen	-10.8302
▁75	-10.8308
▁Streit	-10.8314
▁selber	-10.8318
▁Auswärtige	-10.8329
isten	-10.8335
▁endgültig	-10.8336
▁Konflikten	-10.8336
▁unterstreicht	-10.8337
▁ändert	-10.8337
▁problematisch	-10.834
▁illegal	-10.8351
▁Textil	-10.8352
▁Defizite	-10.8352
▁Einzel	-10.8353
parlamentarische	-10.8353
▁Million	-10.8354
bericht	-10.8355
▁Kind	-10.8355
▁Herbst	-10.8356
▁Gewinne	-10.8357
20	-10.8371
▁aufgebaut	-10.8374
▁Amtszeit	-10.8375
▁normalen	-10.8377
wesen	-10.8378
▁sorgt	-10.8384
▁Dass	-10.8385
▁Haftung	-10.839
▁Summe	-10.8393
▁Brok	-10.8393
▁Tendenz	-10.8401
▁Einschränkungen	-10.8403
▁kompliziert	-10.8409
▁Li	-10.841
▁angewiesen	-10.8412
▁vorgesehene	-10.8422
▁Firmen	-10.8423
▁Haushalte	-10.8425
▁Fernsehen	-10.843
▁offenkundig	-10.8433
▁Verwaltungs	-10.8433
▁ignorieren	-10.844
▁voranzubringen	-10.8441
▁Kongo	-10.8441
▁Parlamenten	-10.8442
▁kritisieren	-10.8447
▁Schengener	-10.845
▁Verhinderung	-10.845
▁zwangsläufig	-10.845
▁Schulz	-10.8455
▁angemessener	-10.8456
▁moderne	-10.8459
)).	-10.8464
▁bezahlt	-10.8466
rum	-10.8469
präsidenten	-10.8473
▁kritische	-10.8475
Be	-10.8484
▁Erbe	-10.8485
▁Konsolidierung	-10.8488
▁Umstellung	-10.8494
▁Konkurrenz	-10.8497
▁Weiterhin	-10.8498
▁herum	-10.8502
spräsidenten	-10.8509
▁fehlen	-10.8511
▁vorgetragen	-10.8511
smittel	-10.8511
▁immerhin	-10.8513
▁Freilassung	-10.8517
▁schlechter	-10.8519
▁effektiven	-10.8525
sbürgerschaft	-10.8532
▁vorrangige	-10.8534
staaten	-10.8534
▁Fernseh	-10.8534
▁gewidmet	-10.8536
▁angehört	-10.8542
▁New	-10.8542
▁Vermeidung	-10.8545
sregeln	-10.8548
▁stammen	-10.8549
mo	-10.8554
▁beziehe	-10.8555
▁ehrgeizige	-10.8566
▁Zugleich	-10.8567
▁bürgerliche	-10.8567
▁Projekts	-10.8569
▁beträgt	-10.8574
▁ähnlich	-10.8575
▁gründlich	-10.8579
▁absolute	-10.8582
▁ständige	-10.8582
▁Kunden	-10.8583
▁Stockholm	-10.8584
amerikanischen	-10.8589
▁beeinträchtigen	-10.8593
▁Schon	-10.8594
▁lag	-10.8602
▁einbeziehen	-10.8603
▁mitgeteilt	-10.8603
▁schließt	-10.8603
▁aufgestellt	-10.8607
▁zitiere	-10.8612
▁Ausgewogenheit	-10.8612
▁Enttäuschung	-10.8612
▁Einleitung	-10.8625
▁Gegenwärtig	-10.8632
▁systematisch	-10.8634
▁faire	-10.8634
▁Tampere	-10.8641
▁Vermarktung	-10.8641
▁WWU	-10.8641
▁voranzutreiben	-10.8641
▁eingebunden	-10.8654
▁Überwindung	-10.8661
macht	-10.8661
▁geringen	-10.8664
▁präzise	-10.8665
▁Soldaten	-10.8667
mal	-10.8668
lo	-10.8669
▁transparenter	-10.867
▁Rechtsprechung	-10.867
werk	-10.8673
▁bestraft	-10.868
▁teilzunehmen	-10.868
▁müßten	-10.8685
▁medizinische	-10.8697
%	-10.8698
▁verkauft	-10.87
▁Revolution	-10.8704
▁einziges	-10.8707
▁vorgestellt	-10.8709
▁Verurteilung	-10.8709
▁Algerien	-10.8709
▁festgehalten	-10.871
ressourcen	-10.871
ke	-10.871
▁angepasst	-10.8711
▁Ob	-10.8713
▁gewählte	-10.8717
preis	-10.8718
▁Produktivität	-10.8719
▁Christen	-10.8721
▁dauerhaften	-10.8723
▁bewegt	-10.8723
Kandidatenländer	-10.8724
▁anzuerkennen	-10.8729
▁stattdessen	-10.8729
id	-10.8731
▁einräumen	-10.8731
“.	-10.8738
▁Ziels	-10.8744
▁aufgehoben	-10.8745
▁Begrenzung	-10.8748
▁vertrete	-10.876
▁Detail	-10.8761
▁Helsinki	-10.8768
▁abzuschließen	-10.8768
▁8.	-10.8769
▁geeigneten	-10.877
▁EIB	-10.8772
▁Ratspräsidentin	-10.8776
▁Kürzungen	-10.8777
▁gegenseitig	-10.8786
▁Zusagen	-10.8787
▁Überleben	-10.8788
▁Mengen	-10.8793
bi	-10.8794
▁getroffenen	-10.88
▁Einwände	-10.8807
▁Bisher	-10.8817
▁kurzen	-10.8818
▁benutzen	-10.882
▁steigen	-10.8822
▁4.	-10.8824
▁jeglicher	-10.8825
▁Könnte	-10.8837
▁Gesichtspunkt	-10.8839
▁wirken	-10.8842
▁ursprüngliche	-10.8844
▁Gremien	-10.8849
5-01	-10.8849
▁aufrichtig	-10.8849
▁Unfall	-10.8853
▁Anmerkung	-10.8857
▁Stehende	-10.8867
▁Gesamtheit	-10.8867
▁Texte	-10.8874
▁falschen	-10.8876
▁Blut	-10.8879
▁Verstöße	-10.8879
▁geschafft	-10.8886
▁getötet	-10.8886
▁Privatsphäre	-10.8886
▁abzustimmen	-10.8886
▁1990	-10.8886
▁Nachteil	-10.8887
▁Ablauf	-10.8887
▁einiges	-10.8892
elekommunikation	-10.8894
▁bezogen	-10.8895
▁Stabilisierung	-10.8897
erstattung	-10.89
▁innovative	-10.8903
▁Nation	-10.8906
▁reale	-10.8907
▁zuständige	-10.8908
▁Hoffnungen	-10.8908
▁verbindliche	-10.8912
▁wertvolle	-10.8913
▁berufliche	-10.8915
▁parallel	-10.8916
▁errichten	-10.8916
▁Santer	-10.8916
▁Erwägungen	-10.8916
▁Bedingung	-10.8917
▁knapp	-10.8917
kommen	-10.892
▁Autonomie	-10.8921
▁Gelegenheiten	-10.8922
▁Partnerschaften	-10.8923
▁ehrgeizigen	-10.8925
▁Tempo	-10.8926
▁beweist	-10.8926
▁7.	-10.8927
▁sozioökonomisch	-10.8927
▁Optionen	-10.893
▁längst	-10.8936
▁Sowohl	-10.8946
▁schätzen	-10.8947
▁basieren	-10.8948
▁Rom	-10.8949
▁Finanzminister	-10.8953
sniveau	-10.8954
▁passieren	-10.8956
▁Slowenien	-10.8956
▁Umweltpolitik	-10.8957
▁Vorbild	-10.8958
▁Mexiko	-10.8958
emissionen	-10.897
wirtschaftlichen	-10.897
▁Aufenthalt	-10.8973
▁Klärung	-10.8976
▁Kürzung	-10.8977
▁Tibet	-10.898
▁gelesen	-10.8983
▁externe	-10.8985
▁Diktatur	-10.8991
▁Westen	-10.8995
▁Ereignissen	-10.8997
▁nachhaltig	-10.9002
▁Vertreterin	-10.9004
▁Straftaten	-10.9007
Rat	-10.9009
▁Integrität	-10.9016
▁Betreuung	-10.9025
▁appellieren	-10.9026
▁abzugeben	-10.9027
Verordnung	-10.9027
▁biologischen	-10.9033
tra	-10.9034
▁gebunden	-10.9034
▁besonderes	-10.9036
▁Bemühen	-10.9036
▁hinnehmen	-10.9037
▁Chemikalien	-10.9039
▁offiziell	-10.904
▁angesprochenen	-10.9042
▁liegenden	-10.9044
ländern	-10.9045
▁abschließen	-10.9049
▁lebenden	-10.905
5-	-10.9057
▁gleicher	-10.9058
▁fair	-10.9065
▁Hamas	-10.9066
▁Sicherstellung	-10.9066
▁Nachrichten	-10.9068
▁Drittstaat	-10.9068
▁verbinden	-10.9078
problem	-10.9079
▁Vizepräsidentin	-10.9084
▁Ausgang	-10.9087
▁Seine	-10.9093
▁moralische	-10.9094
▁gewaltige	-10.9096
▁zukünftig	-10.91
▁Regimes	-10.9101
▁Hilfs	-10.9104
▁Fundament	-10.9107
▁Beide	-10.9108
▁bereitstellen	-10.9109
▁mittlerweile	-10.9117
▁Kofinanzierung	-10.9117
▁korrigieren	-10.9127
▁Erreichen	-10.9129
▁überdenken	-10.9129
▁Übersetzung	-10.9129
end	-10.9131
▁31.	-10.9133
eren	-10.9138
▁verliehen	-10.9139
▁seinerzeit	-10.9141
▁zurückkehren	-10.9147
▁Hoheitsgebiet	-10.9147
▁Eingliederung	-10.9147
▁schön	-10.9148
PL	-10.9152
▁Anschluss	-10.9158
▁Tierschutz	-10.9174
ce	-10.9175
▁beantragen	-10.9177
▁Saddam	-10.9178
▁45	-10.918
▁Orientierung	-10.918
▁Verschmutzung	-10.918
▁angeführt	-10.918
▁Fischbestände	-10.9188
▁Einwohner	-10.9191
▁Reaktionen	-10.9194
wert	-10.9199
▁strengere	-10.9202
▁tatsächliche	-10.9202
▁17.	-10.9202
produkte	-10.9205
Investitionsbank	-10.9213
▁Mittwoch	-10.9218
▁gezahlt	-10.9218
Regierung	-10.9221
▁Ursprung	-10.9225
Prozess	-10.9225
▁Darauf	-10.9232
▁vereinbarten	-10.9232
▁Sudan	-10.9239
▁Vormittag	-10.9239
▁integrieren	-10.9239
▁behindern	-10.9239
au	-10.924
▁Komitologie	-10.9249
▁steigern	-10.9249
▁erstmals	-10.9249
▁Dienstleistungs	-10.9249
▁Konservativen	-10.9251
▁Wälder	-10.9255
▁12.	-10.9256
▁positiver	-10.9258
ler	-10.9264
▁strafrechtliche	-10.9265
▁stehende	-10.9272
▁erzeugt	-10.9273
▁Süd	-10.9274
▁Erhalt	-10.9274
▁berichtet	-10.9277
▁wettbewerbs	-10.928
▁zwanzig	-10.928
▁Etikettierung	-10.928
▁Solange	-10.928
▁Finanzrahmen	-10.9282
▁empfohlen	-10.9283
▁Toleranz	-10.9285
▁geleitet	-10.9288
▁vermittelt	-10.929
▁Erde	-10.9293
▁Pakt	-10.9296
▁strengen	-10.9298
▁Finanzmärkte	-10.9298
▁abhängen	-10.9301
▁Wünsche	-10.9307
▁produziert	-10.9311
▁Anlaß	-10.9311
sermächtigungen	-10.9311
Vertrags	-10.9314
▁Je	-10.932
▁geholfen	-10.9321
▁Einmischung	-10.9322
▁Wohlergehen	-10.9332
sätze	-10.9334
▁kurzfristig	-10.9334
▁russische	-10.9342
▁Sozialfonds	-10.9343
rechtlichen	-10.9344
▁billigen	-10.9355
om	-10.9356
▁Krieges	-10.9368
▁Produzenten	-10.9369
▁Perspektiven	-10.9371
▁Israels	-10.9376
▁Schiffen	-10.9377
Krise	-10.9377
▁Flughafen	-10.9377
▁Erkenntnisse	-10.9381
▁stützt	-10.9382
▁Gewinn	-10.9383
▁engagiert	-10.9401
▁vieles	-10.9402
▁Übereinkunft	-10.9404
▁Vorsicht	-10.9405
▁Augenmerk	-10.9405
▁Weltbank	-10.9417
▁vorsehen	-10.9426
▁Qualitäts	-10.9427
▁griechische	-10.9427
▁gesetzlichen	-10.943
▁Beförderung	-10.9433
▁osteuropäischen	-10.9434
▁ansonsten	-10.9436
▁U	-10.9439
▁Vertrauens	-10.9442
ende	-10.9444
COD	-10.9449
▁vertraut	-10.9457
▁Krebs	-10.9458
▁Hauptziel	-10.9463
▁Gedanke	-10.9465
▁abge	-10.9476
▁Vorgaben	-10.9479
▁polnischen	-10.9483
Ver	-10.9488
ze	-10.9488
▁Vergabe	-10.9491
schnellstmöglich	-10.9494
▁Technik	-10.9496
▁Runde	-10.9497
▁Freund	-10.9498
▁retten	-10.9499
▁Persönlichkeit	-10.9505
▁übrig	-10.9519
▁Getreide	-10.9528
▁weise	-10.9536
▁Erzeugnissen	-10.9538
▁6.	-10.9541
vollem	-10.9542
▁Teilnehmer	-10.9545
▁Delegationen	-10.9547
ach	-10.9556
▁benachteiligten	-10.956
ben	-10.9562
▁positives	-10.9562
▁schuldig	-10.9563
▁produzieren	-10.9565
x	-10.957
▁Stufe	-10.9571
tätigkeit	-10.9572
▁Gespräch	-10.9572
▁gesorgt	-10.9573
▁plötzlich	-10.9574
▁Russlands	-10.9578
▁portugiesische	-10.958
▁geschrieben	-10.9591
▁möge	-10.9592
▁veranlassen	-10.9594
▁Substanzen	-10.9597
▁ausreichen	-10.9599
▁schlechten	-10.96
▁Konsultationen	-10.9606
serklärung	-10.9608
▁indirekt	-10.9609
▁halbe	-10.9611
▁Händen	-10.9612
▁Arbeitslosen	-10.9613
▁Protektionismus	-10.9615
▁37	-10.962
▁worauf	-10.9622
▁Brief	-10.9623
▁oberste	-10.9626
▁1993	-10.9633
▁grundlegend	-10.9634
▁anführen	-10.9635
▁Unfälle	-10.9636
▁Bedauerlich	-10.9637
▁Reserve	-10.9637
▁schrecklichen	-10.964
▁nachkommen	-10.9643
▁Zweiten	-10.9648
smechanismen	-10.9651
▁EP	-10.9654
▁ausmachen	-10.9654
▁Computer	-10.9658
▁allmählich	-10.966
ier	-10.9663
▁Hindernis	-10.9668
▁zuzustimmen	-10.9669
▁beider	-10.9673
dienst	-10.9675
sdienste	-10.9678
▁Mädchen	-10.9679
▁5.	-10.9686
arten	-10.9689
ja	-10.9694
▁gerechte	-10.9696
wissenschaftlich	-10.97
▁glücklich	-10.9705
▁technologischen	-10.9706
tag	-10.971
▁re	-10.971
▁verknüpft	-10.9712
▁gesunden	-10.9714
▁selten	-10.9717
▁geltende	-10.9718
▁unterbrochen	-10.9722
▁voneinander	-10.9722
fang	-10.9723
pf	-10.9723
▁genehmigt	-10.9724
▁arabischen	-10.9727
▁Insgesamt	-10.9733
gel	-10.9734
▁Ha	-10.9734
▁geleistete	-10.9737
▁Jahrestag	-10.9744
▁Fach	-10.9744
▁aufgeworfen	-10.9747
▁Material	-10.9748
▁führenden	-10.9749
▁diplomatischen	-10.9753
Verschlechterung	-10.9755
gebiete	-10.9755
▁9.	-10.9756
lei	-10.9757
▁vorgelegte	-10.9758
versammlung	-10.976
▁ernsten	-10.9763
▁Patent	-10.9763
▁Haushaltslinie	-10.9766
finanzierung	-10.9767
▁ähnlichen	-10.977
▁geschenkt	-10.9776
▁Funktionsweise	-10.9777
▁Geschäfts	-10.9777
▁Investoren	-10.9782
▁angenommene	-10.9785
Initiativbericht	-10.9787
instrumente	-10.9788
▁ordnungsgemäße	-10.9789
▁Dritten	-10.9795
▁Befürchtungen	-10.9797
legen	-10.9799
nahme	-10.9799
da	-10.9803
▁verbreitet	-10.9806
▁inneren	-10.9807
▁Plenarsaal	-10.9809
▁namentlich	-10.9811
▁schwerer	-10.9817
▁alternative	-10.9819
▁Erneuerung	-10.982
▁begleitet	-10.982
▁Rechnungshofs	-10.9822
▁Symbol	-10.9824
▁auszuarbeiten	-10.9824
▁obliegt	-10.9831
▁unabdingbar	-10.9832
▁29	-10.9833
▁ausgedrückt	-10.9834
▁Einigkeit	-10.9836
▁Ihres	-10.984
▁Trennung	-10.9842
▁unternimmt	-10.9844
▁grenz	-10.9845
▁Besonderheiten	-10.9847
erzeugnissen	-10.9851
▁Ad	-10.9854
▁ausgehend	-10.9854
do	-10.9855
▁Kindes	-10.9865
▁älteren	-10.9872
▁formulieren	-10.9874
▁32	-10.9877
▁allgemeinem	-10.9879
▁Quellen	-10.9884
▁Endes	-10.9884
▁multinationalen	-10.9884
▁verweigert	-10.9885
▁Zusage	-10.9886
gruppe	-10.989
v	-10.9892
lässlich	-10.9896
▁hervorzuheben	-10.9896
▁Treibhausgase	-10.9902
▁15.	-10.9908
Programms	-10.9913
▁Verluste	-10.9913
▁Nutzer	-10.9914
zen	-10.9917
santrags	-10.9921
fe	-10.9922
▁sensiblen	-10.9929
▁Kauf	-10.994
▁auferlegt	-10.9947
keiten	-10.9949
▁übernimmt	-10.995
▁Einsparungen	-10.9952
▁Su	-10.9952
▁gefährlicher	-10.9964
▁Frühjahr	-10.9964
lage	-10.9965
▁Chinas	-10.9967
▁Datum	-10.9974
▁Bestrebungen	-10.9975
▁Quelle	-10.9975
halten	-10.9975
▁erneuerbarer	-10.9979
▁verfahren	-10.9985
▁nahm	-10.9985
▁aufgerufen	-10.9989
▁Preisen	-10.9992
▁integriert	-10.9993
ill	-10.9994
▁Schule	-10.9994
▁gelernt	-10.9995
▁Rahmenbeschluss	-10.9996
▁aufhören	-10.9999
▁Gemeinden	-11.0017
▁einander	-11.0017
▁widerspiegeln	-11.0018
▁Berufs	-11.0024
▁Grundsatzes	-11.0024
▁blockiert	-11.0029
▁elektronische	-11.0029
▁Visum	-11.003
▁Oder	-11.0031
▁Inhalte	-11.0031
▁Governance	-11.0035
▁Großen	-11.0041
ion	-11.0044
möglichkeiten	-11.0046
▁the	-11.0049
▁Rats	-11.0052
▁Futtermittel	-11.0053
▁Handelspolitik	-11.0056
▁Auflagen	-11.0056
rechtzuerhalten	-11.0062
Haushalt	-11.0066
Sch	-11.0068
▁vorangegangenen	-11.0069
▁Kontinents	-11.007
ed	-11.0072
▁harte	-11.0073
▁GASP	-11.0078
▁vollen	-11.008
▁Einerseits	-11.0084
▁Sieg	-11.0086
▁Hat	-11.009
▁Kinnock	-11.0096
▁Streichung	-11.0096
▁würdigen	-11.0098
▁gesunde	-11.0101
▁schwerwiegende	-11.0102
▁kennt	-11.0105
▁Ungleichgewicht	-11.0107
▁offizielle	-11.0109
schen	-11.0112
▁Unionsbürger	-11.0112
▁Bezeichnung	-11.0114
▁g	-11.0117
▁Verhütung	-11.0118
▁beschäftigungs	-11.0118
▁gutem	-11.0118
04	-11.0126
▁Madrid	-11.0129
▁vorzubereiten	-11.0129
▁Erhebung	-11.0129
Gesundheitswesen	-11.013
▁Lob	-11.0131
▁grundsätzliche	-11.0133
▁illegaler	-11.0135
▁streichen	-11.014
▁Wesen	-11.014
▁dringende	-11.0149
▁aufgreifen	-11.015
▁sexuelle	-11.0154
▁Nigeria	-11.0163
▁Büro	-11.0164
▁Personenverkehr	-11.0169
▁Beendigung	-11.0174
▁Galileo	-11.0174
▁debattieren	-11.0174
▁verkaufen	-11.0174
▁hinausgehen	-11.0175
vi	-11.0177
▁Arbeiter	-11.0182
▁absurd	-11.0182
▁verfügbar	-11.0184
▁engagieren	-11.0188
▁koordiniert	-11.0189
▁schauen	-11.0191
▁Monti	-11.0192
▁Mutter	-11.0198
abschätzung	-11.0204
▁Seeverkehr	-11.0206
CNS	-11.0208
▁sichtbar	-11.021
▁Jede	-11.021
erzeugnisse	-11.0211
▁Schottland	-11.0214
▁technisch	-11.0217
▁Universitäten	-11.0218
▁flexibel	-11.0219
▁bekommt	-11.022
▁Wäre	-11.0221
▁Ruf	-11.0225
hand	-11.0226
▁irgendeiner	-11.0227
▁Weltmarkt	-11.023
▁Rückführung	-11.0231
▁Daß	-11.0232
▁Zusatz	-11.0239
▁errichtet	-11.0242
▁Berg	-11.0251
▁2007-2013	-11.0253
▁Ra	-11.0255
▁aufgezeigt	-11.0261
▁umgekehrt	-11.0265
▁konstruktiv	-11.0265
▁vorankommen	-11.0265
ka	-11.0268
▁ungarische	-11.0268
▁Amsterdamer	-11.027
▁qualifizierte	-11.0271
▁weitergehen	-11.0271
▁Pressefreiheit	-11.0276
▁Aussprachen	-11.0286
▁Bezüglich	-11.0287
▁zivilen	-11.0288
▁Aufteilung	-11.0288
▁gemeint	-11.0292
▁territoriale	-11.0296
▁gestellten	-11.03
▁Hände	-11.0303
Sozialdemokraten	-11.0305
▁Gewässern	-11.0307
▁befürchten	-11.0309
▁Dienstes	-11.0309
▁beachtet	-11.031
▁einschlägigen	-11.0311
▁mangelt	-11.0314
▁vorbereiten	-11.0314
▁Außenhandel	-11.0316
▁Estland	-11.0317
▁gebildet	-11.0317
▁Impulse	-11.032
▁teuer	-11.0322
▁lebt	-11.0327
up	-11.0328
▁Kredit	-11.0332
▁wahre	-11.0338
▁Erdgas	-11.0339
Nein	-11.0344
▁verbesserte	-11.0344
▁Holz	-11.0345
▁einzuräumen	-11.0345
▁Registrierung	-11.0345
▁spüren	-11.0348
▁erkennt	-11.0351
▁integrierte	-11.0352
sgrundlage	-11.0356
▁Strafen	-11.036
sfindung	-11.036
▁irgendwelche	-11.036
IT	-11.0361
enden	-11.0367
▁Gleiche	-11.0368
▁Fahrer	-11.037
▁Anbau	-11.0373
▁vorbei	-11.0376
▁Territorium	-11.0376
▁beizubehalten	-11.0379
▁heutzutage	-11.0379
▁Blair	-11.0379
▁Standard	-11.038
ei	-11.0387
▁informellen	-11.039
▁Vertiefung	-11.039
management	-11.0394
▁Erleichterung	-11.0401
▁Schiff	-11.0402
▁gefällt	-11.0402
▁Fremdenfeind	-11.0402
▁festgeschrieben	-11.0403
▁Start	-11.0404
▁Allein	-11.0415
smethode	-11.0417
srunde	-11.0424
▁ausgedehnt	-11.0425
▁Fahrzeug	-11.0429
▁Akteuren	-11.0431
▁eingebrachten	-11.0441
kriterien	-11.0443
▁Arzneimitteln	-11.0443
seinrichtungen	-11.0444
sphase	-11.0446
▁Föderation	-11.0448
▁Gehör	-11.0448
▁bauen	-11.0449
▁Di	-11.0449
▁Flugzeug	-11.0451
op	-11.0452
beauftragte	-11.0455
▁Aktionsplans	-11.0455
▁Auffassungen	-11.0458
bild	-11.0459
nd	-11.0459
▁Erziehung	-11.0461
▁Pflanzen	-11.0468
▁verschärfen	-11.0471
▁Werk	-11.0472
▁Freiwilligen	-11.0472
▁tätigen	-11.0474
▁besseres	-11.0481
▁Mitgliedstaats	-11.0481
▁natürliche	-11.0491
▁bisweilen	-11.0495
▁bedürfen	-11.0498
ak	-11.05
▁Energieversorg	-11.0501
▁komplizierten	-11.0504
▁Ereignis	-11.0505
▁demnächst	-11.0506
▁kostet	-11.0506
▁schweigen	-11.0506
▁entziehen	-11.0507
▁zukommt	-11.0508
seiten	-11.0509
▁bemerken	-11.0509
▁effizienten	-11.0512
▁Handelsabkommen	-11.0513
▁Wachstumspakt	-11.052
▁t	-11.052
▁dauern	-11.053
▁messen	-11.0531
▁seiten	-11.0531
▁Obergrenze	-11.0538
▁Unrecht	-11.0538
▁haushalts	-11.0541
▁Mitarbeitern	-11.0542
▁We	-11.0543
▁Schwerpunkte	-11.0551
regionen	-11.056
▁Ausfuhr	-11.0561
▁jemals	-11.0565
▁Eröffnung	-11.0565
▁Grenzwerte	-11.0571
▁Lettland	-11.0572
▁faktisch	-11.0576
▁vermutlich	-11.0576
▁Redebeitrag	-11.0577
▁Spitze	-11.0582
gesetzgebung	-11.0584
gebieten	-11.0594
hin	-11.0595
▁Betreiber	-11.0606
mit	-11.0609
ah	-11.061
▁Autos	-11.0613
▁Glückwunsch	-11.0623
na	-11.0626
▁Fußball	-11.0627
sorganisation	-11.063
▁wert	-11.063
▁unterzeichnen	-11.0635
▁Förder	-11.0637
▁vertrauen	-11.0644
▁gescheitert	-11.0646
▁Du	-11.0646
sprobleme	-11.065
▁freiwillige	-11.0655
▁Buch	-11.0656
fonds	-11.0657
▁unannehmbar	-11.0659
▁widerspiegelt	-11.0659
▁abgehalten	-11.0659
sinstrumente	-11.0662
▁400	-11.0668
▁Geschwindigkeit	-11.0671
▁Indonesien	-11.0671
▁Labour	-11.0671
▁Bestreben	-11.0671
▁14.	-11.0675
▁energisch	-11.0675
▁Lärm	-11.0679
▁Gleichberechtig	-11.0681
▁Hussein	-11.0683
▁Ganzen	-11.0687
bestimmungen	-11.0694
▁bewirkt	-11.0695
▁Laut	-11.0695
▁Nacht	-11.0701
▁junger	-11.0703
▁36	-11.0703
▁Weltwirtschaft	-11.0704
▁Danke	-11.0707
▁Wald	-11.071
min	-11.0722
▁geteilt	-11.0725
▁Gut	-11.0727
▁Lager	-11.073
▁stärkt	-11.073
▁vorausgesetzt	-11.073
igt	-11.0734
▁El	-11.074
▁Nachricht	-11.0741
▁ratifizieren	-11.0742
▁vielfach	-11.0744
▁letztes	-11.0745
▁einleiten	-11.075
▁Florenz	-11.0754
▁Beobachtung	-11.0754
volle	-11.0756
▁Angehörigen	-11.0761
▁kosten	-11.0762
▁Produktions	-11.0762
▁Erdbeben	-11.0763
▁Zivilisation	-11.0765
▁verschwinden	-11.0766
res	-11.0767
verwaltung	-11.0768
▁realen	-11.0771
sminister	-11.0772
▁Bord	-11.0775
▁Akzeptanz	-11.0778
▁Vollendung	-11.0778
▁zerstören	-11.0778
ger	-11.0778
▁zügig	-11.078
▁Gegebenheiten	-11.079
▁personenbezogen	-11.079
▁versetzt	-11.0791
▁greifen	-11.0792
sammengearbeitet	-11.0792
▁Wohl	-11.0793
▁ältere	-11.0796
SV	-11.0798
▁wirft	-11.0799
haltung	-11.08
äu	-11.0807
▁vorlegt	-11.0808
Außenbeziehungen	-11.081
▁Vielmehr	-11.0814
▁Beschlusses	-11.0815
▁unmittelbare	-11.0824
▁ermutigt	-11.0826
▁Votum	-11.0826
▁16.	-11.0829
▁vereinfacht	-11.0832
▁Falls	-11.0833
▁Europarat	-11.0833
▁empfehle	-11.0833
▁strukturellen	-11.0836
pa	-11.0837
▁Haben	-11.0838
▁transparente	-11.0838
ausstattung	-11.0838
▁begrenzen	-11.0839
▁wünscht	-11.0847
▁Autorität	-11.085
▁Völkerrecht	-11.0853
▁Protest	-11.0857
▁zusammenarbeite	-11.0866
kt	-11.0868
smodell	-11.0869
▁enorm	-11.087
▁Einreise	-11.0876
▁OECD	-11.0877
istischen	-11.0878
▁üblich	-11.0878
kl	-11.0881
▁erreichten	-11.0881
▁analysieren	-11.0886
▁versetzen	-11.0887
▁Umstand	-11.0888
▁entschuldigen	-11.089
▁eindringlich	-11.089
▁Akt	-11.0892
▁Bestätigung	-11.0898
▁zuversichtlich	-11.0898
▁Anzeichen	-11.0899
▁tragischen	-11.0901
▁Mühe	-11.0907
▁beurteilt	-11.091
▁Nachteile	-11.0911
▁Europäern	-11.0912
▁Aufstellung	-11.0915
▁schlimmsten	-11.0918
äh	-11.0921
ert	-11.0922
▁Gegner	-11.0922
▁egal	-11.0923
▁Gestern	-11.0923
▁kleineren	-11.0932
▁Soweit	-11.0936
▁facto	-11.0941
▁niedrigen	-11.0942
Ausnahmeregelung	-11.0942
▁Sicherheitsrat	-11.0942
staat	-11.0944
▁Genfer	-11.0944
▁Dossier	-11.0947
▁York	-11.0947
▁Genugtuung	-11.0947
▁engen	-11.0947
▁folgendes	-11.0948
▁Einbindung	-11.0948
▁18.	-11.095
▁betrachte	-11.0955
▁33	-11.0955
▁kenne	-11.0956
▁Themas	-11.0958
▁werfen	-11.0961
paket	-11.0961
▁Reisen	-11.097
▁Eigenmittel	-11.0971
technologie	-11.0973
regelungen	-11.0977
sausgaben	-11.098
▁Hongkong	-11.0983
▁festlegt	-11.0984
▁Verstoß	-11.0986
▁Pflege	-11.0988
▁allgemeiner	-11.0989
▁sicherer	-11.0989
▁übereinstimmen	-11.0992
raum	-11.0994
▁p	-11.0994
▁geltend	-11.0995
▁Rednern	-11.0998
▁erlangen	-11.0998
rt	-11.0999
kontrolle	-11.0999
▁bemerkt	-11.1
▁Ernährung	-11.1
ba	-11.1002
▁Rechtsakte	-11.1002
▁zugesagt	-11.101
interessen	-11.1014
▁Verfasserin	-11.1015
▁riesige	-11.1016
▁brachte	-11.1018
▁unterhalten	-11.1029
▁eingehend	-11.103
▁Frattini	-11.1032
▁Nordkorea	-11.1032
▁Euroraum	-11.1033
▁wirkt	-11.1043
▁Biotechnologie	-11.1045
▁sofortige	-11.105
▁Martin	-11.1057
▁gesundheits	-11.1057
▁liefert	-11.1057
▁engere	-11.1066
▁betone	-11.1067
bgesehen	-11.1068
▁erkennbar	-11.1069
▁üblichen	-11.1073
▁Beantwortung	-11.1082
▁HIV	-11.1082
▁aufgeführt	-11.1085
▁nachhaltiger	-11.1088
Ja	-11.109
▁zulässig	-11.1098
Beitritt	-11.1098
▁Vorsitzes	-11.1106
▁unterscheidet	-11.1106
▁verschieben	-11.1107
▁Ursprungs	-11.111
▁eingetreten	-11.1112
▁herrschen	-11.1113
sicht	-11.1116
▁31	-11.1131
▁Ex	-11.1138
▁begrüßenswert	-11.1139
voll	-11.1139
▁verbindlich	-11.114
▁Erfordernisse	-11.1143
▁stoppen	-11.1144
▁intensive	-11.1149
▁wächst	-11.1151
▁Ro	-11.1155
▁Laeken	-11.1156
bringen	-11.1156
▁zahlreicher	-11.1164
á	-11.1168
▁veranlasst	-11.1168
▁Beispielsweise	-11.1169
▁Abschnitt	-11.1174
wie	-11.1178
▁verabschiedeten	-11.1183
▁Befürworter	-11.1183
▁Dr	-11.1192
ca	-11.1196
▁weitem	-11.1196
▁Anlage	-11.1201
ungs	-11.1202
NL	-11.1209
▁Test	-11.1212
▁ermitteln	-11.1215
ausschuß	-11.122
gebiet	-11.1228
rei	-11.123
▁Kolumbien	-11.1232
▁interessieren	-11.1234
▁i	-11.1235
▁Verhandlungs	-11.1237
▁Sa	-11.1241
übergreifende	-11.1243
▁gekürzt	-11.1243
▁verdanken	-11.1243
Rahmenrichtlinie	-11.1248
▁kommerziellen	-11.1253
▁biologische	-11.1255
▁Ruhe	-11.1255
▁abgedeckt	-11.1256
▁Wiederaufnahme	-11.1256
po	-11.1258
rück	-11.1263
▁verschlechtert	-11.1268
▁stammt	-11.1268
▁Diejenigen	-11.1269
▁beträchtlichen	-11.1269
▁Davon	-11.1269
arischen	-11.1275
▁verlängert	-11.1281
▁Ansätze	-11.1282
▁eigener	-11.1282
▁Konsequenz	-11.1283
sführung	-11.1286
▁aufzu	-11.1287
▁30.	-11.1288
ag	-11.1289
▁48	-11.1289
▁150	-11.129
▁erfreulich	-11.129
▁konsultiert	-11.1294
▁Strafverfolgung	-11.1294
▁einzustellen	-11.1296
länder	-11.1296
▁finnischen	-11.13
Zivilbevölkerung	-11.13
▁Gerichte	-11.1302
behörde	-11.1307
▁entlassen	-11.1308
▁Artikels	-11.1308
▁Schul	-11.1311
▁getrennt	-11.1311
▁Mandats	-11.1314
▁Konsum	-11.1318
▁Washington	-11.1319
▁erfasst	-11.132
▁gegründet	-11.1332
▁Mitgefühl	-11.1332
▁örtlichen	-11.1332
▁glaubwürdig	-11.1334
▁erbracht	-11.1334
Entwicklungsziel	-11.1338
Beschlussfassung	-11.1342
▁herbeizuführen	-11.1344
▁überwunden	-11.1347
▁Menschenleben	-11.135
fern	-11.1352
▁Direkt	-11.1353
staatlichen	-11.1353
▁Angleichung	-11.1357
▁ihrerseits	-11.1362
▁besucht	-11.1362
▁abhängt	-11.137
▁dürften	-11.137
▁verhängt	-11.1375
▁ausländische	-11.1377
▁ausgenommen	-11.1377
▁Schätzungen	-11.1381
▁Peking	-11.1382
▁alt	-11.1388
▁Prozesse	-11.1392
▁erschwert	-11.1395
▁Wann	-11.1395
▁leidet	-11.1396
branche	-11.1396
fähigkeit	-11.1397
▁Drei	-11.1405
▁gewachsen	-11.1406
▁23.	-11.1407
▁Eigentums	-11.1407
▁vergeben	-11.1408
▁aufhalten	-11.1412
▁Auswirkung	-11.1412
▁begrenzten	-11.1415
▁Schatten	-11.1416
▁erzeugen	-11.1417
▁gründliche	-11.1418
▁Stattdessen	-11.142
▁Signale	-11.1422
▁veränderten	-11.1425
▁Beschlüssen	-11.1428
▁anderswo	-11.1428
▁legislative	-11.1432
▁genügt	-11.1433
▁gründet	-11.1433
▁Diensten	-11.1435
▁Jedes	-11.144
▁großartige	-11.1441
▁zeitlich	-11.1444
▁entscheidet	-11.1446
▁abzuschaffen	-11.1446
▁Sichtweise	-11.145
grenzen	-11.145
▁Import	-11.1452
▁zugeben	-11.1456
krieg	-11.1457
▁Zuverlässigkeit	-11.1459
▁definitiv	-11.1461
▁Beschränkung	-11.1461
▁m	-11.1463
▁bisschen	-11.1465
▁Kon	-11.1467
▁umfassender	-11.1467
▁einseitig	-11.1479
▁unmittelbaren	-11.148
▁—	-11.1485
▁Erholung	-11.1485
mi	-11.1486
▁israelische	-11.1489
▁freiwilligen	-11.1492
▁anstelle	-11.1495
▁verschoben	-11.1497
▁3,	-11.1505
▁Lebensbedingung	-11.1509
Palästinensische	-11.151
▁Göteborg	-11.151
▁Aussetzung	-11.1513
▁erfolgte	-11.1515
verordnung	-11.152
▁Gute	-11.152
▁Darfur	-11.1523
kraft	-11.1528
▁vereinbaren	-11.153
▁worüber	-11.1536
▁berührt	-11.1536
▁Eurostat	-11.1538
▁West	-11.154
missverständlich	-11.154
▁strikt	-11.154
▁Monopol	-11.1543
▁islamischen	-11.1546
▁Griechenlands	-11.1546
▁Haftbefehl	-11.1548
▁anerkennt	-11.1549
▁gesenkt	-11.1549
▁verstößt	-11.1549
▁imstande	-11.1549
▁befürchte	-11.155
▁standen	-11.1556
▁schaden	-11.1558
▁Türen	-11.156
▁widerspricht	-11.1562
▁Instabilität	-11.1564
▁Eigenschaft	-11.1565
▁erstes	-11.1567
▁34	-11.1568
▁Diesbezüglich	-11.1575
▁Interpretation	-11.1575
▁Schande	-11.1575
▁anpassen	-11.1575
▁eingegangenen	-11.158
▁Kenntnisse	-11.158
friedenstellend	-11.1581
Herangehensweise	-11.1582
ph	-11.1584
▁agieren	-11.1586
▁senden	-11.1586
▁Pa	-11.1589
▁industriellen	-11.1591
▁komplexen	-11.1596
▁Ermittlung	-11.1604
▁Sozialmodell	-11.1605
▁c	-11.1607
▁Bahn	-11.161
▁angegangen	-11.161
▁Flächen	-11.1613
▁veröffentlichen	-11.1614
▁häufiger	-11.1615
▁Impuls	-11.1616
▁Begriffe	-11.1616
Schlussfolgerung	-11.1617
out	-11.1619
▁Besitz	-11.162
▁überflüssig	-11.1626
▁operative	-11.1627
▁nutzt	-11.1627
▁damalige	-11.1627
▁verursachten	-11.1627
obachtungsstelle	-11.1629
▁widersprechen	-11.1634
▁Konsumenten	-11.1635
▁herausgestellt	-11.164
▁jährliche	-11.1641
▁Kapazität	-11.1643
form	-11.1645
▁Rechtsstaat	-11.1652
▁Bolkestein	-11.1653
▁Swoboda	-11.1653
▁begrenzte	-11.1653
▁Viertel	-11.1653
▁ausgeht	-11.1653
▁Konzepte	-11.1653
▁Barnier	-11.1666
▁hindern	-11.1666
sa	-11.1666
▁normalerweise	-11.1667
Übereinkommen	-11.1667
va	-11.1667
ton	-11.1678
▁Zuerst	-11.1679
▁spiegelt	-11.1679
▁diesmal	-11.168
sbefugnisse	-11.1684
▁IWF	-11.1684
pe	-11.1685
▁Kategorien	-11.1691
▁Last	-11.1692
▁Atmosphäre	-11.1692
▁Griff	-11.1692
▁ehe	-11.1694
▁spätestens	-11.1705
▁aufzufordern	-11.1705
▁begehen	-11.1707
▁Ma	-11.171
lose	-11.171
▁22.	-11.1711
▁zuteil	-11.1716
▁Auslieferung	-11.1725
ug	-11.1728
▁nachzukommen	-11.1731
▁stabile	-11.1731
▁Verwirrung	-11.1732
▁demzufolge	-11.1732
▁untereinander	-11.1732
▁Daraus	-11.1732
▁verlaufen	-11.1732
▁streben	-11.1734
▁Skandal	-11.174
▁San	-11.1741
▁bekannten	-11.1741
▁bestanden	-11.1742
▁anscheinend	-11.1745
▁Montenegro	-11.1747
▁unverzichtbar	-11.1752
▁Gewässer	-11.1754
▁Herz	-11.1755
▁niedrig	-11.1755
▁Millenniums	-11.1763
▁zentraler	-11.1764
▁gestrigen	-11.1765
zeiten	-11.1766
erzeugung	-11.1768
▁Beschwerde	-11.1771
man	-11.1772
log	-11.1775
am	-11.1776
wechsel	-11.1782
sprinzips	-11.1785
▁ELDR	-11.1787
▁detaillierte	-11.1788
▁ausführliche	-11.1788
▁Zug	-11.1789
▁Verbrauch	-11.179
▁geöffnet	-11.1798
▁Staatsanwalt	-11.1798
▁belgische	-11.1801
▁Verhältnisse	-11.1803
▁leid	-11.1804
▁täglichen	-11.1806
skriterien	-11.1806
▁widersprüchlich	-11.1811
▁Qualifikationen	-11.1814
▁aktuell	-11.1815
▁Legislaturperio	-11.1817
▁Gott	-11.1817
▁Ta	-11.1819
▁Front	-11.1819
▁sämtlicher	-11.182
▁steckt	-11.1821
▁nötigen	-11.1824
▁Palacio	-11.1824
▁Geber	-11.1827
▁aufweist	-11.1832
▁42	-11.1835
▁zugewiesen	-11.1837
▁verweist	-11.1838
ierten	-11.1838
▁Jean	-11.1838
▁benachteiligt	-11.1841
▁Verlagerung	-11.1842
▁qualifizierter	-11.1843
anlagen	-11.1844
ale	-11.1847
pi	-11.1849
▁Ausdehnung	-11.1851
▁Streben	-11.1851
▁optimistisch	-11.1851
▁zweckmäßig	-11.1851
▁lebenslange	-11.1851
▁höchster	-11.1853
anhand	-11.1854
▁Standort	-11.1858
Meinungsfreiheit	-11.1858
▁Merkmale	-11.1863
▁verdeutlicht	-11.1864
▁meint	-11.1865
▁Eingreifen	-11.1866
▁medizinischen	-11.1867
▁juristischen	-11.1871
▁terroristischen	-11.1873
▁hervorgeht	-11.1878
08	-11.1879
▁gesetzliche	-11.1882
ment	-11.1886
▁Olympische	-11.1891
▁Quecksilber	-11.1891
▁Beschäftigungs	-11.1894
▁religiöse	-11.1899
teil	-11.1902
▁Wahrscheinlich	-11.1904
▁Details	-11.1905
cht	-11.1908
▁Hinzu	-11.1908
ordnung	-11.191
Kommission	-11.1913
Das	-11.1913
▁schnellen	-11.1915
▁schlicht	-11.1918
▁Haiti	-11.1918
▁sah	-11.1922
setzung	-11.1924
region	-11.1928
Institutionen	-11.193
▁ECHO	-11.1931
▁Unterscheidung	-11.1931
▁Deregulierung	-11.1931
▁anti	-11.1932
▁2015	-11.1932
▁vorherigen	-11.1936
▁einzelner	-11.1939
▁REACH	-11.1944
▁ausschlaggebend	-11.1944
▁ermordet	-11.1944
▁Tests	-11.1954
▁zunehmen	-11.1955
▁Analysen	-11.1957
teroperabilität	-11.1958
▁Linke	-11.1963
ff	-11.1965
▁korrekte	-11.1981
Diversifizierung	-11.1985
▁Vorbeugung	-11.1985
isieren	-11.1987
▁hinreichend	-11.199
▁25.	-11.1994
▁glaubt	-11.1995
▁Willens	-11.1999
▁mache	-11.2004
▁halb	-11.2004
▁anstehenden	-11.2009
▁hiermit	-11.201
▁Gewissen	-11.2013
▁gerechten	-11.2023
▁Rezession	-11.2026
▁versichert	-11.2026
▁Organismen	-11.2026
▁Wahlperiode	-11.2026
▁ablehnt	-11.2026
▁mußte	-11.2029
▁rufe	-11.203
▁Vorsorgeprinzip	-11.2031
▁eindeutigen	-11.2036
▁stellvertretend	-11.2039
▁Blockade	-11.2039
▁anfangen	-11.2039
▁gemessen	-11.2039
▁Menschenhandels	-11.2042
5-03	-11.2043
tion	-11.2043
▁Asylpolitik	-11.2043
▁höre	-11.2044
▁gründen	-11.2045
Frage	-11.2048
ür	-11.2052
▁Gegenseitigkeit	-11.2053
▁herstellen	-11.2054
sp	-11.2055
missionen	-11.2058
▁aufweisen	-11.206
▁betreffende	-11.2063
▁angefangen	-11.2066
▁belegen	-11.2067
Haushaltsbehörde	-11.2067
▁Verweis	-11.2069
▁Thematik	-11.2069
▁Welthandel	-11.207
Abkommens	-11.2074
▁steigt	-11.208
▁hochrangige	-11.2083
▁Hunderte	-11.2083
▁Kampfes	-11.2085
▁gemeldet	-11.2086
ssituation	-11.209
▁Geldwäsche	-11.2094
▁Bildungs	-11.2096
▁inhaltlich	-11.2098
▁Aufruf	-11.2101
▁Einvernehmen	-11.2107
▁zunichte	-11.2107
Verhandlungen	-11.211
▁Straßenverkehrs	-11.211
▁Mord	-11.2111
▁bekunden	-11.2118
▁Medikamente	-11.212
▁zweifelsohne	-11.2121
▁Verarbeitung	-11.2123
▁reine	-11.2125
▁Obst	-11.2126
ät	-11.2127
▁fließen	-11.213
ziehen	-11.2131
▁Satelliten	-11.2131
▁Ersatz	-11.2133
▁Schwächen	-11.2138
▁Stadium	-11.2148
▁ausgeweitet	-11.2148
▁vierte	-11.215
▁Rentner	-11.2154
▁Milliarde	-11.2155
▁klein	-11.2157
erstatter	-11.2157
▁vorne	-11.2159
▁zivile	-11.216
▁Sowjetunion	-11.2162
▁Einsetzung	-11.2166
▁fehlenden	-11.2173
▁schriftliche	-11.218
▁Zwischenzeit	-11.2185
▁ausreichenden	-11.2186
▁verlängern	-11.219
▁Demokratien	-11.219
liches	-11.22
ium	-11.22
Haushaltsordnung	-11.2202
▁Vereinbarkeit	-11.2203
▁darlegen	-11.2206
▁Lücken	-11.2211
▁kommende	-11.2211
▁Meinungsv	-11.2217
▁Potential	-11.2217
▁Sozialversicher	-11.2218
tu	-11.2229
▁Nationalstaaten	-11.2231
erschiedenheiten	-11.2231
▁Anhebung	-11.2231
▁Atom	-11.2231
▁Sozialistische	-11.2234
▁kontinuierlich	-11.2234
regulierung	-11.224
▁beschlossenen	-11.2244
▁unverständlich	-11.2244
▁Behinderung	-11.2251
▁gesammelt	-11.2259
▁Flotte	-11.226
konstitutionelle	-11.226
▁Einfuhren	-11.2263
▁gerufen	-11.2263
▁potenziellen	-11.2268
▁geografischen	-11.2269
sformen	-11.2269
▁überschritten	-11.2273
defizit	-11.2278
▁einheitliches	-11.2281
▁zugenommen	-11.2286
▁Vietnam	-11.2287
▁Anpassungen	-11.2287
▁belegt	-11.2287
▁sinnvolle	-11.2288
▁veränderte	-11.229
lu	-11.2296
▁angestrebt	-11.2302
▁J	-11.2302
ich	-11.2306
▁traditionelle	-11.2309
sprachen	-11.2313
▁Spielzeug	-11.2314
▁Verschiebung	-11.2314
▁nein	-11.2316
▁Rand	-11.232
▁stehe	-11.232
▁Wochenende	-11.2322
▁Michel	-11.2323
▁sprachen	-11.2324
▁umweltpolitisch	-11.2325
▁Grundprinzipien	-11.2329
▁unterliegt	-11.233
▁hochwertige	-11.2331
▁Friedensprozeß	-11.2331
▁gewaltigen	-11.2333
anforderungen	-11.2338
▁gefaßt	-11.234
sinitiative	-11.2342
▁angegeben	-11.235
▁jetzige	-11.235
▁birgt	-11.2356
▁Gremium	-11.2361
ierte	-11.2363
▁End	-11.2363
▁jahrelang	-11.2364
▁Beamte	-11.2364
▁Nahrungsmitteln	-11.2366
ssicherheit	-11.2367
▁annimmt	-11.2368
▁kommunistischen	-11.237
infrastruktur	-11.2374
▁multilaterale	-11.2376
losen	-11.2376
▁lehnt	-11.2379
▁95	-11.2379
▁späteren	-11.2384
derherzustellen	-11.2384
▁ausreicht	-11.2384
▁Zusammen	-11.2386
▁digitalen	-11.2392
abstimmung	-11.2394
Konferenz	-11.2396
daten	-11.2399
▁anzubieten	-11.2399
▁24.	-11.2399
▁Korea	-11.2403
▁Entschuldigung	-11.2403
▁stoßen	-11.2404
▁Mauer	-11.2407
zug	-11.2416
▁Armen	-11.2418
zahl	-11.242
▁ethnische	-11.2422
▁Afrikas	-11.2423
▁hundert	-11.2426
▁Menschenwürde	-11.2427
sprogrammen	-11.2436
▁abzubauen	-11.2441
▁Sitzungsperiode	-11.2441
▁Plenarsitzung	-11.2449
▁einstellen	-11.2449
▁Gib	-11.245
Runde	-11.2453
gang	-11.2454
▁vorantreiben	-11.2455
▁Bereits	-11.2455
▁Einhalt	-11.2456
▁Grüne	-11.2458
▁ernsthaften	-11.246
▁demnach	-11.2461
▁Versorgungs	-11.2462
verfolgbarkeit	-11.2469
Europa	-11.2471
▁Strukturpolitik	-11.2475
minister	-11.2476
▁43	-11.2477
▁Milosevic	-11.2483
▁Maßstab	-11.2483
▁Fortschritten	-11.2485
▁Rechtfertigung	-11.2485
▁Verbrechens	-11.2487
mechanismen	-11.249
▁Anschein	-11.2494
▁erbringen	-11.2495
mitteln	-11.2495
▁International	-11.2495
▁Cotonou	-11.2497
▁geschah	-11.2498
▁Rücksicht	-11.2498
swert	-11.25
▁Freihandelszone	-11.2501
übergreifenden	-11.2503
Recht	-11.2504
▁Befreiung	-11.2506
▁Streitkräfte	-11.2512
▁angeregt	-11.2512
▁Daran	-11.2513
▁Zeitung	-11.2515
▁4,	-11.2519
▁Kriegs	-11.2523
smethoden	-11.2524
▁europaweit	-11.2527
▁Umweltschutzes	-11.2527
haft	-11.2527
▁Währungspolitik	-11.2532
▁zugehört	-11.2533
▁Fahr	-11.2534
▁Löhne	-11.2536
▁ausgeben	-11.2538
bald	-11.254
▁schützt	-11.254
▁Mugabe	-11.254
▁obligatorische	-11.254
▁Emissionshandel	-11.2542
▁Taiwan	-11.2544
▁Massenver	-11.2544
▁administrativen	-11.2548
▁geführten	-11.2552
▁übersehen	-11.2552
▁unnötig	-11.2553
▁Wien	-11.2554
▁tschechischen	-11.2557
▁Instruments	-11.2558
situation	-11.2559
▁Ganze	-11.2561
▁geringere	-11.2563
▁Energieträger	-11.2566
▁freier	-11.2569
▁übergehen	-11.257
▁aufeinander	-11.2576
▁Steuerpolitik	-11.2577
▁Asylbewerber	-11.2579
▁internationales	-11.258
▁erhielt	-11.2582
▁2,	-11.2584
▁diplomatische	-11.2585
buch	-11.2594
▁ausländischen	-11.2597
▁Erfordernissen	-11.2599
▁bürokratischen	-11.26
▁Entwicklungs	-11.2601
▁ausdrücken	-11.2604
▁schwach	-11.2607
▁strategischer	-11.2608
▁ethischen	-11.2612
▁berufen	-11.2612
▁­	-11.2613
▁vergleichen	-11.2614
▁geäußerten	-11.2617
▁Se	-11.2621
sbereiche	-11.2621
sträger	-11.2621
losigkeit	-11.2623
▁Genf	-11.263
▁Zwangs	-11.2632
▁einge	-11.264
▁Frontex	-11.2641
▁zurückgezogen	-11.2641
▁decken	-11.2641
▁potenzielle	-11.2641
▁Zivilisten	-11.2642
▁erzielte	-11.2647
▁elf	-11.2653
▁Tragweite	-11.2655
▁einseitige	-11.2657
▁iranischen	-11.2658
▁schwerwiegenden	-11.266
­	-11.2669
srahmen	-11.2669
arbeiter	-11.2672
▁Lande	-11.2673
▁Operation	-11.2673
▁Islam	-11.2678
▁Ansatzes	-11.268
so	-11.2683
▁Volksabstimmung	-11.2684
▁ersuche	-11.2686
▁Neue	-11.2689
▁hervorragend	-11.269
▁breit	-11.2696
▁normal	-11.2708
▁bedanke	-11.271
▁zuzulassen	-11.271
▁erachtet	-11.2712
▁mitberatende	-11.2713
▁mehrmals	-11.2715
▁bedeutender	-11.2716
▁staatlicher	-11.2723
▁Kombination	-11.2728
▁analysiert	-11.2728
▁vonnöten	-11.2728
▁UEN	-11.2728
▁Seeverkehrs	-11.2731
▁einschränken	-11.2732
▁Kommentare	-11.2737
jahr	-11.274
▁größtenteils	-11.2742
▁unterrichtet	-11.2742
▁hervorgerufen	-11.2742
▁wissensbasierte	-11.2742
barkeit	-11.2744
▁nationales	-11.2746
▁nuklearen	-11.2747
tisch	-11.275
ling	-11.2752
▁Null	-11.2756
▁zwingend	-11.2757
▁Hierbei	-11.2758
▁Ansehen	-11.2758
▁geplante	-11.2759
▁Belastungen	-11.2763
▁Verschärfung	-11.2771
▁reformieren	-11.2771
▁Betrügereien	-11.2771
▁Verdacht	-11.2772
▁Besetzung	-11.2772
▁Zyperns	-11.2774
Ge	-11.2774
▁Völkermord	-11.2778
▁juristische	-11.2779
▁Indem	-11.2779
▁Wählern	-11.278
schlag	-11.2781
hi	-11.2781
▁Vereinigung	-11.2781
▁Verkehrspolitik	-11.2783
▁38	-11.2785
▁Parallel	-11.2786
▁reformiert	-11.2786
▁Planeten	-11.2786
▁vorgeschrieben	-11.2786
svertrags	-11.279
▁Telekommuni	-11.2793
▁Trinkwasser	-11.2801
▁stecken	-11.2804
▁unten	-11.2808
▁Anders	-11.2809
reichen	-11.2809
▁operationelle	-11.2812
ck	-11.2812
▁größtmögliche	-11.2813
▁besuchen	-11.2815
▁Höchst	-11.2815
▁mehrjährigen	-11.2817
leg	-11.282
▁geschickt	-11.2822
▁65	-11.2825
▁irakischen	-11.2826
▁Kein	-11.2827
▁harmonisieren	-11.283
▁vertiefen	-11.283
▁Obgleich	-11.283
▁auseinandersetz	-11.2835
▁Aussichten	-11.2837
▁dramatischen	-11.2838
▁Schlag	-11.2838
▁beträchtlich	-11.2838
▁Bewohner	-11.2842
▁objektiv	-11.2845
▁Leiden	-11.2846
▁wesentliches	-11.2853
▁Wirtschaftsraum	-11.2854
druck	-11.2855
▁massive	-11.2856
▁Moskau	-11.2859
▁ausgebaut	-11.2859
▁erstaunt	-11.2859
▁selben	-11.2859
▁Mobilisierung	-11.2859
▁anzusprechen	-11.2859
ou	-11.2864
▁Korrektur	-11.287
▁zweierlei	-11.2874
▁Zugeständnisse	-11.2875
▁klargestellt	-11.2876
▁55	-11.2877
▁legale	-11.2879
ziel	-11.2881
▁stabilen	-11.2882
▁Atomwaffen	-11.2889
▁wahrgenommen	-11.2889
▁Rumäniens	-11.2894
▁Interventionen	-11.2898
▁mehrheitlich	-11.2904
fallen	-11.2907
iz	-11.2911
▁einhergehen	-11.2912
▁individuellen	-11.2914
istische	-11.2915
10	-11.2918
▁PHARE	-11.2918
▁Tschernobyl	-11.2918
▁bedauert	-11.2918
Gruppe	-11.2919
▁generelle	-11.2926
▁Profit	-11.2927
▁begünstigt	-11.2929
▁Übergangs	-11.2929
▁Berechnung	-11.2929
▁demonstrieren	-11.2933
▁vernachlässigt	-11.2933
▁beigetreten	-11.2937
▁treiben	-11.2938
isiert	-11.2942
▁Tode	-11.2944
▁kubanische	-11.2948
▁verdeutlichen	-11.2948
▁Überblick	-11.2949
+	-11.2949
spartnerschaft	-11.2949
▁strukturelle	-11.295
▁Durchschnitt	-11.295
etrugsbekämpfung	-11.295
▁Küste	-11.2958
▁Behinderten	-11.2959
▁Demonstration	-11.296
▁Fluggäste	-11.2961
▁morgigen	-11.2963
▁Gefährdung	-11.2963
▁Zusammenbruch	-11.2963
▁MEDA	-11.2963
▁legitimen	-11.2965
▁belastet	-11.2967
▁derartiger	-11.2967
▁Na	-11.2967
▁eingenommen	-11.2969
▁wertvollen	-11.297
.000	-11.2971
▁stattfand	-11.2974
srechte	-11.2974
▁breiter	-11.2977
▁Norwegen	-11.2978
▁bedenkt	-11.2978
▁Strafe	-11.2978
spunkt	-11.2983
▁Reichtum	-11.2983
eine	-11.2986
pflicht	-11.2987
fi	-11.2989
▁Wahrnehmung	-11.2993
▁korrigiert	-11.2993
▁1991	-11.2993
▁unbe	-11.2997
Raum	-11.3
▁Tor	-11.3001
▁beachtliche	-11.3002
▁verwaltet	-11.3004
▁Überlegung	-11.3004
▁Nuklear	-11.3007
bewirtschaftung	-11.3008
▁Hoffentlich	-11.3008
▁empfiehlt	-11.3008
investitionen	-11.3008
▁flexible	-11.301
▁größeres	-11.3012
▁nachhaltiges	-11.3018
▁Kontinuität	-11.3023
▁Zufriedenheit	-11.3023
▁auszubauen	-11.3023
▁wachsam	-11.3023
▁Ausgehend	-11.3023
zi	-11.3024
▁aufgeben	-11.3027
ide	-11.3029
▁einzu	-11.3037
▁Aserbaidschan	-11.3038
▁neuesten	-11.3039
▁Passagiere	-11.3046
weise	-11.3048
▁ausmacht	-11.3049
▁Qualifikation	-11.3049
▁ernannt	-11.3053
nichtungswaffen	-11.3053
bo	-11.3055
schaftlicher	-11.3058
▁Belange	-11.306
austausch	-11.3068
▁vorgegangen	-11.3069
▁Paris	-11.307
▁intensivieren	-11.307
▁diskriminiert	-11.3071
▁Verwaltungen	-11.3076
▁Hierzu	-11.3077
▁Motor	-11.3078
kontrollen	-11.3078
▁Fortschritts	-11.3079
▁Sozialpartnern	-11.308
▁nützliche	-11.308
▁Schiene	-11.3083
weit	-11.3086
ng	-11.3089
trittskandidaten	-11.3092
▁Straf	-11.3096
▁ausgegangen	-11.3098
▁Rückzug	-11.3098
kr	-11.31
▁alternativen	-11.3102
▁Abfällen	-11.3108
glücklicherweise	-11.3109
▁Forscher	-11.3113
▁vorbehaltlos	-11.3113
▁herausstellen	-11.3114
▁Aufwand	-11.3115
▁unnötige	-11.3115
▁rechts	-11.3115
▁Gesicht	-11.3128
▁Darstellung	-11.3128
▁reproduktive	-11.3131
sregelung	-11.3143
▁begriffen	-11.3144
▁Leuten	-11.3145
staatliche	-11.3152
▁Klausel	-11.3153
▁vertretenen	-11.3158
▁mitunter	-11.3158
▁frühere	-11.3158
▁Präzedenzfall	-11.3159
▁Versöhnung	-11.3159
▁auszusprechen	-11.3159
▁bedeutsam	-11.3162
▁Register	-11.3164
svorschlags	-11.3165
▁doppelte	-11.3165
▁eingeladen	-11.3172
▁Ton	-11.3173
▁irgendwann	-11.3174
▁zuweilen	-11.3174
no	-11.3174
▁gegebenen	-11.3181
▁ko	-11.3182
▁Rundfunk	-11.3186
▁Behauptung	-11.3186
bestände	-11.3187
setzen	-11.3188
▁verhaftet	-11.3189
▁eingangs	-11.3189
▁Entwurfs	-11.3189
▁Haushaltslinien	-11.319
▁Mercosur	-11.3191
ru	-11.3192
▁Klimaschutz	-11.3194
▁Traum	-11.32
▁Substanz	-11.32
▁Europawahlen	-11.3204
▁baltischen	-11.3204
▁gefangen	-11.3204
▁Ungleichheit	-11.3217
▁Entsorgung	-11.3219
▁Zollunion	-11.322
▁Schutzmaßnahmen	-11.3222
▁Philosophie	-11.3224
▁Rahmenprogramms	-11.3226
punkt	-11.3227
▁bewaffneten	-11.3228
größter	-11.323
ly	-11.3232
▁begann	-11.3232
vo	-11.3234
▁Stilllegung	-11.3235
▁Haushaltskon	-11.3235
▁Aufschwung	-11.3235
▁planen	-11.3235
▁Staatsbürger	-11.3237
▁Zielvorgaben	-11.3239
▁1989	-11.324
▁Geiste	-11.3242
Ein	-11.3243
▁Spar	-11.3249
sergebnisse	-11.3249
▁vergangen	-11.325
▁Ambitionen	-11.3251
▁kleinere	-11.3251
▁feste	-11.3263
▁Beschleunigung	-11.3265
▁ECOFIN	-11.3265
▁exportieren	-11.3265
abgeordneten	-11.3267
▁Unglück	-11.3268
▁welch	-11.3268
skraft	-11.3269
gi	-11.3272
▁geliefert	-11.3275
▁SIS	-11.3275
▁vorn	-11.3275
▁flexibler	-11.3279
▁Stahl	-11.328
▁handelte	-11.3281
nvorschlag	-11.3281
▁audiovisuellen	-11.3281
hoc	-11.3286
▁Geschehnisse	-11.3296
ho	-11.3298
▁bürokratische	-11.3299
▁Rinder	-11.3299
▁geistige	-11.3306
▁Betrieben	-11.3308
ob	-11.3308
▁eingreifen	-11.3308
▁lächerlich	-11.3312
▁profitiert	-11.3312
▁unlängst	-11.3312
rie	-11.3312
▁Auftreten	-11.3313
▁Monats	-11.3315
struktur	-11.3315
▁Koalition	-11.3316
▁alleine	-11.3322
▁gedrängt	-11.3322
▁handels	-11.3325
▁Kambodscha	-11.3327
▁normale	-11.3329
Initiative	-11.333
bare	-11.3335
sorgniserregend	-11.3338
▁Flotten	-11.3339
▁Völkerrechts	-11.334
▁Unterlagen	-11.3341
leistungen	-11.3341
▁Referenden	-11.3342
▁Effekt	-11.3344
▁logisch	-11.3346
probleme	-11.3347
▁Systemen	-11.3348
▁einzubringen	-11.3349
▁III	-11.335
ri	-11.3352
▁Diesen	-11.3353
sbekämpfung	-11.3356
▁Widersprüche	-11.3358
projekte	-11.3359
▁städtischen	-11.3362
rechtskonvention	-11.3364
▁präsentiert	-11.3366
▁Ermittlungen	-11.337
▁Schiffs	-11.3372
▁Vorkehrungen	-11.3373
▁unterworfen	-11.3373
▁Version	-11.3374
▁Bedrohungen	-11.3374
förderung	-11.3374
▁freiwillig	-11.3376
▁Flugzeuge	-11.338
▁verbindlichen	-11.338
sstrukturen	-11.338
▁auszu	-11.338
▁Fischfang	-11.3381
▁nachteilig	-11.3383
reform	-11.3385
▁Berufung	-11.3388
▁Petitionen	-11.3388
▁Online	-11.3389
▁gefolgt	-11.3389
▁gänzlich	-11.3389
▁nieder	-11.3391
ot	-11.3393
▁niedriger	-11.3396
▁vereint	-11.3396
lösung	-11.3397
ord	-11.34
▁Sein	-11.3401
▁Wind	-11.3404
▁Bühne	-11.3404
▁gewissermaßen	-11.3405
▁vollzogen	-11.3405
▁Zweifellos	-11.3406
▁völlige	-11.3409
▁Emissions	-11.341
▁niedrige	-11.3412
▁Eigen	-11.3416
jährigen	-11.3417
▁hofft	-11.342
▁Ca	-11.3421
▁geschätzt	-11.3423
▁Weitere	-11.3425
▁Akteur	-11.3428
ß	-11.3431
▁Anhänger	-11.3433
▁Befugnis	-11.3435
▁legalen	-11.3437
▁forderte	-11.3437
▁Mehrzahl	-11.3442
▁beklagen	-11.3445
▁Spiele	-11.3445
▁maximal	-11.3448
▁fähig	-11.3449
▁Vernunft	-11.3451
▁Ersuchen	-11.3451
▁Wiederbelebung	-11.3451
▁Ungerechtigkeit	-11.3451
ine	-11.3453
▁Politikern	-11.3454
▁Me	-11.3456
▁Gesetzen	-11.3459
▁schreckliche	-11.3463
tausend	-11.3465
▁Klarstellung	-11.3465
▁intelligente	-11.3466
▁eingestuft	-11.3471
mangel	-11.3474
kauf	-11.3475
▁26.	-11.3476
▁mußten	-11.3476
▁ökonomischen	-11.3477
▁28.	-11.3477
märkte	-11.3478
Verfahren	-11.3479
marktes	-11.3482
anz	-11.3482
▁Mißbrauch	-11.3483
▁Ängste	-11.3483
▁Botschaften	-11.3485
Zone	-11.3487
▁Kernkraftwerke	-11.3487
▁erweiterte	-11.3492
▁aufgetreten	-11.3493
hl	-11.3495
▁heran	-11.3497
▁dauerhaft	-11.3502
▁soziales	-11.3503
mechanismus	-11.3506
▁umfangreichen	-11.3509
▁Team	-11.351
▁global	-11.3512
▁abgebaut	-11.3514
▁debattiert	-11.3514
▁Bekanntlich	-11.3514
▁Br	-11.3515
▁dänische	-11.3517
gesetz	-11.3519
sorgane	-11.3523
▁Sprach	-11.353
▁Posselt	-11.353
▁üben	-11.353
▁fortfahren	-11.353
▁vielerlei	-11.353
▁Anregungen	-11.3533
▁Wegen	-11.3534
▁verletzen	-11.3535
▁aufzustellen	-11.3537
ziele	-11.3545
▁GMO	-11.3546
▁gravierende	-11.3546
▁humanitärer	-11.3546
▁liberalen	-11.3548
▁kurzer	-11.3549
▁auszuschließen	-11.3549
▁rechten	-11.3552
▁Zusätzlich	-11.3561
▁mobilisieren	-11.3561
▁unverändert	-11.3561
▁aufzuheben	-11.3561
▁Erstes	-11.3565
▁Kunst	-11.3567
▁vorzusehen	-11.3568
▁Gebäuden	-11.3568
▁chinesische	-11.357
▁objektive	-11.3573
▁koordinierte	-11.3574
▁unklar	-11.3576
▁Empfänger	-11.358
▁Ärzte	-11.3582
▁Film	-11.3586
hersteller	-11.3587
▁Freunden	-11.3587
vorschläge	-11.3589
▁Sri	-11.3594
▁verfasst	-11.3595
▁Stoffen	-11.3597
▁Geschäfte	-11.3602
▁ließ	-11.3606
▁Differenzen	-11.3608
▁Putin	-11.3609
▁Übel	-11.3609
▁bloße	-11.3609
▁warnen	-11.361
sektors	-11.3611
▁Unterrichtung	-11.3613
▁beschleunigt	-11.3613
▁dramatisch	-11.3619
▁Cancún	-11.3625
▁beitrittswillig	-11.3625
▁Taliban	-11.3625
unverantwortlich	-11.3626
produkt	-11.3626
▁sozialistischen	-11.3628
sklausel	-11.3633
▁Realisierung	-11.3641
▁ehrgeizig	-11.3644
▁Zeitungen	-11.3646
▁leichte	-11.3648
▁Besitzstand	-11.3652
▁Grundrecht	-11.3656
▁Entstehung	-11.3657
▁zeugt	-11.3657
▁Umgebung	-11.3657
▁Anhörungen	-11.3664
Autonomiebehörde	-11.3665
▁massiv	-11.3669
▁Geräte	-11.3672
▁besetzt	-11.3672
▁Übermittlung	-11.3673
▁auszuweiten	-11.3673
▁Preisstabilität	-11.3673
▁gemein	-11.3674
03	-11.3678
“,	-11.3682
führen	-11.3686
▁einzuschränken	-11.3689
▁erweist	-11.3692
▁fanden	-11.3694
Sicherheitsrates	-11.3694
▁auswirkt	-11.3694
▁Industrieländer	-11.3695
ry	-11.3696
▁Einsatzes	-11.3697
▁Gestalt	-11.37
sprozesse	-11.3701
▁Nachbarländern	-11.3701
sche	-11.3703
▁nennt	-11.3705
▁Elend	-11.3705
▁eventuelle	-11.3707
▁Glückwünsche	-11.3709
▁realistische	-11.3711
▁Zufall	-11.3712
▁Rechtsakt	-11.3712
▁raschen	-11.3715
▁Sacharow	-11.3721
▁Sei	-11.3722
weg	-11.3726
▁Kredite	-11.3727
behörden	-11.3727
sehen	-11.3731
▁echter	-11.3732
vollen	-11.3732
▁Erlass	-11.3733
▁regelmäßigen	-11.3736
30	-11.3739
▁Zigaretten	-11.3739
▁dorthin	-11.374
Projekt	-11.3741
▁schreiben	-11.3742
▁wahrhaft	-11.3743
▁Vorgänger	-11.3744
splan	-11.3745
▁Erfordernis	-11.3752
▁Professor	-11.3753
▁Schwangerschaft	-11.3753
▁erschweren	-11.3754
▁Demonstrationen	-11.3757
seite	-11.3767
▁demselben	-11.3769
▁wende	-11.3769
▁befreien	-11.377
▁verweise	-11.3775
▁Büros	-11.3777
▁la	-11.3781
▁bisherige	-11.3782
▁ausgezeichnet	-11.3783
verbot	-11.3784
▁Lanka	-11.3785
werte	-11.3786
Überschwemmungen	-11.3786
▁Botschafter	-11.3788
▁jederzeit	-11.3791
▁herzlichen	-11.3792
▁Doppel	-11.3795
▁Gültigkeit	-11.3796
sinitiativen	-11.3801
▁Hunderttausende	-11.3801
▁ausschließen	-11.3806
▁Aquakultur	-11.3808
all	-11.3809
▁demokratisches	-11.381
vertrag	-11.3813
▁Betriebs	-11.3816
▁Hass	-11.3817
▁Verwertung	-11.3818
how	-11.3818
▁aufrufen	-11.3818
▁Mo	-11.3819
gibt	-11.3824
▁unglaublich	-11.3824
▁geradezu	-11.3827
▁Luftraum	-11.3828
▁Füßen	-11.3829
and	-11.3831
▁Ministerin	-11.3832
▁Moratorium	-11.3834
▁Guantánamo	-11.3834
▁zwingt	-11.3834
▁Statuts	-11.3834
tritt	-11.3842
demokratische	-11.3846
▁legte	-11.3848
▁Verfügbarkeit	-11.385
▁Abrüstung	-11.385
▁Summen	-11.3851
ga	-11.3853
▁nachgewiesen	-11.3854
▁interessanten	-11.3854
▁Vorfälle	-11.3857
▁sucht	-11.3862
▁chemischen	-11.3863
▁Geburt	-11.3866
▁Thunfisch	-11.3872
▁Rettung	-11.3874
▁He	-11.3879
▁empfangen	-11.3883
▁anhaltende	-11.3886
▁entsprechender	-11.3888
gänge	-11.3889
▁rechtmäßig	-11.389
▁29.	-11.3891
▁Anklage	-11.3891
▁strikte	-11.3893
▁Kar	-11.3894
sziele	-11.3896
▁sonstigen	-11.3897
▁östlichen	-11.3897
▁gebührt	-11.3899
▁auffordert	-11.3901
▁umfassendes	-11.3903
hältnismäßigkeit	-11.3904
▁Lehre	-11.391
est	-11.3911
▁Spektrum	-11.3915
▁bestrebt	-11.3915
▁greift	-11.3915
▁hinzugefügt	-11.3915
▁Komplexität	-11.3915
▁Anstatt	-11.3916
etzungsverfahren	-11.3917
akt	-11.3918
▁perfekt	-11.3923
▁Haft	-11.3923
teilen	-11.3928
mon	-11.3929
seits	-11.393
rechtliche	-11.3931
Waffenstillstand	-11.3932
▁orientieren	-11.3932
▁abwarten	-11.3932
▁Prozentsatz	-11.3933
▁hierher	-11.3935
skampagnen	-11.3938
▁Angabe	-11.3939
per	-11.3942
gehalt	-11.3942
▁verweigern	-11.3948
▁systematische	-11.3949
gekommen	-11.395
kommt	-11.3953
▁gegenüberstehen	-11.3955
▁Verdienst	-11.3956
▁ausgelegt	-11.3957
▁komplizierte	-11.3961
▁Ho	-11.3962
Mittel	-11.3962
▁tiefe	-11.3962
▁national	-11.3963
▁begründen	-11.3965
▁Natura	-11.3968
▁rücken	-11.3973
▁beinahe	-11.3975
ov	-11.3977
rechts	-11.3978
▁voraussichtlich	-11.3981
▁prüft	-11.3981
▁Pack	-11.3982
▁zusätzlicher	-11.3983
▁Diplomatie	-11.3984
▁vormittag	-11.3985
▁Bo	-11.3986
▁beauftragt	-11.3986
▁Binnen	-11.3986
▁Etappe	-11.3987
▁bewährte	-11.3987
▁Aktionspläne	-11.3988
▁Ehe	-11.3993
▁Wirtschaften	-11.3994
gleichberechtigt	-11.3994
▁Recycling	-11.3998
▁registriert	-11.3998
▁TACIS	-11.3998
gu	-11.4002
▁anzu	-11.4005
EL	-11.4005
port	-11.4007
▁Grundzüge	-11.4007
si	-11.401
▁denkt	-11.401
▁gelegen	-11.4011
▁massiven	-11.4018
▁Bio	-11.4019
▁steigenden	-11.4021
▁zweimal	-11.4022
sbehörde	-11.4023
zubringen	-11.4029
▁Mich	-11.403
▁zitieren	-11.4031
▁vorangetrieben	-11.4031
▁vage	-11.4031
▁Dienstag	-11.4032
▁einheitlich	-11.4034
40	-11.4038
stelle	-11.4039
▁Anbieter	-11.404
▁überschreiten	-11.4044
▁deutliches	-11.4047
vereinbarung	-11.4047
▁Abstand	-11.4049
ic	-11.4052
▁praktiziert	-11.4057
▁Rande	-11.4057
spläne	-11.4059
▁kohärente	-11.406
programms	-11.406
▁obligatorischen	-11.4061
▁tragische	-11.4063
▁Kohlendioxid	-11.4064
▁geschlechts	-11.4064
▁Besatzung	-11.4065
▁Propaganda	-11.4067
▁Frankreichs	-11.4076
sel	-11.4078
▁Massaker	-11.4081
▁verliert	-11.4081
▁Universität	-11.4086
alität	-11.4088
▁digitale	-11.4089
▁individuelle	-11.4089
▁and	-11.4089
▁machte	-11.409
▁Artenvielfalt	-11.4097
▁Damals	-11.4098
▁unerläßlich	-11.4098
▁tot	-11.4098
▁Neues	-11.4099
▁Funktionen	-11.4102
▁Kraftstoff	-11.4103
▁Klasse	-11.4107
▁Kompromisses	-11.4107
geht	-11.4108
J	-11.4112
▁Watson	-11.4114
gt	-11.412
▁GFP	-11.4121
▁nördlichen	-11.4122
▁deutlichen	-11.4125
▁600	-11.4125
▁Agrarsektor	-11.4126
▁Gemüse	-11.4127
▁Branchen	-11.4128
▁innovativen	-11.4129
▁Immer	-11.4131
gegangen	-11.4131
▁legal	-11.4132
Er	-11.4134
▁Feld	-11.4136
▁44	-11.4144
▁Keine	-11.4147
▁erstaunlich	-11.4147
▁Andernfalls	-11.4147
▁Minimum	-11.4147
▁voranzukommen	-11.4148
▁ausgewogenes	-11.4154
hol	-11.416
▁Her	-11.416
produkten	-11.4161
bereiche	-11.4165
▁enttäuschend	-11.4168
▁besserer	-11.417
▁abhalten	-11.4172
▁Lücke	-11.4172
▁lehne	-11.4172
ven	-11.4181
▁ergreift	-11.4181
▁versäumt	-11.4181
▁Statt	-11.4181
berg	-11.4181
▁terroristische	-11.4182
▁verbundene	-11.4187
▁Medizin	-11.4191
▁bevorstehende	-11.4193
zukommen	-11.4194
▁gestützt	-11.4197
▁schicken	-11.4197
▁Nehmen	-11.4198
▁Wallström	-11.4198
liste	-11.4198
▁Osteuropas	-11.4204
▁Island	-11.4209
▁polnische	-11.4212
▁regelmäßige	-11.422
▁industrielle	-11.4227
▁ungerecht	-11.423
Sensibilisierung	-11.4232
▁Poettering	-11.4232
▁Hemmnisse	-11.4232
▁Verfahrensweise	-11.4234
▁Rüstungs	-11.4248
▁Führungsrolle	-11.4248
▁GD	-11.4249
▁zielen	-11.4249
▁Inzwischen	-11.4249
▁Erfassung	-11.425
▁prinzipiell	-11.4251
▁gedenken	-11.4255
▁innenpolitische	-11.4258
▁Sprecher	-11.4265
▁Wortmeldung	-11.4268
▁verwendeten	-11.4269
▁Vertragsverl	-11.4277
▁offener	-11.4278
▁Finanzhilfe	-11.4279
pol	-11.428
▁vergleichbar	-11.4282
▁Abwesenheit	-11.4282
▁Modalitäten	-11.4282
▁andernfalls	-11.4282
▁Formulierungen	-11.4285
▁Arbeitsmarktes	-11.429
▁gehöre	-11.4291
▁mehrerer	-11.4292
▁strenger	-11.4296
▁aktiver	-11.4298
▁verbesserten	-11.4299
skörperschaften	-11.4299
▁gekämpft	-11.4299
▁Durchbruch	-11.43
▁Betonung	-11.43
▁Menschlichkeit	-11.4301
▁beobachtet	-11.4303
▁schädlich	-11.4303
last	-11.4307
schaftswahlen	-11.4307
▁Teils	-11.4307
sdisziplin	-11.431
▁Jarzembowski	-11.4316
fahrzeuge	-11.4318
▁legitim	-11.4319
▁geschlossenen	-11.4319
▁längere	-11.432
▁dramatische	-11.4321
bestand	-11.4322
▁präsent	-11.4323
▁Währungs	-11.433
ott	-11.4334
▁se	-11.4334
▁Wünschen	-11.434
▁Herzegowina	-11.4342
▁ließen	-11.4349
▁beabsichtigen	-11.4349
▁Israelis	-11.435
▁Weshalb	-11.4351
▁tierische	-11.4351
▁Missverständnis	-11.4355
▁Berliner	-11.4356
sverzerrungen	-11.4357
▁Körper	-11.4358
In	-11.436
ow	-11.4363
▁übermäßige	-11.4367
▁Aktualisierung	-11.4368
▁Begeisterung	-11.4368
▁gebaut	-11.4368
fen	-11.4374
▁regulieren	-11.4377
▁geboren	-11.438
konflikt	-11.4381
▁kurzfristige	-11.4381
wirkung	-11.4381
▁Hektar	-11.4385
▁erlitten	-11.4385
▁verleiht	-11.4385
▁zustimmt	-11.4385
▁Schlüsselrolle	-11.4385
▁voranbringen	-11.4385
▁bedacht	-11.4385
▁Investitions	-11.4386
▁Einladung	-11.4386
▁Vorfall	-11.4387
gut	-11.439
▁eintritt	-11.4394
▁teil	-11.4398
bahn	-11.4402
▁blockieren	-11.4402
▁verschließen	-11.4402
agentur	-11.4404
▁Entlassungen	-11.4406
reg	-11.441
▁Zeugen	-11.4415
▁Blickwinkel	-11.4419
▁Johannesburg	-11.4419
▁Corbett	-11.4419
▁missbraucht	-11.4419
▁Aktivität	-11.4422
▁Irlands	-11.4426
▁Emission	-11.4427
▁Bestand	-11.4431
▁hielt	-11.4431
▁to	-11.4437
▁Klage	-11.4448
▁Telefon	-11.4449
▁Erlaub	-11.4454
▁85	-11.4454
zig	-11.4454
▁Lichte	-11.4454
▁heiklen	-11.4454
▁Flagge	-11.4457
▁Herkunftsland	-11.4458
qualität	-11.4461
leben	-11.4463
▁ausgehandelt	-11.4463
▁ermutigend	-11.4471
▁Postdienste	-11.4473
▁Schlacht	-11.4474
▁Ankündigung	-11.4474
▁transparenten	-11.4478
▁Roth	-11.4481
▁46	-11.4481
▁Übergangszeit	-11.4483
▁gewinnt	-11.4487
▁verbreiten	-11.4488
▁harten	-11.449
▁Marktzugang	-11.4491
mann	-11.4494
Protokoll	-11.4495
▁anzusehen	-11.45
lle	-11.4501
5-00	-11.4504
▁Konzerne	-11.4505
▁Fahrplan	-11.4505
▁beunruhigend	-11.451
▁Sports	-11.4512
▁getrennte	-11.4513
▁Ausweg	-11.4513
▁lauten	-11.4514
▁Co	-11.4515
▁erkläre	-11.4516
▁Weltkrieg	-11.4518
▁kontinuierliche	-11.4519
fahrt	-11.4519
▁klug	-11.4521
weiterentwickelt	-11.4522
▁ruft	-11.4523
▁trennen	-11.4523
▁Stimmabgabe	-11.4523
▁39	-11.4523
ES	-11.4523
unter	-11.4532
▁stattfindenden	-11.4535
alter	-11.4537
▁Assoziation	-11.4539
▁Atomenergie	-11.4541
▁nukleare	-11.4541
▁Sicherlich	-11.4541
▁Software	-11.4544
▁komplexe	-11.4545
▁Klonen	-11.4545
12	-11.455
▁Volks	-11.4552
▁ankommt	-11.4554
▁Pluralismus	-11.4558
▁Verfechter	-11.4558
▁gleichwohl	-11.4559
▁Pflanzenschutz	-11.4559
▁w	-11.4559
▁unangemessen	-11.4562
bezogenen	-11.4562
▁kriminellen	-11.4566
▁vertraue	-11.4568
▁rechtlicher	-11.4573
▁Motto	-11.4576
▁Reding	-11.4576
que	-11.4577
▁Instanz	-11.4579
▁Rechtsausschuss	-11.4584
▁Sanktion	-11.4587
▁genauen	-11.4592
▁beeinflusst	-11.4593
▁überarbeitet	-11.4594
▁unzureichende	-11.4594
▁Transit	-11.4595
▁Vernichtung	-11.4597
Selbstbestimmung	-11.4598
▁250	-11.46
fischerei	-11.46
▁Posten	-11.4604
▁finnische	-11.4604
▁statistischen	-11.4605
Krisenmanagement	-11.4607
▁Universaldienst	-11.461
▁Alters	-11.4611
▁gentechnisch	-11.4611
▁relevanten	-11.4612
▁Handelns	-11.4613
tan	-11.4613
▁schönen	-11.4614
▁Do	-11.4617
▁geforderten	-11.4619
▁legitime	-11.4621
▁Wahlkampf	-11.4622
▁Kurden	-11.4624
▁Mar	-11.4625
▁Implementierung	-11.4628
▁Schweigen	-11.4628
▁besprochen	-11.4628
▁Intensivierung	-11.4628
bewegung	-11.4629
▁Erika	-11.4629
▁aufkommen	-11.463
durchschnittlich	-11.463
verhandlungen	-11.4632
▁gewöhnlich	-11.4635
▁Operationen	-11.4635
▁riesigen	-11.4636
05	-11.4641
▁Trend	-11.4642
▁gezielte	-11.4642
▁maßgeblich	-11.4643
bezogene	-11.4645
sdebatte	-11.4647
▁hinausgeht	-11.4648
▁Einwanderern	-11.4652
überwachung	-11.4654
▁Paritätische	-11.4654
▁Verbündeten	-11.4657
oder	-11.4662
▁Lomé	-11.4663
▁zuwenden	-11.4664
▁unterdrückt	-11.4665
▁zeitliche	-11.4668
▁Wertpapier	-11.467
▁Herangehen	-11.4671
▁umfassendere	-11.4674
▁for	-11.468
▁Golf	-11.4681
▁Ermordung	-11.4681
▁Oomen	-11.4681
▁präsentieren	-11.4682
▁Fest	-11.4686
▁vorherige	-11.469
nerhalb	-11.4692
▁administrative	-11.4695
▁wachsen	-11.4695
▁irgendwie	-11.4699
▁befindlichen	-11.47
za	-11.4702
schlagen	-11.4703
▁konsequente	-11.4709
weltfreundlicher	-11.471
▁plant	-11.4717
▁belaufen	-11.4717
ci	-11.4717
▁Standpunkts	-11.4718
▁Sekretariat	-11.4721
▁Währungsfonds	-11.4722
▁vorwärts	-11.4724
▁verschwunden	-11.4734
▁Entsendung	-11.4734
san	-11.4735
▁Urteile	-11.4737
▁Bruttoinlands	-11.4739
▁solle	-11.474
ku	-11.4741
▁bloß	-11.4742
▁Schwäche	-11.4747
▁Name	-11.4748
▁Anschläge	-11.4748
▁Bürgerkrieg	-11.4748
▁Ausbruch	-11.475
▁ausgeschöpft	-11.4752
▁Kernwaffen	-11.4752
▁zurückgegangen	-11.4753
▁Wohn	-11.4754
weisen	-11.4755
pre	-11.4756
▁ASEAN	-11.4756
▁Rechnungshofes	-11.4758
io	-11.4759
▁Beifall	-11.4761
führer	-11.4763
Allgemeine	-11.4765
▁auszudehnen	-11.477
▁Fahrgäste	-11.477
▁vorbehalten	-11.477
▁radioaktive	-11.4773
▁Adresse	-11.4776
▁aussieht	-11.4777
ive	-11.4779
▁ruhig	-11.4779
▁Lebensstandard	-11.4785
wir	-11.4785
▁Halbjahr	-11.4787
stechnologien	-11.4787
▁beigemessen	-11.4788
▁genießt	-11.4788
▁zufällig	-11.479
▁aufgegeben	-11.4792
▁Abtreibung	-11.4793
▁Kodex	-11.4793
▁nächstes	-11.4796
Der	-11.4798
&	-11.48
▁Erste	-11.4802
▁bürgerlichen	-11.4805
▁Gutachten	-11.4806
▁Liikanen	-11.4806
▁EEF	-11.4806
▁Europäisches	-11.4806
▁Sanierung	-11.4806
▁billiger	-11.4813
▁Gleichgewichts	-11.4815
▁steuerlichen	-11.4815
▁Sicher	-11.4816
▁Netzes	-11.4817
▁gesetzlich	-11.4821
▁einziger	-11.4823
▁Tuberkulose	-11.4824
▁gesteckt	-11.4824
treffen	-11.4824
Wir	-11.4835
▁überleben	-11.4837
ör	-11.484
▁Gerichten	-11.4841
▁AIDS	-11.4841
berichterstatter	-11.4841
▁irgendwo	-11.4841
▁Missachtung	-11.4841
▁gelegentlich	-11.4842
▁Visumpflicht	-11.4842
▁darzulegen	-11.4842
▁Danach	-11.4843
▁gingen	-11.485
▁Werke	-11.4854
▁kommerzielle	-11.4855
gestellt	-11.4859
▁Baroness	-11.4859
▁Inhaftierung	-11.4859
▁Touristen	-11.486
▁Armenien	-11.486
▁verbleibenden	-11.486
▁Rückstand	-11.486
▁Rentensysteme	-11.4861
wasser	-11.4864
▁0,	-11.4867
verteilung	-11.4868
▁unabhängiger	-11.4869
▁Gen	-11.487
legt	-11.4872
▁Transaktionen	-11.4873
spotenzial	-11.4876
Ruijten	-11.4878
▁kürzen	-11.4878
▁entsenden	-11.4878
▁Grenzkontrollen	-11.4878
▁bekundet	-11.4878
▁äußert	-11.4879
▁Vorzüge	-11.4879
▁Bilder	-11.4883
▁Exporte	-11.4884
sverhältnisse	-11.4884
▁Vorschrift	-11.4884
bildung	-11.4888
▁Energiebereich	-11.4889
Mitgliedschaft	-11.4891
▁tschechische	-11.4892
▁Wohlstands	-11.4892
▁Meere	-11.4892
ologische	-11.4894
programmen	-11.4895
▁Sensibilität	-11.4896
▁schwächen	-11.4896
St	-11.4896
▁angelegt	-11.4898
▁etliche	-11.4898
▁Handelspartner	-11.49
▁Statistik	-11.4904
▁diskriminierend	-11.4906
▁Fern	-11.4907
eu	-11.4908
▁Verteidigungs	-11.4911
▁benannt	-11.4914
▁wahrzunehmen	-11.4914
▁bestrafen	-11.4914
▁Dokuments	-11.4918
▁effizientere	-11.4919
2004	-11.4922
▁kultureller	-11.4924
Z	-11.4928
ang	-11.4928
19	-11.4931
▁Guinea	-11.4932
▁hinzuzufügen	-11.4932
▁Begriffs	-11.4934
produkts	-11.4935
▁protestieren	-11.4945
th	-11.4949
▁hängen	-11.4949
▁dreißig	-11.495
▁einschließt	-11.495
▁steuerliche	-11.4951
del	-11.4954
nahmeregelungen	-11.4956
▁zusammenhängend	-11.4959
▁Sach	-11.4962
▁Geste	-11.4963
▁Einkommens	-11.4964
▁Trilog	-11.4965
▁Verehrte	-11.4968
▁Gütern	-11.497
▁hört	-11.497
technik	-11.4973
▁Kommunikations	-11.4981
▁einzutreten	-11.4982
▁statistische	-11.4982
fälle	-11.4984
▁beruhigen	-11.4985
▁Offensichtlich	-11.4986
▁geschwächt	-11.4986
▁gespannt	-11.4986
▁einrichten	-11.4986
versicherung	-11.4992
▁Erwerb	-11.4992
▁Nichts	-11.4994
▁Monopole	-11.4996
lau	-11.4998
▁einheitlicher	-11.4998
▁steigende	-11.4999
▁Lukaschenko	-11.5005
▁Westsahara	-11.5005
▁kapitalistische	-11.5005
▁Chaos	-11.5005
▁Sozialschutz	-11.5005
▁gesucht	-11.5005
rate	-11.5005
wo	-11.5006
che	-11.501
beihilfen	-11.5011
2/	-11.5019
▁vorhandene	-11.5019
▁rumänischen	-11.5021
▁kleines	-11.5022
▁Misstrauen	-11.5023
rechtslage	-11.5025
▁Nachweis	-11.5026
gr	-11.5028
▁Schwierigkeit	-11.5029
▁übergeben	-11.5032
▁bewährt	-11.5033
▁Beschaffung	-11.5034
▁isoliert	-11.5036
▁verabschiedete	-11.5037
ek	-11.5039
ete	-11.504
▁mittelständisch	-11.5041
▁sparen	-11.5042
ruf	-11.5043
▁drastisch	-11.5043
▁Fischern	-11.5046
▁intensiven	-11.5054
▁niemanden	-11.5055
▁Erwähnung	-11.5059
▁versagt	-11.5059
▁verhelfen	-11.506
▁löst	-11.506
▁Mi	-11.5062
▁moralischen	-11.5062
zustellen	-11.507
▁Engagements	-11.5071
ht	-11.5072
mut	-11.5072
▁Formel	-11.5073
▁zeigte	-11.5075
▁vernünftiger	-11.5077
▁Humanressourcen	-11.5078
▁Besorgnisse	-11.5082
▁verübt	-11.5084
▁geeigneter	-11.5085
▁Stabilisierungs	-11.5094
▁verhängen	-11.5097
▁Zölle	-11.5098
tel	-11.5099
platz	-11.5099
▁Jahrzehnte	-11.51
▁Äußerung	-11.5103
▁angestellt	-11.5104
▁schien	-11.5106
▁Ethik	-11.5115
▁vernommen	-11.5115
Migrationsströme	-11.5116
▁Erteilung	-11.5116
▁Kollegium	-11.512
▁umwelt	-11.5127
▁erneute	-11.5128
▁Ideologie	-11.5131
alen	-11.5132
▁wovon	-11.5135
ank	-11.5142
▁Pakets	-11.5145
ssystemen	-11.5145
▁Schienenverkehr	-11.5148
▁Wor	-11.5149
▁Balance	-11.515
▁einräumt	-11.5152
▁ökologisch	-11.5155
▁Tendenzen	-11.5155
▁Rohstoffe	-11.5155
▁niemandem	-11.5158
ationen	-11.5162
▁wirksames	-11.5162
▁Alltag	-11.5165
▁Gemeinsam	-11.5168
▁Mütter	-11.5169
▁Ansonsten	-11.517
▁Heuchelei	-11.517
▁Täter	-11.517
▁Genuss	-11.517
änderungsanträge	-11.5171
▁zurückzuziehen	-11.5171
▁fern	-11.5171
einrichtungen	-11.5173
▁ausfallen	-11.5173
▁Euratom	-11.5175
▁inhaftiert	-11.5177
▁Ri	-11.5188
▁Antibiotika	-11.5189
▁Erwärmung	-11.5189
▁nachvollziehbar	-11.5189
▁Wollen	-11.5189
skandidaten	-11.5189
▁ausgewogener	-11.5191
▁Lehrer	-11.5196
vertreter	-11.5197
▁qualifizierten	-11.5199
▁Zwecken	-11.52
reden	-11.5206
▁kontraproduktiv	-11.5208
ip	-11.5208
▁Behauptungen	-11.5211
▁Prinzips	-11.5214
institutionen	-11.5216
▁Häftlinge	-11.5222
▁ethische	-11.5222
tieren	-11.5223
wa	-11.5223
▁naher	-11.5226
▁Einen	-11.5231
▁Vorsorge	-11.5232
▁Vorgänge	-11.5235
▁harmonisiert	-11.5236
▁jemanden	-11.5243
▁orientiert	-11.5244
▁optimal	-11.5245
▁Früchte	-11.5245
▁Streitigkeiten	-11.5245
▁Robert	-11.5245
für	-11.5245
▁besprechen	-11.5245
▁Po	-11.5246
▁Rücken	-11.5247
15	-11.5253
▁Energiesektor	-11.5256
▁Werbe	-11.5258
▁Verkehrssektor	-11.5262
▁Ferrero	-11.5264
▁Bearbeitung	-11.5264
▁aufbringen	-11.5268
▁Profite	-11.5271
▁49	-11.5281
▁intensiver	-11.5283
lt	-11.5287
▁grundsätzlichen	-11.5287
▁Konzepts	-11.5288
lö	-11.5298
▁Geduld	-11.5301
▁befreit	-11.5301
▁lohnt	-11.5301
▁unterzogen	-11.5305
▁ausge	-11.5305
▁Wurzeln	-11.5305
▁gebührend	-11.5306
▁schadet	-11.5307
▁schädlichen	-11.5308
4/	-11.531
Prozesses	-11.531
▁Gefängnissen	-11.5312
führung	-11.5314
orientierten	-11.5317
▁heikle	-11.5318
▁Zusatzfrage	-11.532
▁Demonstranten	-11.532
▁tagtäglich	-11.532
▁verwehrt	-11.532
▁Umverteilung	-11.5322
pl	-11.533
▁grundlegendes	-11.5335
▁Vizepräsidenten	-11.5336
status	-11.5337
▁Darf	-11.5339
sfürsorge	-11.5339
▁Bestrafung	-11.5339
▁Sackgasse	-11.5339
▁unbefriedigend	-11.5339
▁Weltgesundheits	-11.534
arbeitslosigkeit	-11.534
▁traurig	-11.5346
werten	-11.5353
▁Wechsel	-11.5354
▁Schulung	-11.5357
▁Erkenntnis	-11.5358
▁Befriedigung	-11.5358
▁Feuer	-11.5358
▁Spaniens	-11.536
we	-11.5363
▁festigen	-11.5364
▁Verantwortliche	-11.5365
eh	-11.5366
▁Tagungen	-11.5369
▁Eurojust	-11.5377
▁Vorgang	-11.5379
▁gewünschten	-11.538
▁Kranken	-11.5382
kette	-11.5384
▁angeschlossen	-11.5385
▁Franzosen	-11.5387
läßlich	-11.5395
▁ermittelt	-11.5396
▁betragen	-11.5397
▁Manche	-11.5405
▁sensible	-11.5407
▁starker	-11.5407
2010	-11.5407
spezifische	-11.541
steuern	-11.5411
Delegation	-11.5413
▁Schau	-11.5414
kennzeichnung	-11.5415
▁Aktien	-11.5415
▁Hauptstadt	-11.5415
du	-11.5422
ana	-11.5423
▁denkbar	-11.5424
▁Balkans	-11.5425
netze	-11.543
▁Kirche	-11.543
aktivitäten	-11.5434
Nichtsdestotrotz	-11.5434
▁Gedächtnis	-11.5434
▁Verknüpfung	-11.5434
▁Chile	-11.5435
II	-11.5435
▁belasten	-11.5435
▁Palästinensern	-11.5441
▁christlichen	-11.5443
▁Elektro	-11.5447
▁IV	-11.5447
▁schätze	-11.5449
fa	-11.5449
ay	-11.5451
▁Jacques	-11.5453
▁angemerkt	-11.5453
srate	-11.5453
▁Erziel	-11.5457
▁drängt	-11.5463
▁konstitutionell	-11.547
▁Angola	-11.5472
▁Vitorino	-11.5472
Waldner	-11.5473
funktion	-11.5477
▁enden	-11.5479
▁zunimmt	-11.5479
baren	-11.548
▁Englisch	-11.5481
▁beimessen	-11.5482
nationalisierung	-11.5487
sstrategien	-11.5488
▁Bulgariens	-11.5488
▁bestmögliche	-11.5489
▁spürbar	-11.549
sbeihilfen	-11.5491
▁José	-11.5491
▁erschüttert	-11.5491
▁beläuft	-11.5491
▁besetzten	-11.5492
▁zurückziehen	-11.5492
technischen	-11.5494
▁Wechselkurs	-11.5497
▁Mitarbeit	-11.5497
▁europäisch	-11.5498
▁komplizierter	-11.5498
▁doppelt	-11.5505
▁laufende	-11.551
▁gebieten	-11.551
▁Kreativität	-11.551
▁Lehne	-11.551
▁Rücktritt	-11.5511
▁Einreichung	-11.5511
▁annehmbar	-11.5511
▁existierenden	-11.5514
▁Bar	-11.5521
▁47	-11.5528
▁Niederlassung	-11.5529
▁verteilen	-11.5531
▁Unfällen	-11.5532
▁sinnlos	-11.5541
▁schade	-11.5543
informationen	-11.5547
▁Plattform	-11.5547
tur	-11.5547
▁Prostitution	-11.5549
Parlamentswahlen	-11.5551
▁vorhergehenden	-11.5552
spaket	-11.5553
3/	-11.5557
▁Ziffern	-11.5558
▁Ar	-11.5562
▁Europarates	-11.5565
▁Ehrgeiz	-11.5568
▁Lamy	-11.5568
▁benennen	-11.5568
▁explizit	-11.5568
▁fortgeschritten	-11.5568
▁Grundwasser	-11.5571
▁Wichtigste	-11.5577
▁arbeitslos	-11.5577
▁drohen	-11.5582
zahlen	-11.5584
▁horizontale	-11.5584
▁vornherein	-11.5587
▁Spielregeln	-11.5588
▁großzügig	-11.5589
▁Importe	-11.5589
▁einnimmt	-11.5591
▁bekannte	-11.5591
▁genügen	-11.5593
▁serbischen	-11.5593
▁käme	-11.5596
▁Akte	-11.5598
▁solidarisch	-11.56
sfrage	-11.5601
▁dauert	-11.5602
effekt	-11.5606
▁Stammzellen	-11.5607
▁Eindämmung	-11.5607
▁seitdem	-11.561
▁Resultat	-11.5611
▁Einsicht	-11.5612
vier	-11.5615
▁Aussöhnung	-11.5626
▁verzeichnet	-11.5626
▁Erwartung	-11.563
sprogramms	-11.563
▁umstritten	-11.5632
frei	-11.5633
▁begleiten	-11.5641
▁konkurrieren	-11.5643
▁Harbour	-11.5646
spiel	-11.5648
▁festgelegte	-11.5648
besteuerung	-11.5649
▁Komponente	-11.5649
information	-11.5649
schrift	-11.565
▁Drogenhandel	-11.5655
▁Netzwerk	-11.5662
▁umfaßt	-11.5665
▁Wertschätzung	-11.5665
▁festzuhalten	-11.5666
▁Wunder	-11.5668
▁Herkunftsländer	-11.5668
technologien	-11.5669
▁maximale	-11.5669
▁Hochschul	-11.5669
gesch	-11.567
▁Zuweisung	-11.5672
sverordnung	-11.5674
ve	-11.5679
sproblem	-11.5679
rau	-11.5683
▁Nahost	-11.5684
sform	-11.5684
▁einmalige	-11.5685
▁dementsprechend	-11.5685
▁Plenartagung	-11.5685
▁scheinbar	-11.5685
▁Beilegung	-11.5686
▁Serben	-11.5688
▁Mikro	-11.5691
▁Erbes	-11.5691
▁anwendbar	-11.5695
iger	-11.57
▁anschauen	-11.57
▁partnerschaft	-11.5703
ant	-11.5703
▁Böge	-11.5704
▁zeichnet	-11.5704
▁Finanzmitteln	-11.5708
▁gerät	-11.571
▁Tarif	-11.5711
▁fairer	-11.5714
alisierung	-11.5717
svorsitzenden	-11.5717
risiko	-11.5718
▁Definitionen	-11.572
▁Letztere	-11.5721
▁Aids	-11.5722
▁Beste	-11.5723
streit	-11.5724
▁Kommunismus	-11.5724
▁Volksrepublik	-11.5724
▁Wiederholung	-11.5724
flüge	-11.5724
kapital	-11.5725
tier	-11.5726
bereitschaft	-11.5736
lai	-11.574
▁machbar	-11.5744
▁verzögert	-11.5744
▁Zurückhaltung	-11.5744
▁Strafrecht	-11.5745
reich	-11.5746
verbände	-11.5746
▁kurzfristigen	-11.5746
▁Fahrzeugen	-11.5746
▁ökonomische	-11.5747
▁EGF	-11.5749
▁Geldern	-11.5751
▁militärischer	-11.5754
nehmen	-11.5755
▁gemachten	-11.5758
▁Madeira	-11.5763
▁Optimismus	-11.5763
▁geantwortet	-11.5763
▁nachvollziehen	-11.5763
▁unvereinbar	-11.5763
▁enthielt	-11.5763
ex	-11.5765
▁vorangehen	-11.5767
▁meist	-11.5772
▁führten	-11.5783
Bendit	-11.5783
▁mitzuteilen	-11.5783
▁verglichen	-11.5783
▁Meilenstein	-11.5783
▁zurückgreifen	-11.5784
▁verhält	-11.5784
▁angesetzt	-11.5788
▁Hochschulen	-11.5793
▁41	-11.58
ollbeschäftigung	-11.58
▁aufgestockt	-11.5803
▁quasi	-11.5803
▁globalisierten	-11.5803
▁Schweine	-11.5803
▁Tragen	-11.5803
▁Mehrere	-11.5805
▁Jahresende	-11.5806
▁Toten	-11.5813
▁kriminelle	-11.5814
▁dringenden	-11.5815
▁verheerenden	-11.5816
ha	-11.5817
str	-11.5819
▁Pi	-11.5821
▁Nordafrika	-11.5823
▁Cohn	-11.5823
▁120	-11.5824
politischer	-11.5827
ac	-11.5828
pläne	-11.5829
▁zer	-11.5829
▁sinnvoller	-11.5829
▁geographischen	-11.5833
ett	-11.5835
szeit	-11.5836
kehr	-11.5836
swachstums	-11.5837
öl	-11.5838
í	-11.584
▁weigert	-11.5842
▁Auskunft	-11.5843
▁direkter	-11.5844
▁Gange	-11.5858
▁Costa	-11.5862
▁Thessaloniki	-11.5862
▁Ausbreitung	-11.5863
▁Zeitraums	-11.5865
▁auslösen	-11.5869
▁zentral	-11.5873
20-	-11.5875
sstruktur	-11.5876
ekt	-11.5877
”	-11.5882
▁gesunken	-11.5882
▁Fortführung	-11.5882
▁Maul	-11.5883
▁historischer	-11.5883
skräfte	-11.5883
one	-11.5884
▁eingeschlagen	-11.5884
▁ließe	-11.5894
▁Kinderarbeit	-11.5894
▁chemische	-11.5901
Fundamentalismus	-11.5902
▁demografischen	-11.5903
▁Stiftung	-11.5905
▁Lu	-11.5906
▁Medikamenten	-11.5906
▁übertrieben	-11.591
uch	-11.5912
geben	-11.5914
▁Rating	-11.5915
▁kollektive	-11.592
▁Sonntag	-11.5922
▁Zinssätze	-11.5924
▁Nachbarländer	-11.5926
▁Referenz	-11.5928
▁entsandt	-11.593
▁Beiträgen	-11.5933
▁umhin	-11.5935
Glücklicherweise	-11.5942
▁tausend	-11.5943
▁sexueller	-11.5944
▁nenne	-11.5946
dauer	-11.5948
sort	-11.5952
▁relevant	-11.5954
▁ange	-11.596
stoff	-11.5961
▁demonstriert	-11.5962
▁erstatten	-11.5963
▁Dagegen	-11.5964
▁erleiden	-11.5964
cken	-11.5967
richtung	-11.5972
▁übermäßigen	-11.5972
▁doppelten	-11.5973
ard	-11.5973
▁Listen	-11.5974
▁Ausmaßes	-11.5976
saufwand	-11.5978
the	-11.5979
▁Industrien	-11.5981
laden	-11.5982
▁beherrscht	-11.5982
▁Voraus	-11.5982
▁zutreffend	-11.5987
sk	-11.5987
problematik	-11.599
▁soliden	-11.5993
▁Spitzen	-11.5995
▁unvermeidlich	-11.6003
▁verlagern	-11.6003
sgruppe	-11.6003
▁herausragende	-11.6007
ebene	-11.601
▁Kriegsverbreche	-11.6012
▁km	-11.6015
▁sonstige	-11.6021
▁Äthiopien	-11.6023
▁Bundesrepublik	-11.6023
▁Barón	-11.6023
▁realisieren	-11.6023
▁Ressource	-11.6027
▁irakische	-11.6028
▁Dritte	-11.6028
▁gesch	-11.603
▁Gruppierungen	-11.6031
▁Vater	-11.6032
▁Erörterung	-11.6035
berechtigten	-11.6039
▁niedrigeren	-11.6039
sstellen	-11.604
▁Zertifizierung	-11.6043
▁beheben	-11.6043
▁Staatsführung	-11.6046
▁Schiffbau	-11.6046
▁Künstler	-11.6048
▁geleisteten	-11.6048
lü	-11.6049
zahlungen	-11.6051
▁erhielten	-11.6051
sangehörigen	-11.6053
squellen	-11.6055
sinstruments	-11.6056
▁Ausstattung	-11.6063
▁Gegenwart	-11.6063
▁zurückzukehren	-11.6063
▁fortschrittlich	-11.6064
sarbeiten	-11.6065
▁Prüfungen	-11.6066
▁eingehender	-11.6066
▁radikale	-11.6066
▁Wahlrecht	-11.6067
Freie	-11.6068
▁Behinderte	-11.6069
▁ereignet	-11.6069
▁Rückschritt	-11.6069
▁Jahrzehnt	-11.607
▁kollektiven	-11.6072
▁Biokraftstoffe	-11.6075
▁Sachverhalt	-11.6077
▁anerkannten	-11.6077
bel	-11.6078
niveau	-11.6081
▁Modelle	-11.6082
▁begünstigen	-11.6084
▁belarussische	-11.6084
▁scheitern	-11.6084
▁Know	-11.6084
▁regelt	-11.6084
▁Uran	-11.6084
▁Geschlechts	-11.609
lieb	-11.6092
▁Roten	-11.6092
▁Luftraums	-11.6092
▁Ausstellung	-11.6094
zentren	-11.6097
stoffe	-11.6101
setzt	-11.6101
mengen	-11.6102
▁Male	-11.6103
▁Stillstand	-11.6104
▁Zugehörigkeit	-11.6104
▁Afrikanischen	-11.6106
▁überwiegend	-11.6106
▁Halbzeit	-11.6106
▁unterhalb	-11.6107
▁Kraftfahrzeug	-11.611
gesetze	-11.6112
▁Wesentliche	-11.6112
Armutsbekämpfung	-11.612
▁Australien	-11.6124
▁gewiß	-11.6124
▁Unabhängig	-11.6124
▁förderlich	-11.6124
▁nachmittag	-11.6125
▁jedermann	-11.6126
▁mittelfristig	-11.6126
▁bedingt	-11.6127
Mission	-11.6127
▁polizeiliche	-11.613
▁echtes	-11.6131
▁700	-11.6135
▁weitreichende	-11.614
▁27.	-11.6143
▁Dezentralisier	-11.6145
▁angesiedelt	-11.6145
▁Referendums	-11.6146
▁Vom	-11.6147
Steuer	-11.6147
▁Binnengrenzen	-11.6147
▁gravierenden	-11.6149
▁jüngst	-11.6151
▁loben	-11.6152
▁Teilung	-11.6153
heim	-11.6153
▁fühlt	-11.6156
tik	-11.6156
▁ausführen	-11.616
wei	-11.6165
▁Berlusconi	-11.6165
▁Jedenfalls	-11.6165
▁Mehrjahres	-11.6169
▁potenziell	-11.6171
ischer	-11.6172
▁Viel	-11.6173
▁APS	-11.6175
▁hochwertigen	-11.618
ey	-11.6182
▁Bangemann	-11.6186
▁beraubt	-11.6186
▁entzogen	-11.6186
▁König	-11.6187
▁absoluten	-11.6193
▁Beitrags	-11.6194
▁soviel	-11.6195
▁Nummer	-11.6198
▁Ernst	-11.6201
▁vertrieben	-11.6206
▁abzuhalten	-11.621
▁anfällig	-11.6212
▁Selbstverständ	-11.6217
▁Befugnissen	-11.6218
▁ergebenden	-11.6219
96	-11.6221
sanforderungen	-11.6221
Menschenverstand	-11.6226
verhältnismäßig	-11.6227
▁Bewahrung	-11.6227
▁Vereinheitlich	-11.6227
▁Wirkungen	-11.623
▁Spekulation	-11.6239
▁optimale	-11.6242
▁ausgewählt	-11.6247
orientierte	-11.6248
▁Kinderbetreuung	-11.6248
▁Versagen	-11.6248
▁imperialistisch	-11.6249
stellt	-11.6255
▁erheblicher	-11.6257
shaushalts	-11.6258
▁erreichte	-11.6259
▁Diktator	-11.6261
▁afghanischen	-11.6262
▁Geltung	-11.6264
▁zuhören	-11.6265
▁Tschad	-11.6268
▁heimgesucht	-11.6268
▁Absicherung	-11.6269
▁realisiert	-11.6269
▁sicherstellt	-11.6271
▁Nachbarstaaten	-11.6277
▁Russischen	-11.6278
▁Kreis	-11.628
▁komplett	-11.6284
▁Rauchen	-11.6285
▁Wohle	-11.6285
▁Alzheimer	-11.6289
▁erlangt	-11.6289
▁Einzelpersonen	-11.6289
▁Geldpolitik	-11.6292
▁vollziehen	-11.6293
tes	-11.6295
svorschlägen	-11.6297
▁Geißel	-11.631
▁Klauenseuche	-11.631
▁hervorrufen	-11.631
▁diskutierten	-11.631
▁Embryonen	-11.631
▁Zugriff	-11.6311
bereichen	-11.6314
▁Atlantik	-11.6327
▁bedenklich	-11.6331
▁empfunden	-11.6331
▁John	-11.6331
▁Rehn	-11.6331
▁einzugreifen	-11.6331
▁Nationalismus	-11.6332
▁WHO	-11.6334
sversorgung	-11.6335
ED	-11.6336
▁Mittelbetriebe	-11.6342
▁anhaltenden	-11.6343
▁Anstrengung	-11.6345
Plan	-11.6348
▁exakt	-11.6348
▁vorgezogen	-11.6348
▁Somalia	-11.6352
▁beschämend	-11.6352
▁Abgaben	-11.6352
▁Bezahlung	-11.6353
▁Initiativrecht	-11.6353
▁objektiven	-11.6354
bereit	-11.6354
▁umfassenderen	-11.6357
nentwurf	-11.6357
▁Zeitalter	-11.6358
▁Häuser	-11.6359
ßt	-11.6361
▁Verkehrsträger	-11.6361
▁westliche	-11.6364
▁niedrigere	-11.6364
▁Zentralbanken	-11.6369
▁Patente	-11.637
hen	-11.637
▁sammeln	-11.6373
▁Soforthilfe	-11.6373
▁blicken	-11.6373
▁begeben	-11.6374
▁Schienen	-11.6374
▁Resolutionen	-11.6377
ts	-11.6378
netz	-11.6379
lassen	-11.638
▁Norm	-11.6381
sförderung	-11.6381
▁Allgemeine	-11.6382
▁Mess	-11.6389
▁aufstellen	-11.639
▁einzigartige	-11.639
▁erwerben	-11.6394
▁Sozialdumping	-11.6394
▁gleichgültig	-11.6394
▁extremen	-11.6395
▁versehen	-11.6395
▁Ausschluss	-11.6396
▁Deutschen	-11.6398
▁Umweltbereich	-11.6399
▁Angehörige	-11.6402
verbindungen	-11.6403
mäßig	-11.6406
▁Abänderungen	-11.6408
hält	-11.6408
▁Bewußtsein	-11.6414
▁Muttersprache	-11.6416
ost	-11.6419
▁Abhilfe	-11.6424
▁Präventiv	-11.6425
gezogen	-11.6425
zulänglichkeiten	-11.6427
artikel	-11.6434
▁Sp	-11.6434
sicher	-11.6434
▁Byrne	-11.6436
▁Maschinen	-11.6437
▁Karte	-11.6437
▁bedeutend	-11.6437
▁Bestehen	-11.644
ina	-11.6442
▁Verbrennung	-11.6442
▁einschlagen	-11.6442
▁Versicherung	-11.6443
▁Verbots	-11.6443
erzeuger	-11.6444
prävention	-11.6445
üh	-11.6446
▁Zweite	-11.6448
▁Erzeugern	-11.6449
▁Tausenden	-11.6449
▁willen	-11.645
▁historisch	-11.6453
▁zuverlässige	-11.6453
▁rechtfertigt	-11.6457
▁mancher	-11.6457
reise	-11.6459
▁Orten	-11.6459
spartner	-11.646
Dollar	-11.6461
ort	-11.6462
▁bilateraler	-11.6463
menge	-11.6464
▁zentrales	-11.6466
▁reibungslose	-11.6468
▁Realitäten	-11.647
▁erklärten	-11.6471
▁Kreuz	-11.6472
▁Eingang	-11.6472
▁Dimensionen	-11.6475
leistung	-11.6476
▁Lobbyisten	-11.6478
▁Pfund	-11.6478
▁verbindet	-11.6478
▁brauche	-11.6487
▁Elektrizitäts	-11.6487
acht	-11.6488
slosigkeit	-11.6491
▁zollen	-11.6491
▁überholt	-11.6492
ki	-11.6492
bewertung	-11.6492
▁Kroatiens	-11.6495
▁abgeändert	-11.6499
▁Zusammenfassung	-11.6499
sprojekte	-11.6501
▁weitermachen	-11.6502
▁Datenbank	-11.6504
haushaltsplans	-11.6505
sbedarf	-11.6505
▁dynamische	-11.6511
▁Charakters	-11.6514
▁Eigenschaften	-11.6515
▁ausarbeiten	-11.6516
▁Kleinst	-11.6517
▁wirksamere	-11.652
Systems	-11.652
▁unterbinden	-11.652
▁verzichtet	-11.652
▁aufzugeben	-11.6521
▁Vermögen	-11.6525
▁gerichteten	-11.653
▁Rohstoff	-11.653
ströme	-11.6531
▁erstreckt	-11.6541
▁Olivenöl	-11.6542
▁Biomasse	-11.6542
ari	-11.6544
schein	-11.6548
Reform	-11.6548
▁Ansprüche	-11.6551
transport	-11.6554
▁Antrags	-11.6555
geschrieben	-11.6556
▁Eigentlich	-11.6563
▁herauszufinden	-11.6563
wi	-11.6566
len	-11.6567
▁zweites	-11.6568
▁Kriege	-11.6571
▁fühle	-11.6572
istisch	-11.6581
▁komplex	-11.6586
▁Dach	-11.6588
Programme	-11.6591
▁beizutreten	-11.6593
▁ausführlichen	-11.6594
zone	-11.6595
▁Weltraum	-11.6596
▁schwachen	-11.6601
▁52	-11.6602
material	-11.6604
▁Crespo	-11.6606
▁veranlaßt	-11.6606
▁fortgeführt	-11.6606
▁entfallen	-11.6606
▁Übrigens	-11.6606
sleistungen	-11.6607
statut	-11.6608
▁jugoslawischen	-11.661
europäische	-11.6613
▁Anschuldigungen	-11.6615
▁mutig	-11.6616
▁Unterschriften	-11.6618
lauf	-11.6621
▁Jo	-11.6622
▁dortigen	-11.6626
▁identifizieren	-11.6627
▁Ebenfalls	-11.6627
▁erfassen	-11.6627
▁pflegen	-11.6627
▁skeptisch	-11.663
sentscheidungen	-11.6632
▁TEN	-11.6632
▁überarbeiten	-11.6635
▁detaillierten	-11.6639
▁angestrebten	-11.6639
▁6,	-11.6644
▁Fische	-11.6647
▁reguliert	-11.6649
▁Muster	-11.6649
▁abschaffen	-11.665
▁verheerende	-11.6651
▁Lo	-11.6651
▁eindeutiger	-11.6659
▁Aufträge	-11.666
gebracht	-11.6662
02	-11.6663
▁gebührende	-11.6666
▁Forstwirtschaft	-11.667
▁gezielt	-11.6671
▁Unterzeichner	-11.6673
▁Mon	-11.6674
sregierung	-11.6674
qui	-11.6675
kel	-11.6676
▁kohärenten	-11.6676
Wirtschaft	-11.6679
▁ausführlicher	-11.6681
▁übermäßig	-11.6681
dem	-11.6682
ativ	-11.6686
listen	-11.6688
▁Erscheinung	-11.669
technische	-11.6691
▁abschließende	-11.6691
▁vermag	-11.6692
▁verschlimmert	-11.6692
▁Winter	-11.6692
▁Zuteilung	-11.6693
ers	-11.6693
▁günstig	-11.6694
gebühren	-11.67
durch	-11.6701
▁Italiens	-11.6706
▁Resultate	-11.6708
▁unlauteren	-11.6709
fahren	-11.671
are	-11.671
▁Störungen	-11.671
▁Inspektionen	-11.6711
▁Gehälter	-11.6713
▁Wogau	-11.6713
▁geknüpft	-11.6713
▁Deutlichkeit	-11.6713
▁Vermittler	-11.6714
freiheit	-11.6714
▁fünfzig	-11.6715
weltfreundliche	-11.6717
tz	-11.6721
▁anwesenden	-11.6721
▁Ausgabe	-11.6726
schreiben	-11.6728
▁formal	-11.6729
▁Provinz	-11.673
ya	-11.6731
▁irgend	-11.6735
▁vernichtet	-11.6735
▁Inhalts	-11.6735
▁Vorwurf	-11.6735
ub	-11.6736
▁worin	-11.6738
▁Verbrauchsteuer	-11.674
▁Spender	-11.674
prozess	-11.6743
▁bekennen	-11.6744
gabe	-11.6751
▁Pfeilers	-11.6753
▁Quote	-11.6753
▁friedlich	-11.6754
▁informelle	-11.6757
▁Verschuldung	-11.6757
▁gelitten	-11.6757
▁unumgänglich	-11.6757
▁unterrichten	-11.6757
▁Handlungsbedarf	-11.6757
CS	-11.6758
standards	-11.676
▁vergangene	-11.6764
las	-11.6765
finanz	-11.6766
FI	-11.6771
▁Schein	-11.6773
'.	-11.6775
▁reif	-11.6776
▁Träger	-11.6779
▁Zentralasien	-11.6779
▁vorangekommen	-11.6779
▁Ste	-11.6788
▁Portugals	-11.6795
▁einseitigen	-11.6796
▁Führerschein	-11.6797
▁Größenordnung	-11.68
▁Manchmal	-11.68
▁Wohnsitz	-11.68
▁Liga	-11.6801
▁England	-11.6805
▁Arbeitskräften	-11.6806
▁Güterverkehr	-11.681
opfer	-11.681
▁gefährdeten	-11.681
fer	-11.6813
▁Versuchung	-11.6814
pro	-11.6815
▁zusammenfassen	-11.6817
▁Flüge	-11.6819
▁Intoleranz	-11.6822
▁angepaßt	-11.6822
▁Heranführung	-11.6822
▁Bestandteile	-11.6822
▁unterschätzen	-11.6822
▁Meeresumwelt	-11.6822
▁Morde	-11.6824
projekt	-11.6824
▁Drittland	-11.6826
▁wartet	-11.6826
▁sprachliche	-11.683
lagen	-11.6832
▁konventionelle	-11.6833
▁angegriffen	-11.6833
▁krank	-11.6835
▁fragt	-11.6836
▁traurige	-11.6836
▁800	-11.6836
pen	-11.6838
▁stimmte	-11.6842
▁vorigen	-11.6843
▁hebt	-11.6844
▁belassen	-11.6845
▁Feind	-11.6848
▁Verlaufe	-11.6849
tage	-11.6849
▁Regelwerk	-11.685
▁Fracht	-11.685
▁Zentral	-11.6851
▁Doping	-11.6851
▁Bewertungen	-11.6851
▁Gegenleistung	-11.6852
▁achtet	-11.6855
▁souveränen	-11.6856
▁Schüler	-11.6858
Strukturreformen	-11.6859
▁Religionen	-11.6859
▁Anregung	-11.6861
smitteln	-11.6863
▁Venezuela	-11.6866
▁Vergewaltigung	-11.6866
▁Verständigung	-11.6866
▁vertieft	-11.6866
▁unternommenen	-11.6866
betrieb	-11.6868
▁Schwung	-11.687
arbeiten	-11.6872
▁Müll	-11.6874
freulicherweise	-11.6874
spezifischen	-11.6878
▁aufrecht	-11.688
▁dritter	-11.6881
srahmenprogramm	-11.6882
▁vorkommen	-11.6883
▁Phasen	-11.6883
▁Geflügel	-11.6888
▁LIFE	-11.6888
▁getätigt	-11.6888
pu	-11.6889
wege	-11.689
▁bedeutsame	-11.6892
▁benötigten	-11.6892
▁latein	-11.6893
▁umzugehen	-11.6893
ori	-11.6895
▁arme	-11.6898
skonzept	-11.6903
▁Interesses	-11.6907
▁zurückgehen	-11.6907
▁53	-11.6907
▁anzustreben	-11.691
phase	-11.6911
▁tiefer	-11.6913
▁vierten	-11.6919
▁Eis	-11.6919
▁Währungen	-11.692
nis	-11.6923
sam	-11.6927
zer	-11.6928
▁Disziplin	-11.6932
▁erledigt	-11.6932
▁Länge	-11.6933
▁7,	-11.6933
▁Erbringung	-11.6934
▁Schokolade	-11.6936
kräfte	-11.6937
▁intern	-11.694
▁frühen	-11.694
tro	-11.6941
spielen	-11.6942
▁Gutes	-11.6945
INI	-11.6946
▁ganzes	-11.695
sniveaus	-11.695
▁Besonderen	-11.6953
europäischen	-11.6954
▁David	-11.6955
▁Verschwendung	-11.6955
▁zuallererst	-11.6955
▁menschenwürdige	-11.6955
▁untersagt	-11.6955
▁betonte	-11.6955
▁herangezogen	-11.6955
kultur	-11.696
▁feststellt	-11.6966
▁beschuldigt	-11.6977
▁gestartet	-11.6977
▁ausübt	-11.6977
▁Verbrecher	-11.6977
▁ausbauen	-11.6977
▁Reich	-11.6977
geld	-11.6978
Gesetz	-11.6978
▁Großunternehmen	-11.6979
ok	-11.6979
▁sicherheits	-11.698
▁Umweltausschuss	-11.6981
▁schwache	-11.6983
les	-11.6984
▁unterbreiteten	-11.6984
▁sichert	-11.6988
▁essen	-11.6991
▁bemerkenswerte	-11.6992
▁Kernkraft	-11.6998
▁zustimme	-11.6998
▁Arafat	-11.6999
▁Delors	-11.6999
▁Fontaine	-11.6999
▁unbegründet	-11.6999
▁meistern	-11.7
▁liberale	-11.7001
▁Unfähigkeit	-11.7001
▁Rechtsordnung	-11.7002
verbrauchs	-11.7003
▁Gegenden	-11.7008
palästinensische	-11.701
▁Moral	-11.7016
ech	-11.7019
▁Azoren	-11.7021
▁gehindert	-11.7021
▁Antragsteller	-11.7022
▁hinterlassen	-11.7022
▁Krankenhaus	-11.7023
▁geringeren	-11.7024
tum	-11.7024
▁Schutzniveau	-11.7025
▁Dossiers	-11.7027
regeln	-11.7029
▁Institut	-11.7031
▁Schwelle	-11.7035
spraktiken	-11.7037
▁Landschaft	-11.7041
▁Entweder	-11.7044
▁nützt	-11.7044
▁verwandeln	-11.7044
▁Zins	-11.7046
ker	-11.7049
▁verbleiben	-11.7054
▁alleinige	-11.7055
fällt	-11.7055
▁Arktis	-11.7056
▁Konferenzen	-11.7057
▁schreibt	-11.7057
▁51	-11.7061
▁Ausschreibung	-11.7062
▁schöne	-11.7064
amerikanische	-11.7065
▁Krisensituation	-11.7065
dereingliederung	-11.7066
▁weitestgehend	-11.7066
▁ausgewiesen	-11.7066
▁Fuß	-11.7066
▁jenes	-11.707
▁Kirchen	-11.7071
▁Rio	-11.7071
▁Image	-11.7071
▁vergleichbare	-11.7075
▁Ideal	-11.7083
bedarf	-11.7085
personal	-11.7085
▁Ausrüstung	-11.7085
▁unweigerlich	-11.7089
▁verlagert	-11.7089
▁Generaldirektor	-11.7089
grenze	-11.7089
▁Rückübernahme	-11.7089
▁Cox	-11.709
▁Anschlag	-11.7091
▁Netzen	-11.7092
▁Koordinator	-11.7093
▁europaweite	-11.7094
Altersversorgung	-11.7096
▁Essen	-11.7098
▁melden	-11.71
▁Umweltprobleme	-11.7105
▁spezifischer	-11.7105
▁energie	-11.7107
fach	-11.7107
▁verbietet	-11.7111
▁gefreut	-11.7111
▁Materialien	-11.7112
▁englischen	-11.7112
▁entnehmen	-11.7113
▁moderner	-11.7114
▁Argumentation	-11.7115
▁Frei	-11.7117
Euro	-11.7117
▁Euroraums	-11.7118
▁irre	-11.712
▁gerückt	-11.7125
▁formell	-11.7126
vers	-11.7126
▁anregen	-11.7129
9/	-11.7129
▁Gesichtspunkten	-11.7131
▁Warnung	-11.7131
▁Chinesen	-11.7134
▁Ungeachtet	-11.7134
▁entdeckt	-11.7134
▁Direktzahlungen	-11.7134
▁Innenminister	-11.7134
Ko	-11.7136
▁Säulen	-11.7139
▁Assistenten	-11.7139
▁Berichtigungs	-11.7141
hne	-11.7142
▁sozialem	-11.7143
ges	-11.7152
▁Veranstaltung	-11.7153
▁Per	-11.7156
▁Netto	-11.7156
▁entsprochen	-11.7156
▁Bewegungen	-11.716
▁Sorgfalt	-11.7165
▁Brand	-11.7172
▁geringsten	-11.7173
har	-11.7178
▁Cha	-11.7178
▁Verbrauchers	-11.7178
▁Osttimor	-11.7179
/02	-11.7179
▁freigelassen	-11.718
▁endet	-11.7181
uß	-11.7183
produzenten	-11.7185
▁wendet	-11.7186
abkommens	-11.7187
▁anzuschließen	-11.7188
▁Waffe	-11.7188
sunternehmen	-11.7191
▁markt	-11.7192
▁Berufe	-11.72
▁Donau	-11.72
▁Bekleidungs	-11.7201
▁Dasselbe	-11.7202
▁Weigerung	-11.7202
▁Möglicherweise	-11.7202
sstand	-11.7203
▁Billigung	-11.7204
▁politischem	-11.7205
▁Reduktion	-11.7209
▁Erforschung	-11.7209
ringen	-11.7209
LT	-11.7209
▁wiederholten	-11.7215
sergebnis	-11.7215
fällig	-11.7217
schancen	-11.7217
▁Partnerschafts	-11.7218
▁Erkrankungen	-11.7219
van	-11.722
age	-11.7224
▁Bücher	-11.7225
▁problemlos	-11.7225
▁IND	-11.7225
▁Pen	-11.7225
▁Tote	-11.7225
▁Qu	-11.7232
▁auszusetzen	-11.7233
▁jenem	-11.7236
greifen	-11.7237
▁unterziehen	-11.7238
▁Bekenntnis	-11.7241
▁Ratstagung	-11.7244
mission	-11.7246
▁Gerichts	-11.7247
▁vornehmlich	-11.7247
▁Festigung	-11.7247
▁Kabeljau	-11.725
ette	-11.7251
▁unterschätzt	-11.7251
tische	-11.7254
▁Veterinär	-11.7258
▁Flucht	-11.7262
▁einschließen	-11.7263
▁Kilometer	-11.7263
▁Barrieren	-11.7265
▁ordentlich	-11.7266
▁González	-11.727
▁Terroranschläge	-11.727
▁exportiert	-11.727
▁entschiedene	-11.727
Naturkatastrophe	-11.7273
▁menschlicher	-11.7275
▁fürchten	-11.7275
▁To	-11.7276
jährige	-11.7277
▁enthaltene	-11.7278
▁Zone	-11.728
elle	-11.7285
sentwurfs	-11.7285
▁Pestiziden	-11.7285
▁betraf	-11.729
▁Konfrontation	-11.7293
▁Rentabilität	-11.7293
▁bewilligt	-11.7293
▁Bundes	-11.7296
Mitglieder	-11.7302
Markt	-11.7304
▁schwächsten	-11.7304
▁vorübergehend	-11.7304
▁Fülle	-11.7305
DEM	-11.7306
▁greifbare	-11.7306
▁dringender	-11.7307
▁Dumping	-11.7308
chi	-11.7312
▁überwältigende	-11.7315
▁gesetzten	-11.7315
▁Exekutive	-11.7316
▁verwalten	-11.7316
▁Belgrad	-11.7316
▁Köln	-11.7316
▁Barrot	-11.7316
▁einzunehmen	-11.7318
▁Hu	-11.7318
▁einst	-11.7321
▁Mitteilungen	-11.7321
szeitraum	-11.7327
▁vorläufigen	-11.7328
▁Anträgen	-11.7329
▁überraschend	-11.733
▁Vorbehalt	-11.7335
▁Adoption	-11.7337
▁Straftat	-11.7339
▁Letztendlich	-11.7339
▁angedeutet	-11.7339
▁bestünde	-11.7339
▁Finanzmarkt	-11.734
▁wem	-11.7341
▁Bediensteten	-11.7341
▁hinarbeiten	-11.7341
▁geschlossene	-11.7342
▁Luftqualität	-11.7346
▁erhöhte	-11.7351
wand	-11.7351
▁berechtigten	-11.7352
▁Elementen	-11.7353
anten	-11.7357
züge	-11.736
▁Vergnügen	-11.7362
▁nachgedacht	-11.7362
▁verzögern	-11.7362
▁zögern	-11.7362
▁aufzeigen	-11.7362
▁Rothley	-11.7362
▁Einzelfall	-11.7364
methoden	-11.7368
▁vorbringen	-11.7373
▁56	-11.7376
squote	-11.7379
▁Leiter	-11.7381
amt	-11.7382
▁sektor	-11.7383
▁wohin	-11.7385
tre	-11.7385
▁Umlauf	-11.7385
▁Kapitals	-11.7385
truppe	-11.7385
▁Kaukasus	-11.7385
▁Sevilla	-11.7385
▁anstrebt	-11.7385
weiterentwickeln	-11.7386
▁walten	-11.7386
▁Annan	-11.7389
▁Schwellenländer	-11.7389
würdig	-11.7391
punkte	-11.7392
ehr	-11.7394
son	-11.7396
▁hieß	-11.7396
gemacht	-11.7403
▁Umweltverträg	-11.7407
kämpfe	-11.7408
▁Malaria	-11.7409
▁Benachteiligung	-11.7409
▁bewahrt	-11.7409
▁beschreiben	-11.741
▁Textilindustrie	-11.7411
▁Car	-11.7412
Europäische	-11.7413
/01	-11.7416
▁eingeleiteten	-11.7417
▁54	-11.7419
▁mitten	-11.742
▁Troika	-11.7422
▁Öko	-11.7423
▁überzeugend	-11.7425
▁jeweilige	-11.7426
▁Rente	-11.7427
▁höherer	-11.7429
fisch	-11.7431
harmonisierung	-11.7432
▁Malmström	-11.7432
▁verwaltungs	-11.7432
▁Diagnose	-11.7435
▁alter	-11.7436
▁Raumfahrt	-11.7437
▁Gu	-11.7437
▁Überzeugungen	-11.7438
▁Ware	-11.7439
▁Hygiene	-11.7441
Erweiterung	-11.7443
▁erneuten	-11.7443
06	-11.7446
6/	-11.7447
binnenmarkt	-11.7452
zeug	-11.7454
▁Nationale	-11.7454
▁festgesetzt	-11.7454
▁prioritäre	-11.7455
▁Legitimation	-11.7455
▁Zivilluftfahrt	-11.7455
▁Konföderale	-11.7455
▁Gazastreifen	-11.7455
▁Bestes	-11.7457
▁asiatischen	-11.7458
▁tue	-11.7459
gas	-11.7461
▁eigen	-11.7463
Haushalts	-11.7463
▁ökologischer	-11.7466
▁Münzen	-11.7468
tragen	-11.7469
▁Gleiches	-11.747
25	-11.7472
ure	-11.7475
erhöhung	-11.7478
zuentwickeln	-11.7479
▁Sarkozy	-11.7479
▁beschließt	-11.7479
▁öfter	-11.7479
▁Saatgut	-11.7479
▁feiern	-11.7479
▁Anschluß	-11.7479
text	-11.748
▁Händler	-11.748
▁ernstes	-11.7484
▁Bezugnahme	-11.7485
▁Russen	-11.7485
ckt	-11.749
reisen	-11.749
ring	-11.749
▁Todesfälle	-11.7496
▁unterzeichneten	-11.7497
▁konform	-11.7499
▁getrieben	-11.75
▁Überschwemmung	-11.75
begriff	-11.7501
budget	-11.7502
▁Mandelson	-11.7502
▁Mulder	-11.7502
▁Oostlander	-11.7502
▁Vollstreckung	-11.7502
▁Drama	-11.7502
▁Reihenfolge	-11.7502
▁Beschlußfassung	-11.7502
tten	-11.7504
▁Lange	-11.7505
▁Feststellungen	-11.7506
▁Plänen	-11.751
Agenda	-11.7514
Partei	-11.7514
▁Global	-11.7516
▁frühzeitig	-11.7517
▁8,	-11.752
gesehen	-11.7522
sregelungen	-11.7528
gesetzt	-11.753
▁Oberste	-11.753
▁Veto	-11.7536
▁einfließen	-11.7537
Vorschriften	-11.7537
Regelung	-11.7538
▁iranische	-11.7544
▁Musik	-11.7546
weite	-11.7546
▁gültig	-11.7548
flug	-11.7549
▁Bonino	-11.7549
▁Cardiff	-11.7549
▁entfernen	-11.7549
▁Östliche	-11.7549
▁Athen	-11.7549
▁Nielson	-11.7549
▁restliche	-11.7549
▁Extremisten	-11.7549
▁Basel	-11.7549
▁abgelaufen	-11.755
▁Gold	-11.755
▁Klar	-11.7551
▁rechtsstaatlich	-11.7555
▁Lobby	-11.7555
bank	-11.7557
▁extreme	-11.7558
Geschäftsverkehr	-11.7559
▁versprechen	-11.7559
▁Embargo	-11.7561
▁feststellte	-11.7562
▁berechtigte	-11.7562
ib	-11.7563
09	-11.7564
▁gestoßen	-11.7566
▁geschätzten	-11.7567
▁Zuschüsse	-11.7568
▁Transporte	-11.7571
▁UCLAF	-11.7573
▁benachbarte	-11.7573
rang	-11.7576
steht	-11.758
▁aktualisiert	-11.7581
▁Fehl	-11.7583
▁durchführt	-11.7584
RO	-11.7586
▁polizeilichen	-11.7589
▁Finger	-11.7596
▁Argumenten	-11.7598
▁Stützung	-11.76
tal	-11.7603
prüfung	-11.7606
▁Grundrechten	-11.7606
rahmen	-11.7607
▁Stein	-11.7608
▁Haag	-11.7609
▁Vorrechte	-11.7612
▁empfinden	-11.7616
▁Sekunden	-11.7617
▁gewerbliche	-11.7617
abhängigkeit	-11.7619
▁Parameter	-11.762
▁Kanarische	-11.762
▁hindert	-11.7621
▁zweieinhalb	-11.7622
▁Strecken	-11.7624
▁Amerikanern	-11.7629
igung	-11.7631
Herzegowina	-11.7632
▁sozialistische	-11.7634
▁angekündigten	-11.7636
Entwicklung	-11.7637
diensten	-11.7639
strukturen	-11.7642
▁Daseinsvorsorge	-11.7644
▁übereinstimmt	-11.7644
▁Obama	-11.7644
▁auszugleichen	-11.7644
kriminalität	-11.7644
▁starten	-11.7644
▁Nordsee	-11.7644
▁schlichtweg	-11.7644
▁Rechtsrahmens	-11.7646
blick	-11.7651
▁meinerseits	-11.7651
▁Pass	-11.7651
▁Lagerung	-11.7653
▁hegen	-11.7658
ursacherprinzip	-11.7659
▁entschlossene	-11.7659
▁willkürlich	-11.7661
▁IAO	-11.7668
▁Vorhandensein	-11.7668
▁missachtet	-11.7668
▁vernachlässigen	-11.7668
▁Vorwürfe	-11.7668
▁verläuft	-11.7668
meisterschaft	-11.7669
▁erwachsen	-11.767
▁Anstoß	-11.767
▁seltsam	-11.767
▁unrealistisch	-11.7675
▁fünften	-11.7678
▁Herrschaft	-11.768
stein	-11.768
▁Hüterin	-11.7684
▁Zusatzstoffe	-11.7684
▁namentliche	-11.7686
pan	-11.7688
▁Periode	-11.7691
▁Velzen	-11.7691
▁auszudrücken	-11.7691
▁Zusicherung	-11.7691
sgrad	-11.7692
▁wagen	-11.7692
▁hingenommen	-11.7693
▁gehörte	-11.7693
▁Iren	-11.7694
tern	-11.7697
märkten	-11.7698
▁angemessenes	-11.7699
▁beides	-11.7702
▁stetig	-11.7704
▁Herstellern	-11.7706
▁Netzwerke	-11.7712
ick	-11.7712
▁bedienen	-11.7715
▁Westeuropa	-11.7715
schuss	-11.7718
▁Typ	-11.7719
▁Prognosen	-11.7719
▁Bi	-11.7721
▁Zahlreiche	-11.7725
Gesprächspartner	-11.7725
▁Luftverschmutz	-11.7727
reißen	-11.7729
sreform	-11.7729
typ	-11.7729
nutzung	-11.7733
▁Eigentumsrechte	-11.7734
dervereinigung	-11.7735
Protokolls	-11.7735
▁CE	-11.7737
▁zurückhaltend	-11.7739
▁Strecke	-11.7739
▁Breitband	-11.7739
▁stößt	-11.7739
▁sinken	-11.7739
▁regiert	-11.7739
▁zahlt	-11.774
▁Freizeit	-11.774
▁Übergangsfrist	-11.774
▁CIA	-11.774
▁deckt	-11.774
▁Programmplanung	-11.7742
▁ideologischen	-11.7743
verfahrens	-11.7751
▁Fangmöglichkeit	-11.7754
▁Beileid	-11.7757
▁nötige	-11.776
▁Fortbildung	-11.7763
▁Lama	-11.7765
▁Umweltschäden	-11.7766
▁angesprochene	-11.7766
tin	-11.7767
etz	-11.7768
▁unzulässig	-11.7769
ni	-11.7771
▁horizontalen	-11.7772
tourismus	-11.7773
sinstitutionen	-11.7776
▁Opt	-11.778
▁Ford	-11.778
▁attraktiv	-11.7783
COS	-11.7784
oll	-11.7784
▁anstellen	-11.7785
▁Fehlern	-11.7786
▁galt	-11.7787
▁Sklaverei	-11.7787
0.000	-11.7788
▁Einverständnis	-11.7789
▁koordinierten	-11.779
▁Unterbrechung	-11.7791
▁größtmöglichen	-11.7792
sbereichen	-11.7792
▁bittet	-11.7793
▁Hinrichtungen	-11.7793
▁Erasmus	-11.7796
▁mithin	-11.7797
▁ordnungsgemäßen	-11.7798
8/	-11.7802
▁Gefühle	-11.7803
Ivoire	-11.7812
▁öffnet	-11.7812
▁großartigen	-11.7813
ys	-11.7813
▁9,	-11.7813
▁gestanden	-11.7817
SA	-11.7819
▁Verhaltensweise	-11.7821
▁Schritten	-11.7821
▁Kongress	-11.7823
sbereichs	-11.7825
▁systematischen	-11.7828
termin	-11.7828
▁Konkret	-11.7829
Maßnahmen	-11.783
raten	-11.7832
▁saubere	-11.7833
▁ähnlicher	-11.7833
▁auszustatten	-11.7836
▁gelenkt	-11.7836
▁kooperieren	-11.7836
▁strebt	-11.7836
▁Kyi	-11.7836
▁zutrifft	-11.7836
oni	-11.7836
▁Verbringung	-11.7836
▁innerstaatliche	-11.7837
▁Einspruch	-11.7838
▁engeren	-11.7838
▁Nachdenken	-11.7838
▁Reserven	-11.7838
▁ergänzende	-11.7839
▁geografische	-11.7839
Nutzen	-11.785
▁veröffentlichte	-11.7851
▁strafrechtlich	-11.7853
▁Normung	-11.7854
▁Buchstabe	-11.7857
sprache	-11.7857
’	-11.786
▁Isolation	-11.786
▁McCreevy	-11.786
▁Nichteinhaltung	-11.786
▁bewältigt	-11.786
▁geredet	-11.786
▁Theorie	-11.786
▁Evans	-11.786
▁Festsetzung	-11.786
betrag	-11.7861
▁verkündet	-11.7862
ix	-11.7862
▁Tragödien	-11.7863
Bestandsaufnahme	-11.7865
bt	-11.7866
▁Betrugs	-11.7867
Re	-11.7873
▁Verstößen	-11.7876
▁Direktor	-11.7878
▁abzuwarten	-11.7884
▁beziehungsweise	-11.7884
▁Merkel	-11.7884
▁widersetzen	-11.7885
▁sozialpolitisch	-11.7886
▁flexiblen	-11.7886
▁wiegende	-11.7892
▁Proteste	-11.7893
▁Biokraftstoffen	-11.7894
▁gesonderte	-11.7894
▁logische	-11.7901
▁erworben	-11.7902
ator	-11.7902
voraussetzung	-11.7909
▁Mauretanien	-11.7909
▁bißchen	-11.7909
▁mitgewirkt	-11.7909
▁Konzertierung	-11.7909
▁1,5	-11.7912
▁Verbrauchs	-11.7914
▁Vertrieb	-11.7915
▁Langzeit	-11.792
ria	-11.7922
▁ärmeren	-11.7924
spe	-11.7931
wein	-11.7931
auswirkungen	-11.7933
▁Rechtmäßigkeit	-11.7933
▁gewandt	-11.7933
▁wecken	-11.7933
▁Himmel	-11.7933
▁Arzt	-11.7933
▁Bienen	-11.7933
▁Fünftens	-11.7938
das	-11.7941
llen	-11.7947
▁Transfer	-11.7948
EC	-11.7948
▁harmonisierte	-11.7949
▁mitwirken	-11.795
▁Plans	-11.795
▁entstehenden	-11.7951
▁Hinter	-11.7954
bin	-11.7956
▁finanzierten	-11.7957
▁Profil	-11.7958
▁Côte	-11.7958
▁genehmigen	-11.7958
▁erreichbar	-11.7958
▁fungieren	-11.7958
▁Vorreiterrolle	-11.7958
▁Entfernung	-11.7958
▁beschreiten	-11.7958
▁festgenommen	-11.7959
-1-	-11.7959
▁Laufzeit	-11.7959
▁dahinter	-11.7961
▁Bürgermeister	-11.7962
▁Zinsen	-11.7962
▁Getränke	-11.7964
▁Alt	-11.7966
▁Einwohnern	-11.7969
haushaltsplan	-11.797
▁Gefangene	-11.7973
▁vermehrt	-11.7975
Tagung	-11.7976
▁ausgeglichen	-11.7979
ult	-11.798
▁herrschenden	-11.798
▁Dioxin	-11.7982
▁Einschüchterung	-11.7982
▁Unzufriedenheit	-11.7983
▁Seitdem	-11.7983
modell	-11.7985
▁vorbeugende	-11.7987
ären	-11.7987
Mitteln	-11.7988
▁Ostseeraum	-11.7988
entwurf	-11.7989
unternehmer	-11.7994
▁verursachte	-11.7994
Konvention	-11.7997
pass	-11.7998
▁Bergbau	-11.8
▁gewünschte	-11.8001
cker	-11.8002
▁generellen	-11.8002
▁irgendein	-11.8002
▁verbracht	-11.8004
▁religiöser	-11.8004
folge	-11.8005
▁tägliche	-11.8006
▁merkwürdig	-11.8007
Behrendt	-11.8007
▁erwägen	-11.8007
▁Koexistenz	-11.8007
▁versorgen	-11.8007
▁Grundprinzip	-11.801
gehalten	-11.8013
▁angestrebte	-11.8014
▁Vorteilen	-11.8015
▁fiel	-11.8016
▁Hauptziele	-11.802
▁entwickelte	-11.8022
denken	-11.8025
Ziele	-11.8026
▁höchstens	-11.8028
▁Fahrt	-11.8028
sverbot	-11.8031
▁Instrumentarium	-11.8032
▁erledigen	-11.8032
▁vorzubeugen	-11.8032
▁aussenden	-11.8038
quoten	-11.8043
verband	-11.8043
▁einsehen	-11.8044
systemen	-11.8045
▁jedwede	-11.8046
gestaltung	-11.8051
red	-11.8052
sgemeinschaft	-11.8055
▁Versprechungen	-11.8056
▁sitzt	-11.8056
▁ordentliche	-11.8057
prinzip	-11.8057
stufe	-11.8058
▁Hätte	-11.8058
rechtsaktivisten	-11.8061
▁Vertriebenen	-11.8064
eb	-11.8069
tive	-11.8072
Süd	-11.8072
▁Sand	-11.8077
▁privater	-11.8078
▁Hauptproblem	-11.808
▁Handhabung	-11.8081
▁Standpunktes	-11.8082
▁Repression	-11.8082
▁Vorzug	-11.8083
▁unternehmerisch	-11.8084
▁Zeitrahmen	-11.8087
▁Flugsicherheit	-11.8089
▁Rohstoffen	-11.8091
▁abschließenden	-11.8091
▁mutige	-11.8095
▁Eingriff	-11.8095
8-	-11.8102
dokument	-11.8104
▁breiteren	-11.8104
▁Ökosysteme	-11.8105
▁Kasachstan	-11.8106
▁Lulling	-11.8106
▁gestoppt	-11.8106
▁vergrößern	-11.8106
deraufgenommen	-11.8106
▁Sierra	-11.8106
▁Zentren	-11.8106
▁befürchtet	-11.8107
▁unkontrollierte	-11.8107
▁130	-11.8108
▁Wirken	-11.8108
50	-11.8109
▁Erfindungen	-11.8116
▁ausschließliche	-11.8116
▁unsererseits	-11.8116
▁Herzlich	-11.812
geschäft	-11.812
▁Landwirt	-11.8122
▁Entsprechend	-11.8123
skampagne	-11.8123
Ich	-11.8124
▁intensiviert	-11.8125
gl	-11.8126
suche	-11.8129
bu	-11.8129
▁identisch	-11.8131
▁Extremismus	-11.8131
▁Europarats	-11.8132
▁hinfällig	-11.8133
angehörigen	-11.8134
▁glaubwürdige	-11.8136
elung	-11.8137
▁erteile	-11.8138
▁Konventionen	-11.814
▁behinderte	-11.814
▁erschreckend	-11.8141
▁du	-11.8142
▁Arm	-11.8143
▁Lehr	-11.8146
erleichterungen	-11.8147
▁grünen	-11.8148
maß	-11.8148
▁erachten	-11.8155
▁audiovisuelle	-11.8155
verbrauch	-11.8156
▁Bourlanges	-11.8156
▁Grundsätzlich	-11.8156
▁Verlierer	-11.8156
▁Verzicht	-11.8156
▁zusammengefasst	-11.8156
▁Verspätung	-11.8157
▁Bewerber	-11.8159
▁notwendiger	-11.8161
räte	-11.8161
▁Dell	-11.8161
▁schuld	-11.8163
▁ehrgeiziges	-11.8168
▁eingeschlossen	-11.8172
▁Finanzrahmens	-11.8177
▁drastische	-11.8179
▁Beschreibung	-11.8181
▁Eskalation	-11.8181
▁Lebensunterhalt	-11.8181
▁Schreyer	-11.8181
▁zweier	-11.8181
lm	-11.8181
▁Foren	-11.8181
alt	-11.8183
▁Fast	-11.8184
▁effektivere	-11.8185
▁wolle	-11.8185
Agenturen	-11.8185
▁demografische	-11.819
▁unterbrechen	-11.8196
▁möglicher	-11.8197
normen	-11.8201
katastrophe	-11.8203
▁Betrachtung	-11.8205
Plath	-11.8206
▁Randzio	-11.8206
sport	-11.8207
erei	-11.8207
▁alternativer	-11.8207
▁Umgestaltung	-11.8208
äre	-11.8209
ös	-11.821
▁Kreise	-11.821
händler	-11.8215
▁Unruhen	-11.8216
▁eingeht	-11.8217
01	-11.8217
ünd	-11.822
handels	-11.8226
eten	-11.8229
▁Anwalt	-11.8231
▁transportiert	-11.8231
▁ausrichten	-11.8231
▁Osterweiterung	-11.8231
▁Hürden	-11.8233
▁katastrophale	-11.8241
▁deutet	-11.8241
▁vorgegeben	-11.8242
▁anerkannte	-11.8244
▁Vier	-11.8246
bleiben	-11.8249
tend	-11.8251
▁auftritt	-11.8256
▁Kampagnen	-11.8257
▁erhebt	-11.8261
▁Marken	-11.8264
▁Abgabe	-11.8264
▁Wachstumspakts	-11.8266
gar	-11.8272
▁schlimm	-11.8277
▁zitiert	-11.8282
▁Medina	-11.8282
▁Usbekistan	-11.8282
▁gewillt	-11.8282
▁organisatorisch	-11.8282
▁Siedlungen	-11.8282
▁Sonderbericht	-11.8283
sinn	-11.8286
▁Handwerk	-11.8288
▁verfassungs	-11.829
kar	-11.829
▁schlug	-11.829
▁Derartige	-11.829
wendung	-11.8291
▁57	-11.8293
▁Finanzhilfen	-11.8295
ließ	-11.8296
anbau	-11.8296
▁Gottes	-11.8297
zieht	-11.8297
▁Ausweisung	-11.8297
app	-11.8298
▁freiwilliger	-11.8298
steigen	-11.8299
Krankheit	-11.8299
▁Synergien	-11.83
▁Flugverkehr	-11.83
▁Neufassung	-11.83
▁Si	-11.8302
▁Kraftfahrzeugen	-11.8304
▁Verwaltungsrat	-11.8305
▁Ankara	-11.8307
▁Südkorea	-11.8307
▁verständigen	-11.8307
▁Genauso	-11.8308
rechten	-11.8312
▁Einwanderungs	-11.8313
tri	-11.8313
▁indirekte	-11.8316
▁Herkunfts	-11.8317
▁Arbeitslose	-11.8318
▁gewissenhaft	-11.8322
▁Erläuterungen	-11.8322
DA	-11.8323
▁kommunistische	-11.8325
▁Ozean	-11.8328
smarkt	-11.8331
▁aufzuzeigen	-11.8333
▁befugt	-11.8333
▁gedauert	-11.8333
▁Erstattung	-11.8333
zusammenführung	-11.8333
▁obligatorisch	-11.8334
tender	-11.8335
gleichen	-11.8338
▁resultierenden	-11.834
lam	-11.834
eil	-11.835
gra	-11.835
sgipfel	-11.8351
▁christliche	-11.8353
▁Act	-11.8355
Mitgliedsstaaten	-11.8356
7/	-11.8357
▁Berater	-11.8358
▁Reeder	-11.8358
▁Agrarausgaben	-11.8359
▁unterschrieben	-11.836
▁Block	-11.836
▁Hin	-11.8362
7-	-11.8362
amp	-11.8363
▁eigenständige	-11.837
-20	-11.8371
gelder	-11.8373
rechtecharta	-11.8383
▁nachgekommen	-11.8384
▁Schmerz	-11.8384
▁Auftragsvergabe	-11.8384
▁Spaltung	-11.8386
▁justiziellen	-11.8388
▁ausführte	-11.8389
▁Amtes	-11.8391
od	-11.8393
serklärungen	-11.8397
▁Mark	-11.8397
▁ansteigen	-11.8398
▁Bus	-11.8401
▁Sitze	-11.8408
▁Aufenthalts	-11.8409
▁Empörung	-11.841
▁Römische	-11.841
▁intervenieren	-11.841
▁ermäßigte	-11.841
▁Lebenserwartung	-11.841
▁verarbeitet	-11.841
▁Warenverkehr	-11.8411
räume	-11.8411
▁Inspektion	-11.8412
▁Ausgestaltung	-11.8413
▁Inflationsrate	-11.8413
▁Szenario	-11.8413
eid	-11.8417
▁strategisch	-11.8418
rechtssituation	-11.8421
spraxis	-11.8425
▁verfolgten	-11.8425
aktionen	-11.8433
▁verbergen	-11.8435
▁zumeist	-11.8435
▁erachte	-11.8438
▁Nahrung	-11.8438
▁Verhäng	-11.8439
▁Kandidat	-11.8447
▁Brennstoffe	-11.8448
▁Ratsvorsitzende	-11.8448
▁gebotenen	-11.8449
war	-11.8449
/20	-11.845
leitung	-11.8453
▁Strafrechts	-11.8458
▁wirkungsvoll	-11.8459
▁Bedürfnis	-11.846
▁Identifizierung	-11.8461
▁Ruanda	-11.8461
▁designierte	-11.8461
▁verfrüht	-11.8461
▁verwickelt	-11.8461
▁Auswertung	-11.8461
▁Nepal	-11.8461
▁repräsentiert	-11.8461
sitz	-11.8464
▁Ausschreibungen	-11.8466
▁Kammer	-11.8466
▁billige	-11.8466
▁Angebote	-11.8468
Mißtrauensantrag	-11.8469
jo	-11.847
▁Fördermittel	-11.8471
▁unver	-11.8472
▁Rechtssystem	-11.8475
▁Unterricht	-11.8478
Nordische	-11.848
▁Wild	-11.8483
überprüfung	-11.8485
▁Eigentümer	-11.8487
▁Stolz	-11.8487
▁bedrohen	-11.8487
▁Palette	-11.8487
▁absichtlich	-11.8487
▁gründlichen	-11.8488
▁Sir	-11.8489
lichkeitsprüfung	-11.8489
▁Nationalität	-11.8491
▁einführt	-11.8493
▁radikal	-11.8498
▁Werkzeug	-11.8502
▁Modells	-11.8503
▁Stich	-11.8511
▁lobenswert	-11.8512
zugehen	-11.8513
▁Sammlung	-11.8513
entgegenzuwirken	-11.8513
▁Castro	-11.8513
▁Inhaber	-11.8513
▁Zehntausende	-11.8513
▁teurer	-11.8513
träger	-11.8514
▁ma	-11.8517
slosenquote	-11.8517
▁Vergütung	-11.8518
zahlung	-11.8519
▁Südens	-11.8519
▁Seuche	-11.8521
wirtschaftliche	-11.8528
▁konkretes	-11.8529
▁Auftragswesen	-11.853
enz	-11.8531
treten	-11.8533
skommission	-11.8533
fass	-11.8534
bürger	-11.8536
▁ungewöhnlich	-11.8537
▁streiten	-11.8539
▁Mais	-11.854
ali	-11.8541
bei	-11.8541
▁Durchschnitts	-11.8542
▁Befürchtung	-11.8542
▁Sonne	-11.8542
▁Verhaftung	-11.8542
tischen	-11.8543
▁Rebellen	-11.8543
▁Langen	-11.8543
▁jen	-11.8547
sbemühungen	-11.8547
2009	-11.8548
▁liegende	-11.8551
▁stabilisieren	-11.8552
▁Linien	-11.8553
▁Serbiens	-11.8555
▁Absätze	-11.8557
Energieverbrauch	-11.8558
▁dynamischen	-11.8559
äl	-11.856
machen	-11.8561
▁unterstützte	-11.8561
fähige	-11.8563
Beeinträchtigung	-11.8565
▁biometrische	-11.8565
▁Briten	-11.8565
sparteien	-11.8567
▁innovativer	-11.857
▁Nenner	-11.857
strecken	-11.8571
Mindeststandards	-11.8571
▁dachte	-11.8571
regierung	-11.8574
▁grünes	-11.8575
slage	-11.8575
▁Besondere	-11.858
▁Personals	-11.8583
▁Gebot	-11.8583
planung	-11.8587
▁theoretisch	-11.8589
▁konzipiert	-11.8591
▁pharmazeutische	-11.8591
▁Materie	-11.8591
betriebe	-11.8592
▁Leit	-11.8593
Preis	-11.8596
▁inhaltliche	-11.8597
▁indes	-11.8598
▁allererst	-11.8599
▁praktischer	-11.8602
▁vorteilhaft	-11.8603
▁durchgeführte	-11.8605
▁gebilligten	-11.8606
▁Garant	-11.8616
oli	-11.8616
▁häusliche	-11.8617
▁indonesische	-11.8617
▁tibetische	-11.8617
▁betreibt	-11.8617
▁Tabakanbau	-11.8617
▁Kette	-11.8618
▁Gewalttaten	-11.8618
Übereinkommens	-11.8623
▁Verkaufs	-11.8623
▁traditionell	-11.8632
▁Auszahlung	-11.8632
▁gerichtete	-11.8634
▁akzeptable	-11.8635
▁Vi	-11.8637
▁Mitbestimmung	-11.8638
übereinkommen	-11.8642
▁Galicien	-11.8643
▁Zusammenfassend	-11.8643
▁gekauft	-11.8643
▁verdoppeln	-11.8643
derhergestellt	-11.8643
▁ersichtlich	-11.8643
▁Nutzfahrzeuge	-11.8645
▁Freundschaft	-11.8646
▁Bewerberländer	-11.8646
▁trat	-11.8648
▁63	-11.8648
▁bestmöglichen	-11.8655
finden	-11.8655
linie	-11.8656
geschlagen	-11.8659
▁Wahlbeobachtung	-11.8661
▁gesetzgeberisch	-11.8661
▁ethnischer	-11.8666
terschaftsurlaub	-11.8666
▁Chirac	-11.867
▁Misserfolg	-11.867
▁abdecken	-11.867
ange	-11.867
▁Berufsbildung	-11.867
▁Karas	-11.867
▁Verbände	-11.8673
▁klarzustellen	-11.8674
▁Eingriffe	-11.8676
▁Grundwerte	-11.8678
▁Dolmetscher	-11.8679
▁bedeutsamen	-11.8686
▁Wohnung	-11.8687
▁behinderten	-11.8688
▁konservativen	-11.8689
Fonds	-11.869
politisch	-11.8692
rö	-11.8692
welt	-11.8693
▁Gebiets	-11.8693
▁unbestreitbar	-11.8694
▁erfolgreicher	-11.8694
sentscheidung	-11.8696
▁SWIFT	-11.8696
▁Bösch	-11.8696
▁Juncker	-11.8696
▁aufzeigt	-11.8696
▁begegnet	-11.8696
▁einzudämmen	-11.8696
▁unsinnig	-11.8697
▁Aufschub	-11.8697
▁geforderte	-11.8699
▁wertvoll	-11.8704
▁Rasse	-11.8704
▁Korrekturen	-11.8704
konvention	-11.8707
▁brutale	-11.8709
kan	-11.8713
▁multinationale	-11.8715
Timor	-11.8716
▁Soll	-11.8717
bringt	-11.8718
▁Voll	-11.872
▁Stoff	-11.872
▁Lkw	-11.8722
▁Vertraulichkeit	-11.8722
▁García	-11.8722
▁gewartet	-11.8723
▁Gemeinde	-11.8723
▁Benutzer	-11.8723
▁Brände	-11.8726
▁steuern	-11.8726
▁eingeführten	-11.8728
▁erwarteten	-11.8738
▁Brücken	-11.874
▁Spezial	-11.8742
▁Deckung	-11.8746
▁Prestige	-11.8746
▁Schw	-11.8747
aktion	-11.8748
▁Rücküberweisung	-11.8749
▁detailliert	-11.8751
▁heiße	-11.8757
▁99	-11.8758
▁Ausländer	-11.8759
schieben	-11.8759
Nichtverbreitung	-11.8761
▁Elektrizität	-11.8764
svorhaben	-11.8764
▁leere	-11.877
berechtigte	-11.8772
▁Herman	-11.8775
▁Sprichwort	-11.8776
▁gehandhabt	-11.8776
▁gerettet	-11.8776
▁gewollt	-11.8776
▁untragbar	-11.8776
▁subventioniert	-11.8776
▁kümmert	-11.8776
▁interkulturelle	-11.8776
▁weitesten	-11.8777
▁Drohungen	-11.8779
▁materiellen	-11.8781
ust	-11.8781
ino	-11.8783
Bürgerinitiative	-11.8784
abbau	-11.8787
▁kämpft	-11.8788
ita	-11.879
▁indirekten	-11.8791
▁Schwachstellen	-11.8791
▁Ne	-11.8792
▁Kontakten	-11.8795
▁Kraftstoffe	-11.8796
▁Bedarfs	-11.8796
▁Bangladesch	-11.8802
▁Burundi	-11.8802
▁SOKRATES	-11.8802
▁Unterfangen	-11.8802
▁Saudi	-11.8802
▁vorläufige	-11.8803
99	-11.8803
▁Innenpolitik	-11.8803
21	-11.8806
▁akzeptiere	-11.8806
▁58	-11.8808
smitgliedern	-11.8811
halt	-11.8811
▁Grenzregionen	-11.8814
▁62	-11.8816
bewusst	-11.8816
skrise	-11.882
▁legitimiert	-11.8823
▁real	-11.8825
▁Website	-11.8825
ial	-11.8826
▁entfalten	-11.8829
▁ungeeignet	-11.8829
▁brechen	-11.8829
▁Risikokapital	-11.883
ging	-11.883
▁Cashman	-11.8831
haus	-11.8831
▁Zuwanderer	-11.8833
▁Maßnahmenpaket	-11.8834
▁Bali	-11.8835
▁Kontrollsystem	-11.8837
Problem	-11.8838
▁Kommentar	-11.8839
▁blieb	-11.8839
▁Stimmung	-11.8839
▁ernster	-11.8842
▁überdies	-11.8842
geräte	-11.8843
▁Ba	-11.8845
▁verschiedenste	-11.8846
▁wieviel	-11.885
▁einreichen	-11.885
▁Erzeugnis	-11.8855
▁modernisieren	-11.8856
▁schutzbedürftig	-11.8856
▁Zahlungs	-11.886
▁Ermessen	-11.8861
▁bulgarischen	-11.8865
▁erstrecken	-11.8866
▁Hauptaufgabe	-11.8868
▁los	-11.8872
rischen	-11.8877
▁Außenwirtschaft	-11.8877
▁Amts	-11.8878
▁Reformprozess	-11.8879
▁stärkeres	-11.8879
▁Wortmeldungen	-11.8879
▁Nachfolger	-11.888
▁Bundeskanzler	-11.8881
11	-11.8882
pri	-11.8883
▁Demzufolge	-11.8883
▁pakistanische	-11.8883
sprojekt	-11.8884
▁Wandels	-11.8884
▁hinterher	-11.8885
▁Kohlenstoff	-11.8887
▁Gehalt	-11.8891
▁No	-11.8892
eres	-11.8894
Rates	-11.8894
geschwindigkeits	-11.8895
▁Geldes	-11.89
▁überlegt	-11.8901
▁Budgets	-11.8901
stände	-11.8904
Russland	-11.8905
▁Diktaturen	-11.8906
geb	-11.8907
▁Vieh	-11.8909
▁Verzweiflung	-11.891
▁erwecken	-11.891
▁gesteigert	-11.891
▁konsultieren	-11.891
▁untergräbt	-11.891
▁vehement	-11.891
▁empfinde	-11.8911
▁ordnungs	-11.8911
▁fragte	-11.8912
nischen	-11.8912
▁luxemburgischen	-11.8912
▁Glaubens	-11.8915
▁angelegte	-11.8916
▁vielfältigen	-11.8917
ellen	-11.8917
▁katastrophalen	-11.8918
▁freundlich	-11.8918
▁Glas	-11.8921
ack	-11.8922
Aus	-11.8924
maßnahme	-11.8925
▁afrikanische	-11.8925
▁höheres	-11.8926
rechnung	-11.8933
beg	-11.8934
rolle	-11.8935
▁Zwang	-11.8937
▁aufgezwungen	-11.8937
▁behilflich	-11.8937
▁hartnäckig	-11.8937
▁Wachsamkeit	-11.8937
▁vollwertige	-11.8937
kompetenz	-11.8939
▁naiv	-11.8939
▁Vergehen	-11.894
Kleinunternehmen	-11.8946
▁tiefen	-11.8946
▁Spekulationen	-11.8947
▁Besucher	-11.8953
▁WPA	-11.8954
▁Raumes	-11.896
tiert	-11.8961
▁wen	-11.8963
▁Nabucco	-11.8964
▁Wynn	-11.8964
▁einzubinden	-11.8964
▁Zugänglichkeit	-11.8964
▁Gegenzug	-11.8964
▁Bescheid	-11.8964
▁bestellt	-11.8965
Gipfels	-11.8966
▁Fünf	-11.8967
▁Innen	-11.8967
quote	-11.8972
fin	-11.8972
gleichszahlungen	-11.8978
zumachen	-11.8979
▁Coelho	-11.8991
▁draußen	-11.8991
▁gespalten	-11.8991
▁Burma	-11.8991
▁Wa	-11.8991
▁2014	-11.8992
▁Raumordnung	-11.8993
▁weiterleiten	-11.8994
▁Wales	-11.8994
▁not	-11.8997
▁arbeits	-11.8999
our	-11.8999
▁Hochwasser	-11.8999
importe	-11.9001
▁Mitgliedsland	-11.9002
▁Finanzmärkten	-11.9002
▁auszugeben	-11.9006
▁Grenzwert	-11.9007
▁Aufbauwerk	-11.9008
zentrum	-11.9008
kol	-11.9008
▁reiche	-11.9009
▁Asylverfahren	-11.901
▁Klassen	-11.9012
als	-11.9012
▁getroffene	-11.9013
▁fundierte	-11.9015
▁fünfte	-11.9016
▁geographische	-11.9018
▁anderthalb	-11.9018
▁maritime	-11.9018
▁veranstaltet	-11.9018
ll	-11.9018
▁Veranstaltungen	-11.9022
sposition	-11.9026
▁beiseite	-11.9028
▁zuverlässig	-11.9029
▁Freihandels	-11.903
▁Elite	-11.9031
sfähig	-11.9033
ungssysteme	-11.9033
▁Pat	-11.9034
Aufsichtsbehörde	-11.9039
▁Urlaub	-11.904
hof	-11.904
kampagne	-11.9042
▁Präsidiums	-11.9042
▁Schaf	-11.9044
▁behandelten	-11.9044
▁ebnen	-11.9045
▁gedient	-11.9045
▁unlautere	-11.9046
▁Niederlage	-11.9046
▁Unsinn	-11.9047
▁dezentralisiert	-11.9048
▁Teilhabe	-11.9048
▁inakzeptable	-11.9052
▁Haushaltspläne	-11.9052
▁zulässigen	-11.906
werfen	-11.9061
▁quo	-11.9061
▁weiten	-11.9061
▁66	-11.9061
▁Alpen	-11.9063
▁tiefgreifende	-11.9063
▁verschlossenen	-11.9066
▁günstigen	-11.9068
IC	-11.9068
▁Futtermitteln	-11.9068
fest	-11.9069
protokoll	-11.907
bilanz	-11.9072
▁befolgt	-11.9073
▁Green	-11.9073
▁aufzugreifen	-11.9073
▁zuviel	-11.9077
▁Ausfuhren	-11.9077
▁gewährten	-11.9078
▁öffentliches	-11.9079
▁ad	-11.9082
▁Arbeitsmärkte	-11.9082
ble	-11.9086
▁Notfall	-11.9088
Partner	-11.9088
▁Vertreters	-11.9088
elt	-11.9093
▁Würden	-11.9097
ap	-11.9098
▁erhöhten	-11.9099
anbieter	-11.91
disch	-11.91
zin	-11.91
▁Furcht	-11.91
▁Jagd	-11.91
▁gewarnt	-11.91
▁befolgen	-11.9101
▁Kapitalismus	-11.9102
▁Vorgehens	-11.9105
preisen	-11.9106
▁Liberale	-11.9107
ron	-11.9113
▁Reformierung	-11.9114
▁künftiger	-11.9116
Berichts	-11.9117
IP	-11.912
og	-11.9121
▁Flugzeugen	-11.9122
▁Anwendungen	-11.9124
▁verantwortliche	-11.9125
ative	-11.9126
▁Privileg	-11.9128
▁Argentinien	-11.9128
▁Tsunami	-11.9128
▁ausgezahlt	-11.9128
▁Hintertür	-11.9128
▁Ratingagenturen	-11.9128
▁neoliberalen	-11.9128
▁Bislang	-11.9128
▁Erlaubnis	-11.9128
▁Mindestnormen	-11.9128
schaften	-11.9129
▁Zustände	-11.913
▁widmet	-11.913
▁Baskenland	-11.913
▁Polens	-11.9132
▁Waldbrände	-11.9135
Haushaltsführung	-11.9135
▁Allgemein	-11.9138
▁pflichte	-11.9139
▁motiviert	-11.9139
07	-11.9142
▁Arbeitszeiten	-11.9146
▁Deutschlands	-11.9148
▁hielten	-11.9149
▁Letzte	-11.9152
▁letztere	-11.9152
basis	-11.9153
▁eingesetzten	-11.9153
▁Futter	-11.9155
▁Abwicklung	-11.9156
▁Asbest	-11.9156
▁Rechnungslegung	-11.9156
▁Verhofstadt	-11.9156
▁aufgedeckt	-11.9156
▁leugnen	-11.9156
▁plädiert	-11.9156
▁unvollständig	-11.9156
▁einigermaßen	-11.9156
▁Letztlich	-11.9156
▁Reformvertrag	-11.9159
▁slowenischen	-11.9159
▁rumänische	-11.9162
▁Übergriffe	-11.9162
▁islamische	-11.9163
▁Lernens	-11.9163
▁ausdrückliche	-11.9165
▁Prämien	-11.9166
▁Etikett	-11.9166
Inverkehrbringen	-11.9168
rig	-11.917
▁lieben	-11.9174
▁Hof	-11.9176
▁Wortes	-11.9177
▁schlechtes	-11.9179
währung	-11.9182
körper	-11.9183
▁Einheitswährung	-11.9183
▁verschafft	-11.9183
▁Singapur	-11.9183
▁teilhaben	-11.9183
ding	-11.9184
▁eingehende	-11.9185
ühl	-11.9185
▁Schadstoffe	-11.9187
▁Börsen	-11.9189
lin	-11.9189
▁geschlagen	-11.919
▁Auflösung	-11.9193
▁aufgeworfenen	-11.9198
zeichen	-11.9198
▁dargelegten	-11.9199
▁Reis	-11.9199
▁Human	-11.9205
stext	-11.9205
fordern	-11.9205
▁aufnimmt	-11.9207
▁wachen	-11.9207
▁abweichen	-11.9209
▁ausgestellt	-11.9209
▁Termine	-11.9209
schläge	-11.9209
▁betroffene	-11.9211
▁Dilemma	-11.9211
▁Geschehen	-11.9211
▁untrennbar	-11.9211
▁ungerechtfertig	-11.9212
▁Balkanstaaten	-11.9212
▁plädiere	-11.9218
▁nationalistisch	-11.9219
▁überfällig	-11.922
▁Verkehrsmittel	-11.9224
▁formelle	-11.9224
Regime	-11.9224
▁Mittelmeerraums	-11.9228
▁bestimmtes	-11.9229
▁stabil	-11.9233
▁fundamental	-11.9233
▁albanischen	-11.9234
▁komplexer	-11.9238
▁paradox	-11.9238
fassung	-11.9238
▁Seattle	-11.9239
▁Titley	-11.9239
▁herbeiführen	-11.9239
▁Ohren	-11.924
▁Hans	-11.924
▁Vorabend	-11.924
▁Drucks	-11.9241
▁lebende	-11.9242
▁Weltbevölkerung	-11.9242
übertragung	-11.9243
Region	-11.9246
▁Boot	-11.9247
▁eventuellen	-11.9248
▁Ausmaße	-11.9251
gegen	-11.9251
aktionssteuer	-11.9253
swesens	-11.9254
▁realistischen	-11.9255
▁al	-11.9259
▁herunter	-11.926
netzen	-11.9264
▁vorzustellen	-11.9266
Arabien	-11.9267
▁Arabische	-11.9267
▁ausspricht	-11.9267
▁sudanesische	-11.9267
▁verzerrt	-11.9267
▁Alarm	-11.9267
▁Mächte	-11.9267
▁Marktteilnehmer	-11.9268
aufnahme	-11.927
institut	-11.927
▁Bürgerschaft	-11.9271
▁Bereicherung	-11.9273
sangehörige	-11.9273
▁bezog	-11.9274
▁Sätze	-11.9277
▁schrittweisen	-11.9279
stück	-11.9283
rin	-11.9284
▁sprachlichen	-11.9286
elemente	-11.9289
▁Prüf	-11.9289
ausgaben	-11.929
▁Peter	-11.929
▁Beleidigung	-11.9295
betreiber	-11.9295
▁Allgemeinheit	-11.9295
▁Risikobewertung	-11.9296
▁Marktöffnung	-11.9296
beschäftigung	-11.9297
▁USD	-11.9298
▁bewährten	-11.9302
nehmer	-11.9305
fache	-11.9321
▁nordischen	-11.9322
Fluggesellschaft	-11.9323
▁schwieriges	-11.9323
▁EGKS	-11.9323
▁konsolidieren	-11.9323
▁nannte	-11.9323
▁passt	-11.9323
▁einmischen	-11.9323
▁alltägliche	-11.9323
▁Kl	-11.9324
▁globales	-11.9326
▁Todes	-11.9326
▁reibungslos	-11.9328
14	-11.9328
senkung	-11.9329
▁älterer	-11.9329
▁Umweltausschuß	-11.933
▁Illusion	-11.933
▁Fachleute	-11.9331
▁Redebeiträge	-11.9332
▁hervorgehen	-11.9333
▁unverzügliche	-11.9336
▁zusammenhängen	-11.9338
▁Rahmenabkommen	-11.934
angelegenheiten	-11.9341
▁importiert	-11.9347
schäden	-11.9348
transaktionen	-11.9349
▁lebenslanges	-11.935
▁Amnesty	-11.9351
▁Benennung	-11.9351
▁Weihnachten	-11.9351
▁angelangt	-11.9351
▁klingt	-11.9351
▁ähnliches	-11.9352
▁Genehmigungen	-11.9354
Ma	-11.9357
▁mutigen	-11.936
▁vorab	-11.9362
trag	-11.9363
▁betrug	-11.9364
▁schottischen	-11.9367
▁rückt	-11.9368
);	-11.9373
▁Bündnis	-11.9373
▁Siebten	-11.9375
sstelle	-11.9376
▁Berichtes	-11.9379
▁weswegen	-11.9379
▁Jemen	-11.9379
stra	-11.938
▁Sozialmodells	-11.938
lagern	-11.9384
▁stabiler	-11.9385
▁Ständige	-11.9386
▁Mindestmaß	-11.9387
▁Geschlecht	-11.9387
▁Seeleute	-11.9388
▁Mu	-11.939
▁radikalen	-11.9397
▁Militärs	-11.9398
▁Pestizide	-11.94
▁verschlechtern	-11.94
▁kurdischen	-11.9401
sanlagen	-11.9401
wahl	-11.9402
▁Finanzsektor	-11.9407
▁Hisbollah	-11.9408
▁Verweigerung	-11.9408
▁Ecofin	-11.9408
konzentration	-11.9408
▁entlang	-11.9408
▁zurückzukommen	-11.9409
sfrist	-11.9411
gefahren	-11.9411
▁einheimischen	-11.9412
▁regional	-11.9413
sgarantien	-11.9417
▁Inspektoren	-11.9418
▁professionelle	-11.9419
▁leichten	-11.942
▁zugestanden	-11.9421
feld	-11.9422
debatte	-11.9422
▁110	-11.9425
transfer	-11.9433
▁Verschwinden	-11.9436
▁unangebracht	-11.9436
▁Prag	-11.9436
▁Missstände	-11.9436
kommission	-11.9436
▁Stimmerklärung	-11.9437
▁jeher	-11.9438
▁unzureichenden	-11.9442
▁stellend	-11.9445
▁materielle	-11.9449
szentren	-11.9453
▁ansieht	-11.9455
▁still	-11.9457
000	-11.946
▁Gewähr	-11.946
zonen	-11.9463
▁Pharma	-11.9464
▁Ru	-11.9465
▁Anleger	-11.9465
▁Anwälte	-11.9465
▁Schwächung	-11.9465
▁zusichern	-11.9466
Energieerzeugung	-11.9472
instrument	-11.9473
▁Klimaänderung	-11.9473
▁Sportler	-11.9474
▁erkenne	-11.9474
situationen	-11.9479
▁unterstützten	-11.9479
arch	-11.948
medizin	-11.948
▁Fremdenverkehrs	-11.9487
▁vereinfachte	-11.9487
▁Zurück	-11.9489
ud	-11.9489
▁gleichwertige	-11.9489
fällen	-11.9491
▁Erpressung	-11.9493
▁Brustkrebs	-11.9493
▁Umwandlung	-11.9493
ó	-11.9494
▁2050	-11.9495
▁Familienleben	-11.9495
▁Fischereiflotte	-11.9495
▁Treffens	-11.9496
▁Konkurs	-11.9496
(1)	-11.9498
erung	-11.9501
▁Mag	-11.9504
▁Tr	-11.9505
▁basierend	-11.9506
▁Arbeitsgruppen	-11.9506
▁wünschte	-11.9507
▁Tun	-11.9509
geber	-11.9511
▁kohärent	-11.9511
aut	-11.9512
▁Sam	-11.9513
▁grüne	-11.9513
▁Karten	-11.9514
▁Mögliche	-11.9515
ungssicherheit	-11.9516
Ziel	-11.9517
Rechts	-11.9519
▁unabdingbare	-11.9519
▁11,	-11.952
▁Ni	-11.952
▁Lannoye	-11.9522
▁Südosteuropa	-11.9522
▁aufgeteilt	-11.9522
▁nützen	-11.9522
▁ehrliche	-11.9523
▁weitergeführt	-11.9525
band	-11.9525
▁englische	-11.9527
▁repräsentieren	-11.953
▁unfähig	-11.9532
▁Richtungen	-11.9532
verhältnisse	-11.9535
genommen	-11.9539
Information	-11.954
Organe	-11.9542
▁Protokolle	-11.9546
▁Eckpfeiler	-11.9551
▁Kanäle	-11.9551
▁begeistert	-11.9551
▁Ärmsten	-11.9551
▁Todesopfer	-11.9551
▁fortzuführen	-11.9551
▁Reisekosten	-11.9551
▁zulässt	-11.9552
▁Ausstieg	-11.9553
pon	-11.9555
▁Service	-11.9556
▁Fragesteller	-11.9557
sy	-11.9558
▁Business	-11.9558
▁bestreiten	-11.956
▁restriktive	-11.9565
▁Jerusalem	-11.9565
spakt	-11.9567
▁Repräsentanten	-11.9568
▁ex	-11.9575
monopol	-11.9576
▁persönlicher	-11.9577
Kopf	-11.9579
wagen	-11.9579
landes	-11.9579
▁Fünfzehn	-11.9579
▁zwecks	-11.958
laufen	-11.958
▁Weiterführung	-11.958
▁geschätzte	-11.9581
▁Großbritanniens	-11.9583
▁klassischen	-11.9585
geführt	-11.9585
La	-11.9586
▁Einzelplan	-11.9587
abschätzungen	-11.9589
▁Einmal	-11.959
▁Welle	-11.959
tzt	-11.9594
▁beipflichten	-11.9597
▁harmonisierten	-11.9599
▁Grünbuchs	-11.9603
▁vorschreiben	-11.9603
stehenden	-11.9603
▁enormer	-11.9603
sdiensten	-11.9605
▁Alexander	-11.9608
▁Hautala	-11.9608
▁befördert	-11.9608
▁gewürdigt	-11.9608
▁vorenthalten	-11.9608
▁weigern	-11.9608
▁Überraschung	-11.9608
▁Niederschlag	-11.9608
▁fällen	-11.9609
▁Justizbehörden	-11.961
▁Zustrom	-11.961
▁Gerichtshofes	-11.9611
quellen	-11.9615
▁Gewiss	-11.9617
sführer	-11.9617
▁Spannung	-11.9617
▁Ernte	-11.9618
▁arm	-11.962
▁kleinsten	-11.9621
▁Paul	-11.9621
▁gerichtliche	-11.9624
▁herrschte	-11.9626
urchschnittliche	-11.9633
lock	-11.9634
▁Fi	-11.9634
▁erfolgten	-11.9636
▁Kaschmir	-11.9637
▁Militarisierung	-11.9637
▁angeklagt	-11.9637
▁vernichten	-11.9637
▁Rücknahme	-11.9638
▁Einzige	-11.9638
lan	-11.9641
Zu	-11.9641
▁beschlossene	-11.9649
▁Klagen	-11.9649
▁Subvention	-11.965
▁Ministern	-11.9652
legung	-11.9652
▁verhältnismäßig	-11.9653
▁neutral	-11.9653
▁verankerten	-11.9654
lasten	-11.9655
▁Unklarheiten	-11.9665
Jugend	-11.9666
▁Minderjährigen	-11.9666
▁Hauptanliegen	-11.9666
▁Moldawien	-11.9666
▁Strafsachen	-11.9666
▁Strahlung	-11.9666
▁aufgewendet	-11.9666
▁Jordanien	-11.9666
▁bemerkenswert	-11.9674
▁vereinbarte	-11.9675
▁durchlaufen	-11.9682
partner	-11.9682
managements	-11.9683
▁Vorrednern	-11.9685
▁Kartell	-11.9686
▁bevorzugt	-11.9686
▁Rechtsschutz	-11.9687
▁vorläufig	-11.9692
▁verantworten	-11.9695
▁voranschreiten	-11.9696
▁Differenzierung	-11.9696
▁Pensionsfonds	-11.9696
▁ETA	-11.9696
▁Kurzum	-11.9697
▁seinerseits	-11.9702
sgesellschaften	-11.9704
erklärung	-11.9705
▁Maßstäbe	-11.9707
▁durfte	-11.9707
teressengruppen	-11.9709
▁gemeinschafts	-11.971
▁ausweiten	-11.9711
▁ginge	-11.9712
konzerne	-11.9713
▁Finanztrans	-11.9719
▁Verhaftungen	-11.9721
▁Höhepunkt	-11.9723
▁aufgeführten	-11.9724
▁Neutralität	-11.9725
▁zögerlich	-11.9725
▁Vigo	-11.9725
▁Überwachungs	-11.9727
▁unterwerfen	-11.9733
sein	-11.9735
aktiv	-11.9736
scht	-11.9738
brechen	-11.974
▁Con	-11.9743
▁Instanzen	-11.9748
▁veränderter	-11.9749
Mehrsprachigkeit	-11.9754
▁Immobilien	-11.9754
▁Sympathie	-11.9754
▁Rocard	-11.9754
▁wundern	-11.9754
▁berühmten	-11.9754
▁hervorhebt	-11.9754
ara	-11.9755
▁Reaktoren	-11.9755
▁Werften	-11.9755
▁gestellte	-11.9755
▁durchführbar	-11.9756
▁kohärenter	-11.9756
▁kommentieren	-11.9759
▁formulierten	-11.9762
icht	-11.9764
▁Brücke	-11.9766
▁hege	-11.9767
▁übersetzt	-11.9768
▁Pilotprojekte	-11.9772
▁daraufhin	-11.9774
▁reichlich	-11.9775
▁Bürgers	-11.978
▁erregend	-11.9781
▁Aggression	-11.9783
▁Vorkommnisse	-11.9784
▁Trans	-11.9786
tat	-11.9787
▁Begleitung	-11.9787
rechtskommission	-11.9788
▁sofortigen	-11.9791
▁Bildungswesen	-11.9791
lit	-11.9794
▁unterstellt	-11.9795
ssitzung	-11.9801
sänderungen	-11.9802
▁sahen	-11.9802
▁ausländischer	-11.9808
▁Blokland	-11.9813
▁Nördliche	-11.9813
▁praktikable	-11.9813
risiken	-11.9813
▁Endergebnis	-11.9813
▁Klauseln	-11.9814
ultilateralismus	-11.9818
▁Fl	-11.982
ox	-11.9821
sgericht	-11.9821
▁weitgehende	-11.9822
▁Gewinner	-11.983
▁Bevölkerungen	-11.9831
▁immense	-11.9834
▁plädieren	-11.9835
▁räumen	-11.9837
▁günstige	-11.9843
▁Manipulation	-11.9843
▁berühren	-11.9843
▁praktizieren	-11.9843
▁initiiert	-11.9843
13	-11.9844
▁heftig	-11.9845
▁Kernkraftwerken	-11.9849
▁Ära	-11.9851
▁billig	-11.9851
▁Wende	-11.9851
▁Asylbewerbern	-11.9851
▁traf	-11.9853
gelassen	-11.9853
▁herein	-11.9855
▁geschädigt	-11.9855
▁offenbart	-11.9856
▁Mißtrauen	-11.9863
▁Fusion	-11.9865
ran	-11.9865
slücke	-11.9867
▁Za	-11.9869
qua	-11.9872
▁Guatemala	-11.9872
▁Sterckx	-11.9872
▁erweckt	-11.9872
▁geopfert	-11.9872
▁kehren	-11.9873
AIDS	-11.9873
▁betriebliche	-11.9873
▁Kalten	-11.9874
▁geschaffenen	-11.9876
▁sorgfältige	-11.9876
sicherung	-11.9882
▁moralisch	-11.9885
erbe	-11.9886
▁stürzen	-11.9889
smaßnahme	-11.989
sbildung	-11.9891
▁Urheberrecht	-11.9892
belastung	-11.9893
▁geringste	-11.9894
sur	-11.9895
▁Te	-11.9895
▁schriftlichen	-11.9898
▁Sechs	-11.99
▁Ag	-11.9901
▁euro	-11.9902
▁interpretiert	-11.9902
▁mühsam	-11.9902
▁vergrößert	-11.9902
▁zugeteilt	-11.9902
▁Entwürfe	-11.9902
▁Leinen	-11.9902
frist	-11.9903
▁Denk	-11.9903
schluss	-11.9904
hafte	-11.9905
▁strengeren	-11.9913
▁verfolgte	-11.9915
▁Elektronik	-11.9915
▁Pilotprojekt	-11.9915
▁einfordern	-11.9915
▁zusehen	-11.9916
bewusste	-11.9917
trollausschusses	-11.9918
▁Vetorecht	-11.9918
▁Lebensweise	-11.992
veränderungen	-11.9921
Regeln	-11.9923
▁geführte	-11.9923
▁vertretbar	-11.9931
▁Beunruhigung	-11.9932
▁Firma	-11.9932
▁Kairo	-11.9932
▁Oslo	-11.9932
▁Kenia	-11.9932
▁Bomben	-11.9932
▁Gewissheit	-11.9932
▁Forst	-11.9932
▁wohnen	-11.9932
▁gültigen	-11.9932
fahrzeugen	-11.9934
▁verfallen	-11.9934
▁Energieeinspar	-11.9939
▁skandalös	-11.9941
▁ideale	-11.9941
▁breitere	-11.9942
▁Lektion	-11.9943
▁Arbeitgebern	-11.9945
▁klarere	-11.9946
▁Liquidität	-11.9948
▁Virus	-11.9954
▁Mitteleuropa	-11.9956
▁baldige	-11.9958
sgeschichte	-11.9958
▁Pol	-11.996
▁Verspätungen	-11.996
▁Vergessen	-11.9962
▁Broek	-11.9962
▁beklagt	-11.9962
▁gestorben	-11.9962
Rationalisierung	-11.9962
▁Elles	-11.9962
▁einzureichen	-11.9962
▁Abwanderung	-11.9962
▁vereinen	-11.9962
▁bearbeitet	-11.9962
▁Arbeitsleben	-11.9962
Konflikt	-11.9963
karte	-11.9964
▁vereinten	-11.9966
teilung	-11.9966
▁Politische	-11.9966
▁Konkurrenten	-11.9967
tagung	-11.9967
▁Berechnungen	-11.9971
▁plus	-11.9973
▁Y	-11.9974
▁einstimmige	-11.9975
test	-11.9976
▁schwarze	-11.9978
▁äußerte	-11.9983
Paket	-11.9984
▁fester	-11.9984
▁tragisch	-11.9987
▁umgegangen	-11.9987
▁reich	-11.9988
▁totalitären	-11.9989
▁treffend	-11.9989
teile	-11.9991
▁Minen	-11.9991
▁einberufen	-11.9992
▁nachweisen	-11.9993
förder	-11.9993
▁Strafverfahren	-11.9996
▁Neuerungen	-12.0001
▁zutage	-12.0001
▁Übung	-12.0004
fo	-12.0005
(2001)	-12.0006
▁unzählige	-12.0006
▁Leone	-12.0007
sgebiet	-12.0009
▁unerträglich	-12.0012
▁allemal	-12.0016
▁Gewerkschaft	-12.0017
beschränkungen	-12.002
▁beeindruckt	-12.0022
▁handlungsfähig	-12.0022
▁identifiziert	-12.0022
▁verständigt	-12.0022
▁entführt	-12.0022
▁Ersten	-12.0022
▁fortführen	-12.0022
sunsicherheit	-12.0022
[...]
