<unk>	0
<s>	0
</s>	0
<pad>	0
▁the	-2.76461
,	-3.06219
.	-3.37176
▁of	-3.44056
▁to	-3.51572
▁and	-3.67823
▁in	-3.9321
▁that	-4.16823
▁a	-4.20859
▁is	-4.21117
▁for	-4.60235
▁I	-4.61351
▁on	-4.73038
▁be	-4.83033
▁this	-4.83705
▁we	-4.87287
▁are	-5.01587
▁have	-5.064
▁it	-5.06899
▁not	-5.11547
▁as	-5.18155
▁with	-5.18176
▁which	-5.21178
s	-5.24485
▁European	-5.26092
▁by	-5.37974
▁will	-5.38245
▁The	-5.38587
-	-5.41705
▁has	-5.49522
'	-5.60171
▁Mr	-5.66284
▁Commission	-5.75907
▁an	-5.80656
▁would	-5.81553
▁also	-5.82791
▁at	-5.83169
▁should	-5.87616
▁all	-5.87849
▁from	-5.92456
▁We	-5.93751
▁President	-5.94154
▁-	-5.94488
▁our	-5.95181
▁must	-5.95836
▁but	-6.01449
▁been	-6.03899
▁Union	-6.09941
▁It	-6.12672
▁Parliament	-6.14136
▁can	-6.17375
▁you	-6.19514
▁was	-6.21246
▁Member	-6.21953
▁more	-6.22816
▁or	-6.25035
▁report	-6.25806
▁States	-6.26271
▁its	-6.27714
▁Council	-6.2972
▁their	-6.30202
▁there	-6.31175
▁do	-6.31282
▁like	-6.31304
▁very	-6.36183
▁Europe	-6.36736
▁This	-6.37826
▁In	-6.39395
▁these	-6.41088
▁they	-6.42891
▁EU	-6.43444
▁one	-6.44541
▁countries	-6.47872
▁so	-6.51493
▁who	-6.51678
▁about	-6.54178
▁other	-6.54747
▁what	-6.5551
▁need	-6.5762
▁us	-6.57643
▁important	-6.62375
▁people	-6.63036
▁my	-6.6321
▁only	-6.64039
▁new	-6.65616
▁time	-6.67051
▁policy	-6.67214
:	-6.68801
▁because	-6.68808
▁if	-6.6996
▁no	-6.73062
▁up	-6.78375
▁am	-6.78735
▁now	-6.80425
▁support	-6.80683
▁out	-6.80862
▁such	-6.81319
?	-6.83586
▁make	-6.84298
▁into	-6.8606
▁between	-6.86948
▁those	-6.87398
▁work	-6.88051
▁take	-6.89919
▁rights	-6.94112
▁when	-6.947
▁some	-6.95295
▁therefore	-6.95573
▁(	-6.96394
▁being	-6.96964
▁any	-6.97986
▁them	-6.98353
▁political	-6.99932
▁made	-7.00317
▁were	-7.00761
▁way	-7.03008
▁than	-7.03139
;	-7.04086
▁believe	-7.04865
▁economic	-7.05012
▁Commissioner	-7.07408
▁say	-7.07592
▁proposal	-7.10367
▁many	-7.10474
▁fact	-7.10935
▁against	-7.12499
▁first	-7.12713
▁social	-7.15979
▁market	-7.1649
▁think	-7.18621
▁Committee	-7.19983
▁just	-7.20339
▁development	-7.21075
▁issue	-7.2136
▁well	-7.21434
▁That	-7.21916
’	-7.21918
ing	-7.22024
▁point	-7.22201
▁years	-7.22873
▁human	-7.25609
▁situation	-7.25814
▁two	-7.25842
▁future	-7.26075
▁'	-7.26107
▁question	-7.26805
▁order	-7.26831
▁right	-7.27131
▁cannot	-7.27398
▁here	-7.27662
▁country	-7.27662
▁does	-7.28188
▁want	-7.28259
▁had	-7.28617
▁citizens	-7.28705
▁same	-7.28729
▁debate	-7.28904
▁even	-7.29114
▁possible	-7.29718
▁measures	-7.30021
▁As	-7.30778
)	-7.31567
▁part	-7.31813
▁could	-7.31979
▁said	-7.32766
▁public	-7.33533
▁most	-7.33928
▁today	-7.34859
▁agreement	-7.35133
▁	-7.35335
▁me	-7.36071
▁already	-7.36442
▁where	-7.36923
▁clear	-7.37536
▁good	-7.37701
▁too	-7.37938
▁national	-7.38036
▁much	-7.39303
▁within	-7.39354
▁financial	-7.3953
▁know	-7.40902
▁There	-7.41059
▁still	-7.41158
▁year	-7.41296
▁how	-7.4172
▁However	-7.41919
▁Mrs	-7.42676
▁particular	-7.42688
▁over	-7.4311
▁use	-7.43152
▁common	-7.4392
▁both	-7.44224
▁under	-7.45057
▁Community	-7.45567
▁cooperation	-7.45909
▁view	-7.46082
▁course	-7.46186
▁world	-7.47511
▁hope	-7.48367
▁taken	-7.49283
▁international	-7.49643
▁system	-7.49647
▁your	-7.49757
▁ensure	-7.49787
▁own	-7.49829
▁level	-7.49885
▁case	-7.50265
▁able	-7.50949
▁see	-7.51046
▁area	-7.51395
▁his	-7.52214
▁process	-7.55062
▁put	-7.55272
▁why	-7.56091
▁then	-7.56311
▁energy	-7.56424
▁number	-7.56622
▁rapporteur	-7.56756
▁means	-7.56977
▁example	-7.57683
▁problem	-7.57848
▁information	-7.57971
▁last	-7.5811
▁action	-7.58117
▁vote	-7.58222
▁may	-7.58708
▁–	-7.59915
▁gentlemen	-7.60273
▁however	-7.60877
▁without	-7.61037
▁through	-7.61165
▁directive	-7.62028
▁House	-7.62563
▁problems	-7.62606
▁If	-7.62892
▁place	-7.64945
▁budget	-7.65823
▁he	-7.65844
▁particularly	-7.66201
▁necessary	-7.66315
▁great	-7.66975
▁give	-7.6702
▁protection	-7.67545
▁Madam	-7.67625
▁before	-7.67699
▁long	-7.67916
▁end	-7.67969
▁issues	-7.68292
▁given	-7.6978
▁regard	-7.70129
▁security	-7.70133
▁far	-7.70263
▁areas	-7.70485
▁respect	-7.70495
▁position	-7.70563
▁Treaty	-7.716
▁legal	-7.7185
▁matter	-7.71989
▁law	-7.72428
▁resolution	-7.74273
▁Group	-7.74329
▁women	-7.74919
▁amendments	-7.75474
▁whether	-7.76095
▁decision	-7.76116
▁again	-7.76367
▁set	-7.76756
▁sector	-7.76772
▁ladies	-7.76935
▁United	-7.77538
▁thank	-7.7819
▁further	-7.78494
▁A	-7.7878
▁role	-7.78827
▁since	-7.7895
▁programme	-7.78985
▁behalf	-7.7939
▁Members	-7.80009
▁proposals	-7.80209
▁basis	-7.80578
▁terms	-7.8062
▁certain	-7.81823
▁services	-7.83032
▁trade	-7.83232
▁rules	-7.83804
▁come	-7.83858
▁done	-7.83911
▁health	-7.83992
▁favour	-7.84832
▁aid	-7.85133
▁different	-7.85716
▁legislation	-7.85857
▁better	-7.86648
▁present	-7.87299
▁crisis	-7.87419
▁framework	-7.87761
▁agree	-7.8779
▁help	-7.87936
▁But	-7.88613
▁next	-7.88912
▁adopted	-7.90305
▁needs	-7.9039
▁opinion	-7.90402
▁What	-7.91014
▁continue	-7.91255
▁change	-7.91481
▁institutions	-7.92451
▁ask	-7.93017
▁after	-7.9325
▁progress	-7.93431
▁wish	-7.93598
▁For	-7.93918
▁concerned	-7.93944
▁result	-7.94987
▁s	-7.95561
▁group	-7.95681
▁going	-7.95713
▁three	-7.96328
▁State	-7.96858
▁whole	-7.96932
▁few	-7.97277
▁working	-7.97487
▁forward	-7.97904
▁something	-7.98185
▁towards	-7.98215
▁approach	-7.98703
▁welcome	-7.9871
▁principle	-8.00601
▁subject	-8.01853
▁resources	-8.02244
▁current	-8.02455
▁conditions	-8.02541
▁go	-8.03095
▁including	-8.03855
▁million	-8.04232
▁Presidency	-8.04349
▁proposed	-8.05047
▁On	-8.05131
▁opportunity	-8.05142
▁really	-8.0524
▁employment	-8.05289
▁did	-8.0535
▁shall	-8.05705
▁importance	-8.05774
▁provide	-8.05851
▁specific	-8.05904
▁together	-8.06152
▁increase	-8.06302
▁policies	-8.06315
▁authorities	-8.06399
▁used	-8.06672
▁voted	-8.06759
▁second	-8.06766
▁state	-8.06952
▁especially	-8.0786
▁transport	-8.08487
▁every	-8.08535
▁during	-8.08692
▁industry	-8.08892
▁regulation	-8.09191
▁find	-8.09353
▁They	-8.09441
▁account	-8.09529
▁general	-8.09662
▁clearly	-8.09984
▁negotiations	-8.10475
▁high	-8.10498
▁become	-8.10532
▁down	-8.1054
▁strategy	-8.10554
▁itself	-8.10826
▁another	-8.10832
▁environmental	-8.11311
▁responsibility	-8.11409
▁greater	-8.11439
▁quite	-8.11531
▁least	-8.1187
▁safety	-8.11893
▁products	-8.12031
▁serious	-8.12057
▁third	-8.12393
▁rather	-8.13351
▁research	-8.1348
▁small	-8.13753
▁These	-8.14698
▁No	-8.15359
▁always	-8.16067
ed	-8.1668
▁reason	-8.16971
▁difficult	-8.1714
▁call	-8.17622
▁democracy	-8.17641
▁fundamental	-8.17889
▁once	-8.17961
▁making	-8.17984
▁essential	-8.18103
▁real	-8.18158
▁things	-8.18578
▁access	-8.18586
▁deal	-8.18721
▁regions	-8.18771
▁effective	-8.18775
▁freedom	-8.1918
▁achieve	-8.19617
▁attention	-8.19638
▁taking	-8.19908
▁interests	-8.19989
▁At	-8.20012
▁society	-8.20258
▁based	-8.20322
▁major	-8.20388
▁implementation	-8.20726
▁economy	-8.21476
▁internal	-8.2186
▁get	-8.21867
▁democratic	-8.22085
in	-8.22445
▁various	-8.22598
▁efforts	-8.22811
▁money	-8.2289
▁environment	-8.23026
▁large	-8.23369
▁positive	-8.2356
▁government	-8.236
▁hand	-8.23891
▁words	-8.24042
▁each	-8.24153
▁points	-8.25086
▁back	-8.26349
▁free	-8.26714
▁yet	-8.26762
▁committee	-8.26797
▁allow	-8.2681
▁while	-8.27651
▁procedure	-8.27815
▁less	-8.28304
▁involved	-8.28407
▁look	-8.28685
▁single	-8.28693
▁consider	-8.28809
▁region	-8.29442
▁competition	-8.29551
▁concerns	-8.29704
▁funds	-8.30078
▁full	-8.30111
▁children	-8.30274
▁growth	-8.30509
▁Affairs	-8.30528
▁having	-8.30541
▁Government	-8.31049
▁So	-8.31762
▁workers	-8.32137
▁control	-8.32414
▁reform	-8.32916
▁companies	-8.33042
▁EUR	-8.33414
▁objectives	-8.33631
▁programmes	-8.33678
▁step	-8.33762
▁power	-8.33892
▁peace	-8.33916
▁quality	-8.34253
▁interest	-8.34681
▁best	-8.34753
▁Lisbon	-8.34771
▁solution	-8.3483
▁food	-8.35067
▁majority	-8.35215
▁fully	-8.35364
▁agreements	-8.36021
▁simply	-8.36059
▁often	-8.36109
▁standards	-8.36303
▁certainly	-8.36386
▁amendment	-8.36793
▁decisions	-8.36999
▁global	-8.37025
▁recent	-8.37192
▁agricultural	-8.37842
▁concern	-8.38481
▁bring	-8.38496
▁aware	-8.3854
▁dialogue	-8.38581
▁extremely	-8.38662
▁her	-8.38755
▁production	-8.38779
▁force	-8.38943
▁relations	-8.39246
▁Turkey	-8.39641
▁main	-8.39962
▁accept	-8.40003
▁following	-8.40031
▁groups	-8.40594
▁create	-8.40705
▁text	-8.40778
▁context	-8.41484
▁initiative	-8.41631
▁ago	-8.4174
▁period	-8.42296
▁form	-8.42332
▁actually	-8.42826
▁might	-8.43016
▁objective	-8.43312
▁developing	-8.43662
▁risk	-8.43754
▁enlargement	-8.43943
▁life	-8.44117
▁Article	-8.44124
▁mentioned	-8.44131
▁fight	-8.44605
▁states	-8.44895
▁improve	-8.45228
▁available	-8.45383
▁And	-8.45457
▁Court	-8.4549
▁indeed	-8.45817
▁non	-8.45828
▁Let	-8.45836
▁questions	-8.45857
▁jobs	-8.46038
▁start	-8.46401
▁regional	-8.46468
▁meeting	-8.46651
▁currently	-8.47046
▁concerning	-8.47219
▁open	-8.47359
▁field	-8.47557
▁Finally	-8.4756
▁impact	-8.47833
▁climate	-8.47903
▁appropriate	-8.47958
▁others	-8.48325
▁Russia	-8.48484
▁You	-8.48935
▁To	-8.4895
▁results	-8.49155
▁understand	-8.49355
▁education	-8.49554
▁responsible	-8.50099
▁let	-8.51437
▁themselves	-8.51437
▁months	-8.51466
▁consumers	-8.51553
▁data	-8.51694
▁euro	-8.51845
▁management	-8.51861
▁doing	-8.52198
▁members	-8.52595
▁thing	-8.52609
▁needed	-8.53121
▁key	-8.53389
▁cases	-8.5359
▁systems	-8.53767
▁With	-8.5387
▁matters	-8.54754
▁reasons	-8.54758
▁principles	-8.54868
▁enough	-8.55015
▁compromise	-8.55896
▁day	-8.55957
!	-8.56067
▁kind	-8.56256
▁individual	-8.56451
▁projects	-8.56626
▁longer	-8.57448
▁costs	-8.57685
▁regards	-8.57701
▁achieved	-8.57922
/	-8.57988
▁parties	-8.58039
▁writing	-8.58372
▁1	-8.58525
▁though	-8.58546
▁feel	-8.58623
▁activities	-8.58744
▁among	-8.59493
▁idea	-8.59624
▁funding	-8.59656
▁priority	-8.59693
▁commitment	-8.59827
▁Convention	-8.59934
▁tax	-8.60013
▁local	-8.60051
▁plan	-8.60405
▁promote	-8.60798
▁lack	-8.60855
▁significant	-8.6086
▁Amendment	-8.60891
▁although	-8.6113
▁draft	-8.6115
▁aim	-8.61197
▁little	-8.6144
▁true	-8.61687
▁past	-8.61713
▁mean	-8.62065
▁due	-8.62184
▁labour	-8.62424
▁line	-8.62792
▁governments	-8.62805
▁My	-8.62851
▁nothing	-8.63007
▁sure	-8.63029
▁congratulate	-8.63039
▁act	-8.63072
▁include	-8.63244
▁provided	-8.63272
▁special	-8.63565
▁perhaps	-8.63724
▁effect	-8.64016
▁excellent	-8.64346
▁lead	-8.6454
▁prevent	-8.6463
▁sustainable	-8.64787
▁reports	-8.64804
▁strong	-8.64816
▁young	-8.64961
▁final	-8.65395
▁guarantee	-8.65682
▁regarding	-8.66347
▁nuclear	-8.66379
▁aspects	-8.66597
▁above	-8.66829
▁Rights	-8.66874
▁Directive	-8.66998
▁solidarity	-8.67023
▁legislative	-8.67043
▁moment	-8.67639
▁markets	-8.67972
▁play	-8.68378
▁remain	-8.68508
Office	-8.68615
▁integration	-8.68657
▁seen	-8.6868
▁consumer	-8.68877
▁foreign	-8.6905
▁transparency	-8.69093
▁several	-8.69291
▁agenda	-8.69707
▁project	-8.69951
▁Our	-8.70015
▁agreed	-8.70076
▁joint	-8.70195
▁relation	-8.70251
▁makes	-8.70622
▁comes	-8.70784
▁civil	-8.70798
▁contribution	-8.71089
ly	-8.71195
▁upon	-8.71255
▁population	-8.71292
▁response	-8.71363
▁benefit	-8.71374
▁addition	-8.71425
▁apply	-8.71437
▁pay	-8.71826
▁actions	-8.72264
▁communication	-8.72547
se	-8.72948
▁discussion	-8.72969
▁Secondly	-8.73339
▁move	-8.73371
▁‘	-8.73666
▁technical	-8.7367
▁share	-8.73679
▁him	-8.73759
▁short	-8.73942
▁000	-8.73957
▁values	-8.74107
▁speak	-8.74202
▁criteria	-8.74475
▁seems	-8.74611
▁provisions	-8.74615
▁practice	-8.74736
▁One	-8.74871
▁Therefore	-8.75039
▁terrorism	-8.75189
▁investment	-8.75369
▁colleagues	-8.75397
▁existing	-8.75754
▁answer	-8.75835
▁elections	-8.75986
▁business	-8.7616
▁pleased	-8.76233
▁changes	-8.77046
▁ourselves	-8.77177
▁procedures	-8.77303
▁accession	-8.77467
term	-8.77675
▁stability	-8.77767
▁Minister	-8.78143
▁China	-8.78753
▁soon	-8.78803
e	-8.78877
▁basic	-8.79022
▁everyone	-8.79126
▁never	-8.79198
▁express	-8.79238
▁assistance	-8.79285
▁until	-8.79416
▁mind	-8.79525
▁adopt	-8.79539
▁creation	-8.79691
▁poverty	-8.79723
▁violence	-8.79888
▁cohesion	-8.79965
▁service	-8.80094
▁success	-8.80434
▁carried	-8.80494
▁crucial	-8.805
▁saying	-8.80517
▁asked	-8.80567
▁war	-8.80878
▁regulations	-8.81062
▁consequences	-8.81775
▁held	-8.8191
▁sense	-8.81918
▁military	-8.81955
▁increased	-8.82117
▁cultural	-8.8213
▁organisations	-8.82153
▁term	-8.82348
▁voting	-8.82482
▁relating	-8.82572
▁training	-8.8265
▁farmers	-8.82694
▁balance	-8.82719
▁tabled	-8.82738
▁statement	-8.82778
▁protect	-8.82792
▁reduce	-8.82957
▁application	-8.83084
▁show	-8.83149
▁namely	-8.83262
▁increasing	-8.83387
▁requirements	-8.83927
▁required	-8.83979
▁fishing	-8.84131
▁everything	-8.84166
▁develop	-8.84184
▁presented	-8.84274
▁close	-8.84457
▁draw	-8.84854
▁meet	-8.85111
▁All	-8.85402
▁equal	-8.85645
▁rule	-8.85686
▁thus	-8.8589
▁job	-8.8591
▁value	-8.85999
▁request	-8.8657
▁opportunities	-8.86581
▁instruments	-8.86695
▁When	-8.86816
▁throughout	-8.86994
▁budgetary	-8.87178
▁nature	-8.8723
▁stage	-8.87407
▁UN	-8.87408
▁either	-8.87657
▁cost	-8.87662
▁times	-8.87733
▁called	-8.87788
d	-8.87916
▁mention	-8.87929
▁priorities	-8.88408
▁week	-8.88612
▁around	-8.8902
▁face	-8.89042
▁keep	-8.89411
▁initiatives	-8.89473
▁tell	-8.89491
▁demand	-8.89974
▁community	-8.90623
▁movement	-8.90704
▁external	-8.91132
▁conflict	-8.91346
▁road	-8.91357
▁reached	-8.91409
▁Party	-8.91817
▁pressure	-8.92067
▁five	-8.92267
▁she	-8.92349
▁decided	-8.92407
▁prepared	-8.92416
▁raised	-8.92446
▁four	-8.92645
▁across	-8.92701
▁expressed	-8.92732
▁task	-8.92766
▁monitoring	-8.92807
▁instrument	-8.92921
▁address	-8.92957
▁potential	-8.93436
▁talking	-8.93471
▁effort	-8.93611
▁conclusion	-8.93688
▁using	-8.93808
▁powers	-8.93908
▁Fund	-8.94034
▁justice	-8.94403
▁establish	-8.94475
▁reading	-8.94552
▁implemented	-8.94594
▁waste	-8.94637
▁water	-8.94732
▁package	-8.94901
▁try	-8.95004
▁billion	-8.9511
▁off	-8.95251
▁fisheries	-8.95346
al	-8.95655
▁Ireland	-8.95667
▁levels	-8.9573
▁included	-8.95883
▁tomorrow	-8.95938
▁challenges	-8.9597
▁experience	-8.95971
▁immigration	-8.95977
▁illegal	-8.96088
▁direction	-8.96158
▁focus	-8.9622
▁medium	-8.96264
▁review	-8.96278
▁fellow	-8.96441
▁crime	-8.9661
▁doubt	-8.96645
▁presidency	-8.96819
▁implement	-8.97036
A	-8.97048
▁enable	-8.97107
▁established	-8.97151
▁previous	-8.97286
▁partners	-8.97316
▁ever	-8.97321
▁vital	-8.9748
▁French	-8.97484
▁quickly	-8.97501
▁fair	-8.97521
▁borders	-8.97535
▁recently	-8.97804
▁reduction	-8.97832
▁private	-8.97866
▁absolutely	-8.97871
▁talk	-8.98128
▁Conference	-8.98553
▁Development	-8.98566
▁victims	-8.98744
▁agriculture	-8.98924
▁outside	-8.98928
▁effects	-8.99146
▁coming	-8.99152
▁sectors	-8.99457
▁reality	-8.99597
▁supported	-8.99735
▁France	-8.99927
▁completely	-9.00208
▁Firstly	-9.00439
▁found	-9.0046
▁note	-9.00661
▁brought	-9.01102
▁thanks	-9.01388
▁giving	-9.01757
▁price	-9.01864
▁extent	-9.0214
▁reach	-9.02214
▁reforms	-9.02303
▁live	-9.02444
▁structural	-9.02579
▁cause	-9.02833
▁amount	-9.02853
▁light	-9.02873
▁unemployment	-9.03023
▁finally	-9.03032
▁emissions	-9.03086
▁took	-9.03167
▁item	-9.03333
▁businesses	-9.03335
▁applied	-9.03458
▁representatives	-9.03617
▁prices	-9.03635
▁December	-9.03816
▁encourage	-9.03825
▁almost	-9.03858
▁along	-9.04037
▁possibility	-9.04151
▁Africa	-9.04173
▁heard	-9.04261
▁coordination	-9.04348
▁Nations	-9.04577
▁additional	-9.04602
▁stress	-9.04691
▁discussed	-9.04726
▁model	-9.04784
▁left	-9.04788
▁motion	-9.05225
▁relevant	-9.05421
▁direct	-9.05422
▁document	-9.05477
▁Republic	-9.05494
▁treatment	-9.055
▁list	-9.05636
▁follow	-9.05676
▁ensuring	-9.05719
▁away	-9.0597
▁natural	-9.06085
▁behind	-9.06161
▁10	-9.06172
▁US	-9.06338
▁air	-9.06407
▁Furthermore	-9.06878
▁living	-9.06878
▁assessment	-9.0692
▁competitiveness	-9.07068
▁offer	-9.07241
▁creating	-9.0737
▁turn	-9.07596
▁strengthen	-9.07721
▁confidence	-9.07776
▁guidelines	-9.07947
▁discussions	-9.08078
▁practical	-9.08119
▁events	-9.08335
▁begin	-9.0835
▁received	-9.08604
▁East	-9.08778
▁add	-9.08778
▁Of	-9.08888
▁nor	-9.09037
▁adoption	-9.09227
▁care	-9.09316
▁discuss	-9.09352
▁proper	-9.09399
▁British	-9.09431
▁remains	-9.09595
▁parliamentary	-9.09597
▁men	-9.09654
▁capacity	-9.09697
▁lot	-9.09772
▁days	-9.10041
▁Bank	-9.10104
▁expect	-9.10113
t	-9.10176
▁scope	-9.10216
▁takes	-9.10652
▁cross	-9.10985
▁First	-9.10992
▁approved	-9.1106
▁20	-9.11078
▁He	-9.11113
▁avoid	-9.11243
▁considered	-9.11299
▁rate	-9.1172
▁Agreement	-9.12059
▁old	-9.12062
▁family	-9.12156
▁knowledge	-9.12213
▁despite	-9.12261
▁discrimination	-9.12304
▁summit	-9.12304
▁affected	-9.12308
▁solutions	-9.12389
▁side	-9.12595
▁Central	-9.12612
▁aimed	-9.12613
▁goods	-9.12754
▁precisely	-9.12924
▁unacceptable	-9.1307
▁Democrats	-9.13259
▁humanitarian	-9.1327
▁trying	-9.13326
▁developed	-9.13343
▁defence	-9.13559
▁effectively	-9.13588
▁re	-9.13621
▁International	-9.13639
m	-9.1381
y	-9.13827
▁difficulties	-9.13842
▁connection	-9.13859
▁six	-9.13972
▁remind	-9.14056
▁15	-9.14092
▁instead	-9.14141
▁asylum	-9.14148
▁reference	-9.14201
▁contribute	-9.14218
▁%	-9.1423
▁Economic	-9.14379
▁June	-9.14412
▁carry	-9.14494
▁Justice	-9.14583
▁shown	-9.14684
▁message	-9.15391
▁culture	-9.15439
▁C	-9.15555
▁circumstances	-9.15595
▁World	-9.15596
▁honourable	-9.1571
▁stop	-9.15806
▁People	-9.15835
▁huge	-9.1607
▁efficiency	-9.16151
▁technology	-9.16182
▁May	-9.16257
▁conclusions	-9.16281
▁partnership	-9.16326
▁Regulation	-9.16501
▁active	-9.16601
▁regime	-9.16787
▁Germany	-9.16809
▁administrative	-9.17007
▁combat	-9.17013
▁according	-9.17028
▁improving	-9.17166
▁speech	-9.17257
▁allowed	-9.17539
▁forces	-9.17605
▁challenge	-9.17624
▁committed	-9.17694
a	-9.17711
▁date	-9.1776
▁goes	-9.17788
▁beginning	-9.17812
▁created	-9.17868
▁hard	-9.17922
▁Policy	-9.17951
▁propose	-9.18011
▁minimum	-9.1816
▁status	-9.18192
▁half	-9.18258
▁content	-9.18298
▁duty	-9.18306
▁personal	-9.18407
▁providing	-9.18418
▁total	-9.18443
▁self	-9.18532
▁enterprises	-9.18627
▁death	-9.18659
▁consideration	-9.1868
▁independent	-9.18843
▁accordance	-9.18888
▁criminal	-9.1891
▁innovation	-9.18937
▁Now	-9.1907
▁considerable	-9.19075
▁rightly	-9.1916
▁return	-9.19262
▁provides	-9.19432
▁oil	-9.19744
▁WTO	-9.19754
▁stated	-9.19893
▁participation	-9.19916
▁benefits	-9.19927
▁capital	-9.20017
▁Social	-9.20074
▁implementing	-9.2037
▁institutional	-9.20436
▁stand	-9.20473
▁2	-9.20552
▁referred	-9.20591
▁successful	-9.20593
▁purpose	-9.2063
▁supply	-9.20767
▁Brussels	-9.20807
▁provision	-9.21033
▁unfortunately	-9.21092
▁dealing	-9.21169
▁specifically	-9.21175
▁accepted	-9.213
▁calls	-9.21494
▁"	-9.21503
▁forms	-9.2166
▁lives	-9.21751
▁rural	-9.21871
▁colleague	-9.22002
▁promoting	-9.22139
▁closely	-9.22431
▁receive	-9.22662
▁seriously	-9.22709
▁overall	-9.22836
▁per	-9.23031
▁media	-9.23373
▁beyond	-9.23387
▁introduction	-9.23524
▁Israel	-9.23646
▁B	-9.23688
▁views	-9.23736
▁decide	-9.23894
▁comments	-9.23905
▁plans	-9.24097
▁expenditure	-9.24172
▁wanted	-9.24354
▁scientific	-9.24445
▁complete	-9.24551
▁steps	-9.24821
▁directly	-9.24861
▁history	-9.25135
▁Kosovo	-9.25256
▁happen	-9.25319
▁Today	-9.25451
▁industrial	-9.2546
▁Human	-9.25551
▁exchange	-9.25624
▁Mediterranean	-9.25915
▁Irish	-9.25916
▁produce	-9.25967
▁financing	-9.26252
▁commitments	-9.26264
▁measure	-9.26358
▁requires	-9.26368
▁strategic	-9.26457
European	-9.26575
▁myself	-9.26599
▁maintain	-9.26801
▁central	-9.26834
▁Iraq	-9.26909
▁January	-9.26913
▁setting	-9.27042
▁leave	-9.2706
▁German	-9.27445
▁wrong	-9.27568
▁ban	-9.2761
sized	-9.27804
▁home	-9.27818
▁intended	-9.27836
▁Summit	-9.2785
▁demands	-9.27919
▁3	-9.28184
▁aspect	-9.28219
▁event	-9.28356
▁activity	-9.28617
▁urgent	-9.28619
▁sufficient	-9.28675
▁low	-9.28706
▁party	-9.28717
▁equality	-9.28729
▁exist	-9.28849
▁How	-9.2894
▁poor	-9.28967
▁paragraph	-9.28977
▁Constitution	-9.29016
▁alone	-9.29066
▁entire	-9.29084
▁paid	-9.29211
▁speaking	-9.29519
▁ways	-9.2972
▁bodies	-9.29732
▁refer	-9.29859
▁anything	-9.29913
▁anti	-9.29971
▁product	-9.3015
▁Greece	-9.30168
▁highly	-9.30257
▁police	-9.30639
▁led	-9.3065
▁similar	-9.30677
▁type	-9.30892
▁gas	-9.31106
▁efficient	-9.31124
▁conclude	-9.31189
▁supporting	-9.31238
▁discussing	-9.31299
▁represent	-9.313
▁higher	-9.31366
▁known	-9.31388
▁limited	-9.31458
▁respond	-9.31583
▁ambitious	-9.31669
▁weeks	-9.31696
▁join	-9.32039
up	-9.32068
▁animal	-9.32073
▁properly	-9.32133
▁competitive	-9.32133
▁increasingly	-9.32343
▁caused	-9.32372
▁study	-9.32392
2	-9.32514
▁shows	-9.32556
▁calling	-9.32565
▁establishing	-9.32573
▁Unfortunately	-9.32819
▁whom	-9.32942
▁authority	-9.32951
▁Although	-9.33099
▁early	-9.33325
▁fund	-9.33342
▁genuine	-9.33365
▁border	-9.33371
▁improved	-9.33395
▁represents	-9.33575
▁risks	-9.33984
▁obviously	-9.3409
▁produced	-9.34093
▁opposition	-9.34096
▁de	-9.34427
▁limit	-9.34725
▁yesterday	-9.34893
▁emphasise	-9.34904
er	-9.34929
▁achieving	-9.3497
▁happened	-9.35058
▁strengthening	-9.35065
▁currency	-9.35141
▁hear	-9.35193
▁aims	-9.35222
▁annual	-9.35513
▁Security	-9.35524
▁later	-9.35754
▁reducing	-9.35774
▁gives	-9.35878
▁language	-9.35907
border	-9.35987
▁South	-9.35989
▁threat	-9.3602
▁Since	-9.36043
▁urge	-9.36069
▁producers	-9.36096
▁Italy	-9.36352
▁infrastructure	-9.36392
▁require	-9.36532
▁manner	-9.36604
▁developments	-9.36635
▁name	-9.36708
▁conference	-9.36763
▁broad	-9.36818
▁candidate	-9.36823
▁regret	-9.36839
▁convinced	-9.36879
called	-9.3696
▁Moreover	-9.36973
▁monetary	-9.37188
▁former	-9.37251
▁March	-9.37286
▁useful	-9.37312
▁looking	-9.37429
▁animals	-9.37444
▁ten	-9.37467
▁earlier	-9.37675
▁rise	-9.37679
responsibilities	-9.37773
▁remember	-9.3781
▁firstly	-9.37828
▁sometimes	-9.37917
▁Foreign	-9.3797
▁hold	-9.38052
▁outcome	-9.38062
▁damage	-9.38203
▁thinking	-9.38211
▁combating	-9.38315
▁comment	-9.38509
▁balanced	-9.38669
▁Rules	-9.38851
▁spirit	-9.38881
▁elements	-9.38916
▁recognise	-9.38918
▁word	-9.39031
▁contrary	-9.39136
▁member	-9.39155
▁analysis	-9.39235
▁25	-9.39246
▁recognition	-9.39255
▁thought	-9.39397
▁concept	-9.39405
▁5	-9.39433
▁prevention	-9.39439
▁Internet	-9.39554
▁influence	-9.39581
▁entirely	-9.39712
▁introduce	-9.3978
▁introduced	-9.39788
▁building	-9.39867
▁Spanish	-9.39934
▁pointed	-9.40262
▁origin	-9.40547
▁acceptable	-9.40587
making	-9.40643
▁concrete	-9.40784
▁becoming	-9.40857
▁reduced	-9.40884
▁Nevertheless	-9.41083
▁American	-9.41213
▁facing	-9.41225
▁comprehensive	-9.4127
▁consensus	-9.41286
▁documents	-9.41361
▁Indeed	-9.41387
▁union	-9.41538
▁Romania	-9.41626
▁relationship	-9.41642
▁dangerous	-9.41677
▁differences	-9.41791
▁says	-9.41792
▁press	-9.42032
▁After	-9.42142
▁rest	-9.42178
▁delegation	-9.42237
▁September	-9.42471
▁flexibility	-9.42492
▁met	-9.42559
▁sources	-9.4268
▁asking	-9.42691
▁applies	-9.42738
▁Spain	-9.42739
▁recommendations	-9.43004
▁added	-9.43039
▁wants	-9.431
▁morning	-9.4313
▁Environment	-9.43161
▁establishment	-9.4332
▁probably	-9.43649
▁raise	-9.43655
▁liberalisation	-9.43692
▁else	-9.43837
▁closer	-9.43909
▁Some	-9.44024
▁networks	-9.44045
▁body	-9.44067
▁Ministers	-9.44234
▁11	-9.4439
▁negative	-9.44406
▁alternative	-9.44471
▁commercial	-9.44659
▁forget	-9.44693
▁methods	-9.44721
▁organisation	-9.44841
▁America	-9.44847
▁rapporteurs	-9.44953
▁company	-9.45074
▁perspective	-9.45164
▁trust	-9.45184
▁strongly	-9.45257
▁parts	-9.45348
▁2000	-9.4553
▁exactly	-9.45732
▁30	-9.45802
▁Green	-9.45845
▁drawn	-9.45847
▁bear	-9.46072
▁laws	-9.46128
▁attempt	-9.46473
▁laid	-9.46625
▁staff	-9.46653
▁sort	-9.46955
▁Ukraine	-9.47056
▁November	-9.47077
▁dealt	-9.47138
▁failure	-9.47159
▁Paper	-9.4727
▁practices	-9.4729
▁sanctions	-9.47317
▁refugees	-9.47369
▁chance	-9.47376
▁UK	-9.47573
▁opening	-9.47642
▁ideas	-9.47725
▁network	-9.47933
▁enormous	-9.47946
▁person	-9.47993
▁Palestinian	-9.48009
▁dimension	-9.48138
▁Italian	-9.48293
▁submitted	-9.4842
▁directives	-9.4857
▁intervention	-9.49119
▁fraud	-9.49167
▁integrated	-9.49169
▁happy	-9.49186
▁Amendments	-9.49282
▁constructive	-9.49302
▁targets	-9.49322
▁seek	-9.49342
▁correct	-9.49512
▁contains	-9.49538
▁Ladies	-9.49605
▁institution	-9.49676
▁4	-9.49746
▁mechanism	-9.49835
▁12	-9.49878
▁agencies	-9.49958
▁fall	-9.50002
▁definition	-9.50036
▁MEPs	-9.50049
▁discharge	-9.50157
▁critical	-9.50166
▁improvement	-9.50196
DE	-9.50284
▁mandate	-9.50471
▁informed	-9.50471
▁obligations	-9.50474
▁putting	-9.50498
▁By	-9.50572
▁organised	-9.50654
▁send	-9.50906
▁consultation	-9.50999
▁choice	-9.51066
▁mainly	-9.51166
▁unable	-9.51186
▁addressed	-9.51189
▁managed	-9.51194
▁method	-9.512
▁Kingdom	-9.51206
▁build	-9.51208
▁growing	-9.51216
▁parliaments	-9.51386
▁immediately	-9.51445
▁big	-9.51477
▁ground	-9.51501
▁sensitive	-9.51551
▁governance	-9.5168
▁transparent	-9.51799
▁October	-9.51859
▁Middle	-9.52108
▁age	-9.52135
▁Prime	-9.52244
▁operation	-9.52284
▁seem	-9.52296
▁ahead	-9.52307
▁reply	-9.52329
▁fear	-9.5234
▁mutual	-9.52361
▁Trade	-9.52493
▁read	-9.52693
▁mechanisms	-9.52916
▁Agency	-9.52926
▁merely	-9.53068
▁Russian	-9.53109
▁simple	-9.53121
▁child	-9.53222
▁understanding	-9.53322
▁run	-9.53527
▁persons	-9.5359
▁easy	-9.53659
▁administration	-9.53666
▁Iran	-9.53678
▁Even	-9.53728
▁signed	-9.5373
▁Amsterdam	-9.53797
▁Charter	-9.5382
▁burden	-9.53939
▁resolve	-9.54013
▁leaders	-9.54015
▁sitting	-9.54247
▁Strategy	-9.54327
▁complex	-9.54328
▁came	-9.5449
▁Health	-9.54502
▁Programme	-9.54527
▁exercise	-9.54536
▁continuing	-9.54722
▁leading	-9.54902
▁Chamber	-9.54954
▁thousands	-9.55034
▁Procedure	-9.55047
▁Turkish	-9.55586
▁told	-9.55644
▁impossible	-9.55725
▁lost	-9.55796
▁intend	-9.55859
▁figures	-9.55895
▁worked	-9.55899
▁includes	-9.55984
▁substantial	-9.56087
▁guarantees	-9.56164
▁speakers	-9.56574
▁elected	-9.56818
▁disaster	-9.56859
▁statements	-9.56884
▁intention	-9.56899
▁ought	-9.56906
▁desire	-9.56967
▁evidence	-9.5713
▁rejected	-9.5724
▁recommendation	-9.57362
▁repeat	-9.57384
▁renewable	-9.57484
▁attitude	-9.5753
▁totally	-9.57597
▁promotion	-9.57609
▁technologies	-9.57669
▁structure	-9.57732
▁Many	-9.57765
▁expression	-9.58016
▁independence	-9.58016
▁degree	-9.58036
▁subsidiarity	-9.581
▁positions	-9.58155
▁adequate	-9.5859
▁payments	-9.58649
▁wishes	-9.5875
▁table	-9.58947
▁traffic	-9.5909
▁income	-9.59133
▁trafficking	-9.59166
▁related	-9.59176
▁economies	-9.59212
▁co	-9.59304
▁extend	-9.5932
▁Nos	-9.59353
▁territory	-9.59431
▁cover	-9.59431
▁affairs	-9.59581
▁failed	-9.59648
▁instance	-9.5969
▁treaty	-9.60119
▁grateful	-9.60286
▁actual	-9.60344
▁SMEs	-9.6038
▁linked	-9.60433
▁rates	-9.60471
▁Structural	-9.60557
▁membership	-9.60558
▁bringing	-9.60582
▁obvious	-9.60639
▁Monetary	-9.6073
▁Schengen	-9.60755
▁families	-9.60853
▁involving	-9.61174
▁opposed	-9.61206
▁debates	-9.613
▁drugs	-9.61463
▁land	-9.61555
▁Cyprus	-9.61846
▁Portugal	-9.61871
▁controls	-9.61876
▁secure	-9.61891
▁fish	-9.61893
▁original	-9.61894
▁Thank	-9.61924
▁highlight	-9.61924
▁lines	-9.62027
▁sound	-9.62028
▁Pact	-9.62071
▁getting	-9.62074
▁happening	-9.62176
▁involvement	-9.62272
▁Thirdly	-9.62426
▁truly	-9.62673
▁office	-9.62694
▁forced	-9.6272
▁weapons	-9.62764
▁Funds	-9.62803
▁substances	-9.62866
▁tourism	-9.62875
▁talks	-9.63089
▁immediate	-9.63414
▁ready	-9.63442
▁faced	-9.6346
▁finance	-9.63505
▁greatest	-9.63523
▁official	-9.63528
▁Europeans	-9.6357
▁disease	-9.63645
▁plenary	-9.63862
▁goal	-9.63965
▁travel	-9.63987
▁North	-9.64197
▁6	-9.64303
▁appeal	-9.64571
▁sea	-9.64575
▁advantage	-9.64593
▁situations	-9.64621
▁enter	-9.64658
▁recognised	-9.64672
▁adopting	-9.64722
▁ones	-9.64773
▁Poland	-9.64783
▁followed	-9.64859
▁heart	-9.64869
▁Sweden	-9.64885
▁interesting	-9.64947
▁starting	-9.65073
▁2004	-9.65202
▁appear	-9.65372
▁acts	-9.65377
▁July	-9.65583
▁granted	-9.65625
▁protecting	-9.65645
▁mobility	-9.65686
▁African	-9.65911
▁defend	-9.66012
▁election	-9.66027
▁sides	-9.66032
▁covered	-9.66209
▁bad	-9.66215
▁danger	-9.66388
▁diversity	-9.66467
▁element	-9.66649
▁resolutions	-9.66679
▁seeking	-9.66818
▁tackle	-9.66877
▁Public	-9.66885
▁involve	-9.66926
▁conduct	-9.6695
▁carefully	-9.67054
▁shared	-9.67236
▁vehicles	-9.6739
▁suffering	-9.67462
▁minorities	-9.6757
th	-9.67571
▁sign	-9.67744
▁meetings	-9.67864
▁explain	-9.67955
▁subsidies	-9.6802
▁range	-9.681
▁designed	-9.68161
▁Swedish	-9.68259
▁criticism	-9.68271
▁reject	-9.68272
▁proposing	-9.68286
▁comply	-9.68426
▁changed	-9.68605
▁export	-9.68608
▁pollution	-9.68713
▁ability	-9.68722
▁Why	-9.6882
▁1999	-9.68922
▁gender	-9.69034
▁evaluation	-9.69105
n	-9.69116
▁detailed	-9.69141
▁competence	-9.6921
▁supports	-9.6935
l	-9.69409
▁presence	-9.69463
▁serve	-9.69566
▁delay	-9.6965
▁cut	-9.69728
▁structures	-9.69781
▁naturally	-9.69925
▁series	-9.69949
▁peoples	-9.70007
▁safe	-9.7006
▁globalisation	-9.70095
▁G	-9.70196
▁50	-9.70232
▁judicial	-9.7033
▁thereby	-9.70334
▁An	-9.70339
▁credit	-9.70381
▁target	-9.70386
▁spent	-9.70411
▁consumption	-9.70492
▁communities	-9.70709
▁voice	-9.70747
▁harmonisation	-9.70846
▁votes	-9.70921
▁committees	-9.71135
▁Bulgaria	-9.71168
▁Belarus	-9.71173
▁standard	-9.71326
▁8	-9.71398
▁emphasis	-9.71438
▁While	-9.71475
▁binding	-9.71512
▁hours	-9.71718
▁approval	-9.71736
▁arms	-9.71759
▁7	-9.71797
▁bilateral	-9.71872
▁taxation	-9.71951
▁Auditors	-9.72026
▁affect	-9.72035
▁continues	-9.7219
▁consistent	-9.72287
▁detail	-9.72318
▁planning	-9.72388
▁causes	-9.72406
▁Euro	-9.7258
▁2005	-9.72599
▁representative	-9.72727
▁expected	-9.72744
▁improvements	-9.729
▁reasonable	-9.72931
▁campaign	-9.72948
▁obtain	-9.72952
▁anyone	-9.72978
▁minority	-9.72999
▁late	-9.73127
▁Eastern	-9.73336
▁Sea	-9.73465
▁employees	-9.73522
▁ACP	-9.73534
▁April	-9.73558
▁floor	-9.73586
▁Barroso	-9.73614
▁worth	-9.73651
▁Greek	-9.73684
▁amongst	-9.73717
▁Such	-9.73838
▁Energy	-9.73867
▁otherwise	-9.73868
▁initial	-9.7399
B	-9.73993
▁declaration	-9.74049
▁limits	-9.74104
▁27	-9.74307
▁arrangements	-9.74443
▁participate	-9.74464
▁credibility	-9.74657
▁immigrants	-9.74665
▁factor	-9.74696
the	-9.74708
▁2009	-9.7471
▁nations	-9.7477
▁maximum	-9.74884
▁monitor	-9.7506
▁lower	-9.75123
▁Only	-9.75371
▁18	-9.75403
▁obligation	-9.75562
▁entry	-9.75799
▁generally	-9.75911
▁rail	-9.75941
▁source	-9.75968
▁citizen	-9.76051
▁recovery	-9.76318
▁compensation	-9.76374
▁factors	-9.76421
▁lies	-9.76509
▁Those	-9.76518
▁religious	-9.76548
▁board	-9.76598
▁neither	-9.76633
▁signal	-9.76658
▁inform	-9.76678
▁gave	-9.768
▁started	-9.76881
▁rapid	-9.76992
▁easier	-9.77068
▁grounds	-9.77073
▁14	-9.77116
▁Agriculture	-9.77155
▁regulatory	-9.77332
▁goals	-9.77344
▁politicians	-9.77566
▁terrorist	-9.77573
▁2020	-9.77613
▁encouraging	-9.7768
▁Western	-9.77682
▁Yet	-9.77885
▁languages	-9.77946
▁attacks	-9.78302
▁round	-9.78474
▁PPE	-9.78503
"	-9.78604
▁freedoms	-9.78647
▁whilst	-9.78737
▁appears	-9.78743
▁From	-9.78797
▁professional	-9.78881
▁politics	-9.78894
▁transfer	-9.79012
▁facilitate	-9.79062
▁contributions	-9.79234
▁moving	-9.7945
▁Socialist	-9.79497
▁continent	-9.79511
▁fail	-9.79541
▁permanent	-9.79553
▁tobacco	-9.79598
▁domestic	-9.79626
▁banks	-9.79632
▁Research	-9.79773
▁delighted	-9.79838
r	-9.80031
▁month	-9.80058
▁Vice	-9.8014
▁Question	-9.80215
▁constitutional	-9.80233
▁S	-9.80282
▁General	-9.80289
▁imposed	-9.8033
▁Roma	-9.80341
▁sent	-9.8035
▁flexible	-9.80496
▁debt	-9.80511
based	-9.80763
▁respected	-9.80785
▁welfare	-9.80827
▁experts	-9.80887
▁evening	-9.80976
▁ECU	-9.80983
▁construction	-9.81009
▁solve	-9.81087
▁2003	-9.81201
▁separate	-9.8122
▁migration	-9.81281
▁endorse	-9.81381
▁proposes	-9.81413
▁Legal	-9.81416
▁compliance	-9.81441
▁21	-9.81587
▁requirement	-9.81612
▁link	-9.81722
▁restrictions	-9.8189
▁placed	-9.81917
▁capable	-9.81919
▁partner	-9.82075
▁equally	-9.82205
▁spending	-9.82302
▁inclusion	-9.82408
▁century	-9.8241
▁awareness	-9.82452
▁Strasbourg	-9.82715
▁conflicts	-9.82723
▁scale	-9.82902
▁likely	-9.82917
▁interested	-9.82962
▁operations	-9.82992
▁negotiating	-9.83053
▁firm	-9.8306
▁customs	-9.83276
▁guaranteed	-9.83313
▁Luxembourg	-9.83393
to	-9.83499
▁reflect	-9.83509
▁NATO	-9.83519
▁diseases	-9.83533
▁labelling	-9.83614
▁personally	-9.83643
▁crimes	-9.83644
▁Commissioners	-9.83648
▁visa	-9.83649
▁modern	-9.83681
▁learn	-9.83778
▁impose	-9.83884
▁payment	-9.83903
▁appropriations	-9.83965
▁Netherlands	-9.83983
▁fighting	-9.84062
▁referendum	-9.84242
▁oral	-9.84246
▁13	-9.8427
▁forthcoming	-9.84326
▁defined	-9.84435
▁purposes	-9.84437
▁9	-9.84482
▁Stability	-9.84482
▁numerous	-9.84513
▁resolved	-9.84563
▁Copenhagen	-9.84639
▁helping	-9.84658
▁Czech	-9.84684
▁maritime	-9.84764
▁existence	-9.84801
▁II	-9.84867
▁tasks	-9.8488
▁trading	-9.84924
▁investments	-9.84971
▁safeguard	-9.84991
▁opinions	-9.85042
▁continued	-9.8511
▁traditional	-9.85227
▁Afghanistan	-9.85267
▁voluntary	-9.85426
▁letter	-9.85476
▁Do	-9.85634
▁worse	-9.85785
▁scheme	-9.85822
▁glad	-9.85884
▁allowing	-9.85908
▁p	-9.85952
▁occasions	-9.86116
▁via	-9.86323
▁Framework	-9.86345
▁demonstrated	-9.86422
President	-9.86528
▁exists	-9.86539
▁According	-9.86651
▁operate	-9.86674
▁demonstrate	-9.86705
▁effectiveness	-9.8681
▁distribution	-9.86825
▁Budgets	-9.86827
▁average	-9.86953
▁disasters	-9.8708
▁option	-9.87212
▁remarks	-9.87225
▁attack	-9.87231
▁2002	-9.87263
▁Balkans	-9.87352
▁Action	-9.87375
▁tried	-9.87468
▁peaceful	-9.87618
▁associated	-9.87642
▁base	-9.87753
▁officials	-9.8784
▁assure	-9.87938
▁Not	-9.88022
▁contained	-9.88135
▁Another	-9.88146
▁functioning	-9.88277
▁manage	-9.88284
▁Market	-9.88342
▁entitled	-9.88406
▁Baltic	-9.88461
▁wide	-9.88466
▁protected	-9.88488
▁Austria	-9.88498
▁car	-9.88509
▁operators	-9.88713
▁strict	-9.88768
▁pre	-9.88827
▁USA	-9.88894
▁speed	-9.8893
▁primarily	-9.88961
▁suggest	-9.89023
▁Lastly	-9.89039
▁Portuguese	-9.89092
▁millions	-9.89154
▁ultimately	-9.89162
▁concluded	-9.89181
▁passengers	-9.89212
▁justified	-9.89426
▁legitimate	-9.89436
▁difference	-9.89788
▁Ombudsman	-9.89815
▁involves	-9.89909
▁top	-9.89935
▁amounts	-9.89937
▁individuals	-9.89944
▁cooperate	-9.90066
▁overcome	-9.90147
EC	-9.90186
▁corruption	-9.90313
▁path	-9.90455
▁mission	-9.90487
▁post	-9.90597
▁substance	-9.90688
▁approve	-9.90742
▁India	-9.90749
▁Rule	-9.9079
▁latter	-9.90876
▁dignity	-9.90976
▁realise	-9.91051
▁examine	-9.91184
▁closed	-9.91217
▁material	-9.91218
▁man	-9.91484
▁played	-9.91508
▁passed	-9.91638
▁allocated	-9.91684
▁i	-9.91785
▁Treaties	-9.91882
▁extended	-9.92123
▁temporary	-9.92254
▁truth	-9.92309
▁statistics	-9.92449
▁nevertheless	-9.9249
▁Chinese	-9.92491
▁imports	-9.92507
▁revision	-9.92579
▁ministers	-9.92609
▁violations	-9.92673
▁Here	-9.92674
▁lay	-9.92682
▁loss	-9.92723
o	-9.92739
▁clause	-9.9275
▁written	-9.92764
▁Despite	-9.92864
▁secondly	-9.92933
▁Organisation	-9.92966
▁firmly	-9.93018
▁High	-9.93037
▁Perhaps	-9.93136
▁pension	-9.93145
▁100	-9.93186
▁constitution	-9.93192
▁got	-9.93215
▁sexual	-9.93221
▁visit	-9.93227
▁emergency	-9.93273
).	-9.93301
▁whatever	-9.93326
▁planned	-9.93343
▁penalty	-9.9341
▁treated	-9.93427
▁lose	-9.93466
▁collective	-9.93702
▁Dutch	-9.93717
▁impression	-9.93718
▁Given	-9.93718
▁vision	-9.93746
▁February	-9.93753
▁knows	-9.94086
▁Financial	-9.94096
▁hands	-9.94123
▁CAP	-9.94135
▁ethnic	-9.9434
▁2001	-9.94349
▁decisive	-9.94388
▁somewhat	-9.94583
▁requested	-9.94593
▁Assembly	-9.94614
▁please	-9.94743
▁space	-9.94809
▁examples	-9.9484
▁mass	-9.94885
▁Because	-9.94995
▁noted	-9.95008
▁technological	-9.95019
▁Then	-9.95021
▁works	-9.95098
▁Transport	-9.951
▁obstacles	-9.95198
▁farming	-9.952
▁taxes	-9.95222
▁industries	-9.95274
▁excessive	-9.95363
▁property	-9.9538
▁unless	-9.95484
▁vulnerable	-9.95518
▁confirm	-9.95592
▁prepare	-9.9572
no	-9.9575
▁gone	-9.95769
▁abuse	-9.96014
▁relates	-9.96014
▁offers	-9.96024
▁happens	-9.96026
▁Agenda	-9.96044
▁preparing	-9.96184
▁New	-9.96185
▁phase	-9.96213
▁spoken	-9.96296
▁occasion	-9.96352
▁Head	-9.96607
▁compared	-9.96611
▁contact	-9.96729
▁preventing	-9.96774
▁electronic	-9.96794
▁considering	-9.96821
▁Women	-9.96892
▁undoubtedly	-9.96961
▁prove	-9.96988
▁drawing	-9.97007
▁spoke	-9.97239
▁centre	-9.97245
▁agency	-9.97281
▁court	-9.97338
▁operational	-9.97554
▁highest	-9.97688
▁pursue	-9.97925
▁Israeli	-9.97933
▁appreciate	-9.97961
▁insurance	-9.97995
▁constantly	-9.98221
▁record	-9.98233
▁Prodi	-9.98245
▁NGOs	-9.98345
▁fishermen	-9.98389
▁applying	-9.98396
▁quotas	-9.98465
▁pillar	-9.98519
▁fiscal	-9.98533
▁announced	-9.98572
▁extension	-9.9859
▁Instead	-9.9875
▁introducing	-9.98857
▁gain	-9.98938
▁processes	-9.98981
▁duties	-9.99002
▁fuel	-9.99031
▁precise	-9.99166
▁Fundamental	-9.99167
▁described	-9.99188
▁expectations	-9.99233
▁16	-9.99259
▁proceedings	-9.99286
▁1998	-9.99297
▁fulfil	-9.99304
▁session	-9.99507
▁keeping	-9.99556
▁urgently	-9.99578
▁Fisheries	-9.99619
▁allows	-9.99711
8	-9.99731
▁latest	-9.99733
▁exclusion	-9.99902
▁Croatia	-9.9997
▁stronger	-10.0005
▁sensible	-10.0006
▁codecision	-10.0006
▁tool	-10.0007
▁behaviour	-10.0008
▁CO	-10.0035
▁courage	-10.0035
▁brief	-10.0045
▁wonder	-10.0046
es	-10.0052
▁prosperity	-10.0057
▁normal	-10.0059
▁conciliation	-10.0061
▁confirmed	-10.0064
▁stocks	-10.0071
▁represented	-10.0074
▁strengthened	-10.0082
▁Alliance	-10.0083
▁historic	-10.0085
▁types	-10.0099
▁follows	-10.0103
▁convergence	-10.0109
▁operating	-10.0116
▁association	-10.0119
▁2007	-10.012
▁accounts	-10.0122
▁seven	-10.0123
▁Asia	-10.0135
),	-10.0139
▁submit	-10.0142
▁welcomed	-10.0145
▁arguments	-10.0148
▁barriers	-10.015
▁counter	-10.0153
▁studies	-10.0153
▁exploitation	-10.0161
▁determined	-10.0164
▁Consumer	-10.0168
▁clarify	-10.0183
▁strategies	-10.0186
▁kept	-10.019
1	-10.0201
▁supervision	-10.0209
▁equipment	-10.0216
▁briefly	-10.0222
▁intends	-10.0224
▁etc	-10.0227
▁succeed	-10.0244
▁coordinated	-10.0251
▁pass	-10.0255
▁ratification	-10.0273
▁17	-10.0283
▁amending	-10.0297
▁published	-10.03
▁debating	-10.0302
▁largely	-10.0323
▁function	-10.0365
▁contracts	-10.0406
▁Employment	-10.0416
▁40	-10.0416
▁materials	-10.0418
▁politically	-10.0419
▁largest	-10.0423
▁sovereignty	-10.0431
▁1997	-10.0468
▁Protection	-10.0473
terinstitutional	-10.0475
▁fields	-10.0479
▁electricity	-10.0485
▁leadership	-10.0493
▁undertaken	-10.0497
▁places	-10.0501
▁proceed	-10.0511
▁maintaining	-10.0516
General	-10.0536
▁dependent	-10.0539
▁realistic	-10.0543
▁innovative	-10.0546
▁condemn	-10.0553
▁insist	-10.0562
7	-10.0589
▁paper	-10.0595
▁perfectly	-10.0601
▁advance	-10.0605
▁felt	-10.0608
▁finding	-10.0608
▁identity	-10.0624
▁transition	-10.0626
▁suffer	-10.0627
▁accidents	-10.0632
▁details	-10.0639
c	-10.0645
▁Constitutional	-10.065
▁offered	-10.0655
▁united	-10.0657
▁argument	-10.0669
▁medical	-10.071
▁cars	-10.0714
▁willing	-10.0715
▁Protocol	-10.0722
▁urgency	-10.0725
▁ongoing	-10.0727
▁significantly	-10.0732
▁careful	-10.074
▁Report	-10.074
▁absence	-10.0741
▁brings	-10.0744
▁determination	-10.0751
▁figure	-10.0756
▁difficulty	-10.076
▁define	-10.0763
▁proved	-10.0794
▁Serbia	-10.0796
▁Consequently	-10.0796
▁patients	-10.0802
▁waiting	-10.0808
▁wait	-10.0822
▁legally	-10.0837
▁unfair	-10.0838
H	-10.0841
▁universal	-10.0842
▁2006	-10.0846
▁changing	-10.0848
i	-10.0853
▁understood	-10.0864
▁minutes	-10.0867
st	-10.0868
year	-10.0888
▁stable	-10.0888
▁vessels	-10.0889
▁choose	-10.0892
▁driving	-10.0896
▁referring	-10.0908
▁genuinely	-10.0915
▁assess	-10.0921
▁coherent	-10.0922
▁territorial	-10.0924
▁parliament	-10.0932
▁answers	-10.0937
▁nation	-10.0942
▁qualified	-10.0948
▁highlighted	-10.0948
▁wine	-10.0952
▁acknowledge	-10.0955
▁facts	-10.0958
▁near	-10.0969
▁restructuring	-10.0977
▁significance	-10.0992
▁fine	-10.1015
▁Georgia	-10.102
▁Dur	-10.1029
▁19	-10.103
▁test	-10.1033
▁holding	-10.1036
The	-10.1055
▁Finland	-10.1057
▁satisfactory	-10.1065
▁deficit	-10.1066
▁version	-10.107
C	-10.1071
▁Control	-10.1089
▁claim	-10.1105
▁condition	-10.111
▁seeing	-10.1114
▁neighbours	-10.1117
▁Subject	-10.1122
ntergovernmental	-10.1134
▁disposal	-10.1139
▁learning	-10.1144
▁Cooperation	-10.1147
▁exports	-10.1149
▁invest	-10.1154
▁VAT	-10.1159
▁Last	-10.1166
▁un	-10.1166
ers	-10.1188
▁daily	-10.1213
▁honour	-10.1214
▁primary	-10.1217
▁valuable	-10.1229
▁negotiation	-10.1239
▁shadow	-10.1243
▁absolute	-10.1256
▁destruction	-10.1266
▁resulting	-10.1268
▁television	-10.127
▁Can	-10.1275
▁remove	-10.1277
▁enjoy	-10.1278
▁preparation	-10.1285
▁drug	-10.1285
▁suggested	-10.1286
▁More	-10.1295
▁milk	-10.1308
▁leads	-10.1309
▁24	-10.1315
▁beings	-10.1317
on	-10.1321
▁sport	-10.1324
▁saw	-10.1325
4	-10.1332
▁amended	-10.134
▁apart	-10.1342
▁extra	-10.1344
▁users	-10.1345
▁sustainability	-10.1345
▁Hungarian	-10.1348
▁Internal	-10.135
▁Latin	-10.1358
▁meat	-10.1373
▁assume	-10.1376
▁listen	-10.1376
▁school	-10.1391
▁room	-10.1399
▁waters	-10.1409
▁built	-10.1417
▁constitute	-10.1418
▁grant	-10.1435
▁budgets	-10.1437
▁code	-10.1445
▁1996	-10.1445
5	-10.1456
▁Northern	-10.1459
▁neighbouring	-10.1466
▁deliver	-10.1472
▁Food	-10.1476
▁formal	-10.1486
▁GDP	-10.1489
▁Once	-10.1498
▁someone	-10.1507
▁White	-10.1527
▁Regional	-10.1536
or	-10.1536
▁playing	-10.1537
▁actively	-10.154
▁Safety	-10.154
▁medicines	-10.1542
▁opposite	-10.1548
▁Greens	-10.155
▁plants	-10.156
▁regular	-10.1563
▁elsewhere	-10.1565
▁requests	-10.1571
▁meant	-10.1573
3	-10.1582
▁timetable	-10.1582
▁maintained	-10.1589
▁double	-10.1589
▁zone	-10.1603
▁head	-10.1608
▁believes	-10.1609
▁sufficiently	-10.1612
▁Britain	-10.1612
▁interpretation	-10.1625
▁stands	-10.1628
▁friends	-10.1628
▁investigation	-10.1629
▁considers	-10.1629
▁BSE	-10.164
▁indicated	-10.164
▁concentrate	-10.1641
▁possibly	-10.1642
▁previously	-10.1648
▁inadequate	-10.1648
▁greatly	-10.1653
▁moreover	-10.1659
▁identify	-10.1661
▁satisfied	-10.1664
▁External	-10.1668
▁links	-10.1682
▁Austrian	-10.1695
▁release	-10.1697
▁obliged	-10.1699
▁trans	-10.1702
▁deep	-10.1704
▁Without	-10.1709
▁wider	-10.1716
▁partly	-10.1722
▁2008	-10.174
▁e	-10.1741
re	-10.1745
▁contain	-10.1757
Christian	-10.177
▁Kyoto	-10.1773
▁societies	-10.1777
▁transitional	-10.1779
▁urban	-10.1781
▁thanking	-10.1783
▁becomes	-10.1784
▁identified	-10.179
▁possibilities	-10.1794
▁Thus	-10.1794
▁prisoners	-10.18
▁launched	-10.1801
▁issued	-10.1821
▁proportion	-10.1822
▁running	-10.1825
▁topic	-10.1828
▁affects	-10.1829
▁himself	-10.1829
▁reconstruction	-10.1842
▁multilateral	-10.1845
▁completed	-10.1846
▁Does	-10.1856
▁Europol	-10.1856
▁tragic	-10.1864
▁compulsory	-10.1883
▁suffered	-10.189
▁deserves	-10.189
▁went	-10.1898
▁ports	-10.1901
▁aviation	-10.1935
▁Belgian	-10.1935
▁Common	-10.1945
▁chosen	-10.1953
▁West	-10.1953
▁conducted	-10.1962
▁debated	-10.1969
▁plant	-10.1982
▁implications	-10.1992
▁500	-10.2001
▁Having	-10.2002
vote	-10.2008
▁attempts	-10.2008
▁helped	-10.2013
▁enforcement	-10.2029
▁schemes	-10.2031
▁uniform	-10.2036
▁complicated	-10.2042
▁Nice	-10.206
▁van	-10.2068
▁hearing	-10.2079
▁options	-10.2079
▁E	-10.2092
▁guaranteeing	-10.2099
▁ratified	-10.21
▁poorest	-10.2101
▁Will	-10.2106
▁carrying	-10.2108
▁afternoon	-10.2109
▁species	-10.2123
▁spite	-10.2128
▁competent	-10.2135
▁gap	-10.2139
▁Bosnia	-10.2163
COM	-10.2176
▁Danish	-10.2191
▁front	-10.2194
▁advertising	-10.22
▁sets	-10.2208
▁definitely	-10.2214
▁moral	-10.2218
▁purely	-10.2219
▁facilities	-10.2223
▁numbers	-10.2227
▁Pakistan	-10.2234
▁southern	-10.2246
▁seeks	-10.2253
▁tragedy	-10.2259
▁check	-10.2262
▁centres	-10.2263
▁speeches	-10.2265
▁proof	-10.2269
free	-10.229
▁sorry	-10.2297
▁surely	-10.23
▁exception	-10.2302
▁mistake	-10.2303
▁assist	-10.2305
▁spread	-10.2306
▁openness	-10.2307
▁adapt	-10.2308
▁successfully	-10.231
▁cities	-10.2319
▁Secretary	-10.2324
▁whereby	-10.2327
▁massive	-10.2346
▁prospects	-10.2346
▁feed	-10.2349
▁worldwide	-10.2356
and	-10.2366
▁Hungary	-10.2375
▁addressing	-10.2378
▁sugar	-10.2384
▁quote	-10.2391
▁constant	-10.2392
▁National	-10.2397
▁inter	-10.2397
▁Belgium	-10.2402
▁generation	-10.2405
▁2010	-10.242
▁heavy	-10.2421
▁solely	-10.2427
▁Barcelona	-10.243
▁23	-10.2436
▁Representative	-10.2439
able	-10.2461
▁Partnership	-10.2468
scale	-10.2469
▁Budget	-10.2472
▁unanimously	-10.2474
▁background	-10.2481
▁determine	-10.2499
▁worst	-10.25
▁bit	-10.2505
▁producing	-10.2506
▁depend	-10.2508
▁phenomenon	-10.2519
▁hundreds	-10.2534
▁De	-10.2534
▁Nor	-10.2542
▁stressed	-10.2543
▁extensive	-10.2546
▁Liberal	-10.2547
▁easily	-10.2552
▁diplomatic	-10.2562
▁governing	-10.2564
▁harmful	-10.2571
▁accident	-10.2584
▁players	-10.2586
▁eight	-10.259
▁extending	-10.259
▁depends	-10.2591
▁Socialists	-10.2593
▁Both	-10.2595
▁skills	-10.26
▁foremost	-10.2604
▁stake	-10.2605
6	-10.2613
▁Home	-10.2619
▁schools	-10.262
▁healthy	-10.2626
▁essentially	-10.2641
▁considerations	-10.2643
▁demanding	-10.2652
out	-10.2662
▁taxpayers	-10.2663
▁correctly	-10.2665
▁dispute	-10.2665
▁M	-10.2668
▁Where	-10.2675
▁recall	-10.2681
▁pensions	-10.2682
▁advice	-10.2685
▁Japan	-10.269
▁Under	-10.2695
▁acting	-10.2704
▁tools	-10.2704
▁Korea	-10.2709
▁Polish	-10.2719
▁promised	-10.272
▁considerably	-10.2724
▁profits	-10.2742
▁charges	-10.2742
▁deals	-10.2744
▁achievement	-10.2745
▁stock	-10.2754
▁chairman	-10.2757
▁news	-10.276
▁rapidly	-10.2765
▁spend	-10.277
▁remaining	-10.2774
▁granting	-10.278
▁prior	-10.2788
▁refers	-10.279
economic	-10.2794
▁enabling	-10.2796
▁environmentally	-10.2796
▁extreme	-10.28
▁manufacturers	-10.2812
▁crises	-10.283
▁threats	-10.283
▁heritage	-10.2834
▁feeling	-10.2846
▁savings	-10.2848
▁worrying	-10.2855
▁cuts	-10.2865
▁sum	-10.2865
▁decades	-10.2886
▁Cuba	-10.2887
▁rich	-10.2891
▁passenger	-10.2904
▁heading	-10.2908
▁favourable	-10.2911
tergovernmental	-10.2915
▁advantages	-10.2919
▁article	-10.2924
▁Left	-10.2927
▁focused	-10.2928
▁claims	-10.2941
▁core	-10.2945
▁Growth	-10.2947
▁geographical	-10.295
▁strength	-10.2968
▁intellectual	-10.2972
▁imagine	-10.2975
▁experienced	-10.2991
▁entered	-10.3001
▁undertakings	-10.3014
▁encouraged	-10.3025
▁beef	-10.3027
related	-10.3028
▁ECB	-10.3036
▁bureaucracy	-10.304
▁texts	-10.3045
▁paying	-10.3046
▁oppose	-10.3046
▁island	-10.3058
▁emphasised	-10.3059
▁size	-10.306
▁replace	-10.3061
▁22	-10.3063
▁wealth	-10.3074
▁powerful	-10.3074
▁Just	-10.3075
▁launch	-10.308
▁reflected	-10.3084
▁d	-10.3087
▁EC	-10.309
▁clarity	-10.3095
▁applicable	-10.3103
▁convention	-10.3105
▁reaction	-10.3113
▁suitable	-10.3115
▁modified	-10.3115
▁willingness	-10.3115
▁opened	-10.3118
▁whereas	-10.312
▁proud	-10.3123
▁reliable	-10.3125
▁enhance	-10.3126
▁increases	-10.3129
▁contributed	-10.3129
▁break	-10.3141
▁succeeded	-10.3144
▁historical	-10.3145
▁communications	-10.315
▁intervene	-10.3158
▁certainty	-10.3181
▁regrettable	-10.3185
▁arise	-10.3187
▁violation	-10.3188
▁legitimacy	-10.319
▁31	-10.319
▁1995	-10.3198
▁supposed	-10.3199
session	-10.3202
▁Denmark	-10.3205
▁ships	-10.3206
▁Christian	-10.3215
▁carbon	-10.3216
▁affecting	-10.3223
▁unnecessary	-10.3235
▁negotiated	-10.3237
▁regarded	-10.3239
▁Rur	-10.324
▁eastern	-10.3241
▁protocol	-10.3249
▁supplementary	-10.3251
b	-10.3252
▁thorough	-10.3259
▁removed	-10.3262
▁doubts	-10.3276
▁dynamic	-10.33
▁performance	-10.3305
▁...	-10.3307
▁competences	-10.3308
▁biggest	-10.3311
▁engage	-10.333
▁retain	-10.3383
▁Thursday	-10.3388
▁Maastricht	-10.3388
▁constitutes	-10.3395
▁respects	-10.3398
▁20%	-10.3404
▁nationals	-10.3433
▁firms	-10.3434
▁reiterate	-10.3437
▁incorporated	-10.344
▁reaching	-10.345
▁restore	-10.3453
▁sake	-10.3455
▁courts	-10.3457
▁200	-10.3464
▁declared	-10.3466
▁consequence	-10.347
▁sought	-10.3471
▁airlines	-10.3472
▁applicant	-10.3485
▁summer	-10.3491
▁leader	-10.3495
▁Parliamentary	-10.35
▁reservations	-10.3503
▁Culture	-10.3507
▁greenhouse	-10.3512
▁everybody	-10.3553
▁fairly	-10.3555
FR	-10.3556
▁hopes	-10.3557
▁save	-10.3567
▁presenting	-10.3568
▁negotiate	-10.3573
▁applications	-10.3574
▁afraid	-10.3574
▁utmost	-10.3574
▁Are	-10.3578
▁Authority	-10.3585
▁obtained	-10.3585
▁green	-10.3587
▁deeply	-10.3592
▁intentions	-10.36
▁aside	-10.3617
▁citizenship	-10.3627
▁port	-10.3643
▁charge	-10.3652
▁simplification	-10.3654
▁smaller	-10.3661
▁religion	-10.3664
▁28	-10.3671
▁Tourism	-10.3674
▁excluded	-10.3675
▁healthcare	-10.368
▁explanation	-10.369
▁piece	-10.3696
▁weak	-10.3701
▁eliminate	-10.371
▁tests	-10.3716
▁Over	-10.3716
▁targeted	-10.3717
▁prospect	-10.3733
▁deserve	-10.3737
▁south	-10.3743
▁necessarily	-10.3748
▁profit	-10.3758
▁Joint	-10.3759
▁admit	-10.3786
▁Citizens	-10.3798
▁Association	-10.3812
▁suggestions	-10.3816
▁meaning	-10.382
▁wording	-10.3822
▁bank	-10.3823
▁leaving	-10.3828
▁tonnes	-10.3831
▁jointly	-10.3831
▁60	-10.3836
▁Follow	-10.3844
▁R	-10.3845
▁disabled	-10.385
▁racism	-10.3861
▁raising	-10.3883
▁fruit	-10.3888
▁electoral	-10.3893
▁employers	-10.3911
▁vast	-10.3913
ness	-10.3913
▁Berlin	-10.3915
▁fleet	-10.3938
▁examined	-10.3939
▁drafting	-10.3941
▁26	-10.3946
▁commit	-10.3946
▁mark	-10.3948
relatively	-10.3952
▁ordinary	-10.3952
▁Plan	-10.3959
▁speaker	-10.3959
▁eye	-10.3966
▁pleasure	-10.3968
▁incentives	-10.3972
▁revised	-10.398
▁marketing	-10.3984
▁Industry	-10.3985
▁combined	-10.3985
▁Burma	-10.4007
▁complaints	-10.401
▁Civil	-10.4011
▁armed	-10.4013
▁importantly	-10.4028
▁shortcomings	-10.4033
▁bureaucratic	-10.404
S	-10.4043
▁eyes	-10.4048
▁treaties	-10.4061
▁surprised	-10.4068
▁Slovakia	-10.4071
ism	-10.4081
▁terrible	-10.4083
▁import	-10.4085
▁yes	-10.4088
▁credible	-10.4116
▁boost	-10.4117
▁Well	-10.4121
▁settlement	-10.4136
▁justify	-10.4137
▁repeatedly	-10.414
▁nearly	-10.414
▁shape	-10.4153
▁hardly	-10.4155
▁cancer	-10.4165
▁exceptional	-10.4171
g	-10.4173
▁representation	-10.4181
▁reflects	-10.4187
▁creates	-10.4194
▁Before	-10.4205
▁checks	-10.4212
▁fewer	-10.4215
▁trend	-10.4221
▁showing	-10.4224
▁broader	-10.4224
▁resulted	-10.4238
▁outstanding	-10.4246
▁widespread	-10.4255
▁underline	-10.4265
▁29	-10.4271
▁Morocco	-10.4272
▁stance	-10.4277
▁foundations	-10.4282
▁alcohol	-10.4283
▁buildings	-10.4283
▁te	-10.4295
lecommunications	-10.4296
▁bearing	-10.4303
▁subjects	-10.4306
▁Bureau	-10.4317
▁educational	-10.4322
▁Yugoslavia	-10.4333
▁patent	-10.4343
▁She	-10.4343
▁prison	-10.4359
▁turned	-10.4367
▁preparations	-10.4371
wide	-10.4371
▁unemployed	-10.4373
▁transactions	-10.4377
▁airports	-10.4381
▁expressing	-10.4383
▁ambition	-10.4383
▁liability	-10.4396
▁preserve	-10.4405
▁Macedonia	-10.4412
▁Minutes	-10.4413
▁honest	-10.4416
▁expense	-10.4417
▁science	-10.4418
▁Arab	-10.4425
▁below	-10.4426
▁relate	-10.4428
▁kinds	-10.443
▁category	-10.443
▁picture	-10.4435
▁Time	-10.4435
▁hit	-10.4442
▁inflation	-10.4446
▁delays	-10.446
▁allocation	-10.4463
▁multi	-10.4466
▁deadline	-10.4481
▁economically	-10.4486
▁quota	-10.4488
▁undermine	-10.4491
▁belief	-10.4492
▁periods	-10.4498
▁none	-10.4502
▁students	-10.453
▁youth	-10.4531
▁city	-10.4533
▁warmly	-10.4534
▁physical	-10.4537
▁repeated	-10.4544
▁English	-10.4544
▁losses	-10.4545
▁buy	-10.4547
▁candidates	-10.4548
▁penalties	-10.4556
▁unity	-10.4563
▁restricted	-10.4564
▁welcomes	-10.4576
▁fresh	-10.4579
▁War	-10.4592
▁became	-10.4598
▁withdraw	-10.46
▁PSE	-10.4608
▁gradually	-10.4609
▁clean	-10.4611
▁unfortunate	-10.4612
▁transatlantic	-10.4614
▁expensive	-10.4614
▁drafted	-10.4614
I	-10.4615
▁coordinate	-10.4624
▁twenty	-10.4625
▁biodiversity	-10.4625
▁explained	-10.4626
▁door	-10.4628
▁bound	-10.4638
▁Albania	-10.4642
▁Clearly	-10.4643
▁condemned	-10.4647
▁invite	-10.4647
▁tackling	-10.4648
▁freely	-10.4657
▁larger	-10.4671
▁satisfaction	-10.4695
▁occurred	-10.4701
▁arrest	-10.4709
▁covers	-10.4709
▁stay	-10.471
▁falls	-10.471
▁aircraft	-10.473
▁widely	-10.4739
▁Islamic	-10.4742
▁enhanced	-10.4744
▁amend	-10.4752
▁Geneva	-10.476
▁lessons	-10.4763
▁pact	-10.4766
▁insufficient	-10.477
▁civilian	-10.4773
▁uncertainty	-10.4777
▁EMU	-10.4777
▁Free	-10.478
▁secret	-10.4782
▁demographic	-10.4783
▁red	-10.4794
▁nonetheless	-10.4795
▁army	-10.4795
▁unanimous	-10.4799
▁reserve	-10.4806
▁railway	-10.4808
▁recommend	-10.4815
▁abolition	-10.4824
▁indicate	-10.4824
▁causing	-10.4825
▁Palestinians	-10.4836
▁ethical	-10.4841
▁processing	-10.4843
▁regulate	-10.4848
▁lasting	-10.4851
9	-10.4861
▁trial	-10.4862
▁suggestion	-10.4868
▁regulated	-10.4868
▁indicators	-10.4872
▁Van	-10.4879
▁began	-10.4882
▁fast	-10.4883
▁familiar	-10.4884
▁qualifications	-10.4895
▁forest	-10.4895
▁Gaza	-10.4896
▁elderly	-10.4902
▁acquis	-10.4902
▁outset	-10.4903
▁Yes	-10.4905
▁listened	-10.4912
▁collaboration	-10.4914
▁offering	-10.4914
▁procurement	-10.4944
▁raw	-10.495
▁ignore	-10.495
▁receiving	-10.4956
▁hence	-10.4956
▁Lithuania	-10.4967
▁lie	-10.4969
▁Obviously	-10.4974
▁night	-10.4976
▁promises	-10.4976
▁Nonetheless	-10.498
▁Otherwise	-10.4986
▁sphere	-10.4988
▁basically	-10.4998
▁permit	-10.5
▁financed	-10.5014
▁terrorists	-10.5015
▁undertake	-10.5024
▁engaged	-10.5029
▁regardless	-10.503
▁turning	-10.504
▁warning	-10.5046
▁deaths	-10.5053
▁belong	-10.5055
▁shares	-10.506
▁tribute	-10.5076
▁pro	-10.5079
▁undertaking	-10.508
▁extraordinary	-10.5082
▁demonstrates	-10.5084
▁section	-10.5085
ic	-10.5088
▁author	-10.5088
▁digital	-10.5088
▁journalists	-10.5089
▁parents	-10.5091
▁declarations	-10.5097
▁killed	-10.5107
▁collection	-10.5119
▁ecological	-10.5142
▁radical	-10.5144
▁chain	-10.5146
▁faith	-10.5146
▁battle	-10.5153
▁drivers	-10.5161
▁couple	-10.5163
▁territories	-10.5168
▁minister	-10.5171
▁team	-10.5177
▁associations	-10.5181
▁finances	-10.5183
▁congratulations	-10.5187
▁blame	-10.5191
▁severe	-10.5197
▁Act	-10.5198
▁presentation	-10.5199
▁slow	-10.5204
▁generations	-10.5206
▁noise	-10.521
▁promise	-10.5212
▁count	-10.5213
▁minute	-10.5225
udgetary	-10.5228
▁prevented	-10.5229
▁Also	-10.5229
▁struggle	-10.525
▁organise	-10.5253
▁necessity	-10.5279
▁looked	-10.528
▁pursued	-10.5281
▁IGC	-10.5285
▁reinforce	-10.5287
▁populations	-10.5289
▁frequently	-10.5292
▁Second	-10.5302
▁informal	-10.5312
▁strike	-10.5313
▁transit	-10.5316
▁contract	-10.5322
▁contacts	-10.5327
▁prefer	-10.5331
▁Declaration	-10.5334
▁arising	-10.5341
▁promoted	-10.5344
▁sovereign	-10.5359
▁sincerely	-10.5361
▁P	-10.5374
▁Zimbabwe	-10.5384
▁Soviet	-10.5385
▁supplies	-10.5391
▁accompanied	-10.5397
▁grow	-10.5399
▁Their	-10.5399
▁afford	-10.5404
▁Office	-10.5407
▁compatible	-10.541
▁Americans	-10.5414
▁weight	-10.5415
▁rejection	-10.5417
ive	-10.5424
▁dumping	-10.543
▁revenue	-10.5433
▁clearer	-10.5436
isation	-10.5448
▁moved	-10.5449
▁nobody	-10.5454
▁Rome	-10.546
▁unique	-10.547
level	-10.5472
▁beneficial	-10.5472
▁talked	-10.548
▁Chechnya	-10.5491
▁London	-10.5498
▁fourth	-10.5499
▁Centre	-10.5503
▁viable	-10.551
▁push	-10.5519
EU	-10.5527
▁Canada	-10.553
▁troops	-10.5531
▁percentage	-10.5534
▁enlarged	-10.5536
▁Investment	-10.5547
▁sending	-10.5557
▁Most	-10.5561
▁vehicle	-10.5567
▁divided	-10.5568
▁observed	-10.5569
▁clarification	-10.5573
▁distinction	-10.5573
▁wage	-10.5588
▁approximately	-10.5599
▁register	-10.5608
▁alongside	-10.5618
▁exclusively	-10.5626
▁emerging	-10.5632
▁occur	-10.5643
EEC	-10.5658
▁parallel	-10.5663
▁northern	-10.5664
▁marine	-10.567
0	-10.5684
▁harmonised	-10.5684
▁forum	-10.5685
▁begun	-10.5686
▁refuse	-10.5688
▁observation	-10.5689
▁Like	-10.5696
▁Egypt	-10.5696
▁apparent	-10.5701
▁stations	-10.5703
▁roads	-10.5704
▁division	-10.5708
▁choices	-10.5711
▁torture	-10.5714
▁congratulating	-10.5715
▁banking	-10.5718
▁Great	-10.5741
▁OLAF	-10.5741
D	-10.5744
▁crops	-10.5748
▁Labour	-10.5761
▁accessible	-10.5761
▁strictly	-10.5764
▁defending	-10.5766
▁simplify	-10.5766
▁shortly	-10.5771
▁efficiently	-10.5779
▁friendly	-10.5787
▁evident	-10.5787
▁Any	-10.5796
▁conventions	-10.5796
▁react	-10.5805
▁judgment	-10.5813
▁forests	-10.5818
▁puts	-10.5819
▁Finnish	-10.5819
▁unanimity	-10.5839
20	-10.5842
▁Every	-10.5846
▁coherence	-10.5846
▁disappointed	-10.5846
▁Cohesion	-10.5878
▁respecting	-10.5884
▁mere	-10.5891
▁route	-10.5892
▁surveillance	-10.5898
▁Petitions	-10.5905
▁sub	-10.5908
▁rising	-10.5911
▁Education	-10.5918
▁Statute	-10.5925
▁timely	-10.5926
▁consulted	-10.5933
▁postal	-10.5934
an	-10.5935
▁threatened	-10.5939
▁directed	-10.5944
▁mid	-10.5951
country	-10.5951
▁campaigns	-10.5956
▁chemical	-10.5959
▁reflection	-10.5959
ity	-10.5961
▁m	-10.5976
▁Two	-10.5978
▁restrict	-10.5981
▁abstained	-10.5992
▁usual	-10.6003
▁loans	-10.6003
▁Atlantic	-10.6005
Mediterranean	-10.6018
▁unions	-10.6022
▁perspectives	-10.6022
▁experiencing	-10.6024
▁Moldova	-10.603
▁compete	-10.6031
▁Service	-10.6032
▁hoped	-10.6035
▁fire	-10.6035
▁Your	-10.6051
▁permitted	-10.6051
▁refused	-10.6052
▁friend	-10.6057
▁tradition	-10.6057
PT	-10.6058
▁desirable	-10.6064
▁connected	-10.6065
▁blood	-10.6067
▁disagree	-10.6071
▁ruling	-10.6072
▁items	-10.6094
▁image	-10.6099
▁opt	-10.6103
▁yourself	-10.6105
▁Palestine	-10.6111
▁threshold	-10.6113
▁Year	-10.6113
▁treat	-10.6115
▁categories	-10.6125
▁forgotten	-10.6128
▁equivalent	-10.6131
▁liberal	-10.6134
▁Defence	-10.6138
▁sharing	-10.6147
▁H	-10.6151
▁conservation	-10.6152
▁alternatives	-10.6158
▁tangible	-10.6165
▁Allow	-10.6172
▁observers	-10.6179
▁standing	-10.6184
▁acceptance	-10.6185
▁replaced	-10.6187
▁2000,	-10.6189
▁genetically	-10.6199
▁T	-10.6207
▁textile	-10.6209
▁traditions	-10.6211
▁lacking	-10.6213
▁confusion	-10.6226
▁organizations	-10.6241
▁authorisation	-10.6243
▁mobile	-10.6247
▁Information	-10.6254
▁agrees	-10.6265
▁impetus	-10.6267
▁respective	-10.6271
▁spring	-10.6277
▁defining	-10.6281
▁consequently	-10.6281
▁controversial	-10.6295
▁raises	-10.6295
est	-10.6297
▁1990	-10.6299
▁residence	-10.6302
▁procedural	-10.6314
▁north	-10.6325
ation	-10.6329
▁emission	-10.6332
▁joined	-10.6333
▁logical	-10.6335
▁preventive	-10.6338
▁farms	-10.6356
▁showed	-10.636
▁Regarding	-10.6363
▁estimated	-10.6364
▁worthy	-10.6373
▁dramatic	-10.6377
▁imposing	-10.6398
▁Malta	-10.6398
▁slightly	-10.6399
▁helpful	-10.6405
▁characteristics	-10.6428
▁valid	-10.6444
▁socio	-10.6444
▁solid	-10.6445
▁integrity	-10.6447
▁subsequently	-10.6462
▁ill	-10.6467
▁Single	-10.6468
▁chapter	-10.6471
▁systematic	-10.6475
▁intensive	-10.6475
▁signing	-10.6487
▁underlying	-10.6489
▁assessments	-10.6497
▁50%	-10.6503
▁highlights	-10.6516
▁funded	-10.6521
▁railways	-10.6522
▁protest	-10.6524
p	-10.6526
▁victim	-10.6527
▁thousand	-10.6535
▁migrants	-10.6549
▁motor	-10.6551
▁contributing	-10.6552
▁coastal	-10.6552
▁net	-10.6564
▁achievements	-10.6572
▁managing	-10.6573
▁keen	-10.6578
▁scrutiny	-10.658
▁track	-10.6582
▁approaches	-10.6586
▁reconciliation	-10.6587
▁observe	-10.6589
▁comparison	-10.6591
▁destroyed	-10.6603
▁preliminary	-10.6608
▁notably	-10.6613
▁housing	-10.6615
▁harm	-10.6622
▁interim	-10.6622
▁surrounding	-10.6628
▁joining	-10.6629
▁missing	-10.6632
▁whatsoever	-10.6636
quality	-10.6642
▁neighbourhood	-10.6648
as	-10.6656
▁exchanges	-10.6665
▁Please	-10.6665
▁advanced	-10.667
▁Dublin	-10.6679
▁banned	-10.6679
▁declare	-10.6683
▁Objective	-10.6684
▁ambitions	-10.6695
▁integrate	-10.6706
▁justification	-10.6707
▁plays	-10.6716
▁subsequent	-10.672
▁Criminal	-10.6722
▁controlled	-10.6724
▁house	-10.6725
▁sales	-10.6735
▁envisaged	-10.6737
▁solved	-10.6747
▁advocate	-10.6754
▁representing	-10.6757
▁reported	-10.6758
▁error	-10.6763
▁flows	-10.6768
▁ratify	-10.6772
▁restrictive	-10.6773
governmental	-10.6774
▁chemicals	-10.6778
▁Solidarity	-10.6779
▁suspended	-10.6781
▁occupation	-10.6782
▁accordingly	-10.6787
▁notice	-10.6797
▁Monday	-10.6801
▁woman	-10.6801
▁sentence	-10.6805
▁freight	-10.6808
▁fixed	-10.6809
▁resource	-10.682
▁cultures	-10.6824
▁regularly	-10.6825
▁soil	-10.683
▁covering	-10.6837
▁losing	-10.6844
one	-10.6848
▁Doha	-10.6854
▁300	-10.6856
▁length	-10.6864
▁participating	-10.6866
▁imported	-10.687
▁resistance	-10.6888
▁investors	-10.6893
▁conviction	-10.6901
▁August	-10.6903
▁expansion	-10.6909
debate	-10.6911
▁concentration	-10.6916
▁failing	-10.6926
▁drive	-10.6937
▁win	-10.6938
▁Sudan	-10.6946
▁eventually	-10.6947
▁gained	-10.6952
▁appointment	-10.696
outermost	-10.6963
▁universities	-10.6968
▁inhabitants	-10.6972
▁safeguarding	-10.6978
▁D	-10.6979
▁reductions	-10.698
▁Tunisia	-10.6982
▁nine	-10.6983
▁infringement	-10.6997
▁suggests	-10.7004
▁inside	-10.7009
▁Iraqi	-10.7013
▁founded	-10.7029
▁providers	-10.7036
▁incorporate	-10.7039
▁withdrawal	-10.705
▁Brazil	-10.7057
▁decline	-10.7063
▁hundred	-10.7078
▁tolerance	-10.7079
▁fires	-10.7082
▁monitored	-10.7094
▁mistakes	-10.7096
▁disputes	-10.7101
▁abroad	-10.7109
▁examination	-10.7109
▁movements	-10.712
▁judge	-10.7122
▁convince	-10.7122
▁pilot	-10.7138
▁infrastructures	-10.7153
▁rely	-10.7154
▁ignored	-10.7155
ist	-10.7157
▁Similarly	-10.7161
▁Democratic	-10.717
▁statute	-10.7184
▁mandatory	-10.7198
▁exceptions	-10.7201
▁supervisory	-10.7206
▁Services	-10.7212
▁dead	-10.7212
▁liked	-10.7212
▁fails	-10.7217
▁pursuing	-10.7221
▁pursuan	-10.7221
▁Presidents	-10.7226
▁confident	-10.7227
▁consent	-10.7233
▁acknowledged	-10.7253
▁older	-10.7255
time	-10.7256
▁marked	-10.7261
▁jurisdiction	-10.7265
▁abuses	-10.728
▁Solana	-10.7281
▁Lebanon	-10.7281
▁dangers	-10.7288
▁Reform	-10.7289
▁Ms	-10.7289
▁fuels	-10.7292
▁assets	-10.7293
▁accepting	-10.7295
▁fears	-10.7296
ary	-10.7307
▁popular	-10.7311
▁investigations	-10.7312
▁compromises	-10.7313
▁experiences	-10.7314
▁wages	-10.732
▁listening	-10.7325
▁humanity	-10.7327
▁warm	-10.7332
▁containing	-10.7332
▁albeit	-10.7334
▁invited	-10.7336
▁2000.	-10.7348
▁signs	-10.7355
▁regimes	-10.7355
▁birth	-10.738
reaching	-10.7381
▁consistency	-10.7388
▁accountability	-10.7389
▁Chairman	-10.739
▁stages	-10.7395
▁expertise	-10.7395
▁hour	-10.7397
▁foundation	-10.7398
▁ideal	-10.7406
▁accounting	-10.7414
▁functions	-10.7424
▁sight	-10.7424
▁perfect	-10.743
▁block	-10.7433
▁anniversary	-10.7436
▁stringent	-10.744
▁registration	-10.7441
▁Communist	-10.7443
▁president	-10.7444
▁coal	-10.7445
▁Could	-10.7449
▁black	-10.7461
▁criterion	-10.7464
▁10%	-10.7465
▁usually	-10.7466
▁visited	-10.7471
▁denied	-10.7488
▁furthermore	-10.7488
▁models	-10.7495
▁stakeholders	-10.7499
▁Syria	-10.7502
▁breach	-10.7508
▁variety	-10.7511
▁resolving	-10.7518
▁arrive	-10.7519
▁ALDE	-10.7526
▁Liberals	-10.7527
▁host	-10.7547
▁evaluate	-10.7548
▁actors	-10.7553
▁offices	-10.7555
▁Patten	-10.7557
▁incentive	-10.7567
▁Libya	-10.7571
k	-10.7574
▁falling	-10.7583
▁Naturally	-10.7589
▁ceiling	-10.7591
▁fifth	-10.7596
▁Other	-10.7599
▁employed	-10.7603
▁EIB	-10.7605
▁backing	-10.7607
▁violent	-10.7611
▁sad	-10.7612
▁except	-10.762
▁Millennium	-10.7628
▁criminals	-10.7628
▁Above	-10.7635
day	-10.7636
▁contrast	-10.7639
▁fifteen	-10.7643
▁modernisation	-10.7644
▁prime	-10.7646
▁entering	-10.7666
▁visible	-10.7667
▁2010.	-10.7671
▁search	-10.7672
▁looks	-10.7674
▁meantime	-10.7684
▁consolidation	-10.769
▁pretext	-10.7693
▁learned	-10.7698
▁female	-10.7698
▁Decision	-10.7701
▁[	-10.7711
▁released	-10.7717
▁gradual	-10.772
▁System	-10.7725
▁finish	-10.7727
▁Friday	-10.7733
▁tonight	-10.7734
▁autonomy	-10.7738
▁maintenance	-10.7738
▁sympathy	-10.7738
▁dossier	-10.7741
▁features	-10.7745
▁voters	-10.7754
▁died	-10.7756
▁refugee	-10.7758
▁decent	-10.7764
▁80	-10.7768
▁virtually	-10.777
▁Who	-10.7778
▁fate	-10.7782
▁organic	-10.7786
▁dictatorship	-10.7789
▁1994	-10.7793
▁disastrous	-10.7793
▁outlined	-10.7794
▁unilateral	-10.7799
▁renewed	-10.7818
▁cutting	-10.7819
▁catch	-10.7819
▁badly	-10.783
▁endorsed	-10.7837
▁collapse	-10.784
▁essence	-10.7841
▁die	-10.7848
▁ageing	-10.7851
▁indication	-10.7853
▁fit	-10.7855
▁sincere	-10.7863
▁substantially	-10.7863
▁visas	-10.7864
▁proven	-10.7867
▁tough	-10.7868
▁commend	-10.787
▁appointed	-10.7875
▁argue	-10.7876
▁Slovenia	-10.7881
▁paragraphs	-10.7882
▁endeavour	-10.7883
▁sit	-10.7889
▁inquiry	-10.7889
▁immunity	-10.7906
▁hopefully	-10.7906
▁devoted	-10.7907
▁executive	-10.791
▁inspection	-10.791
▁recognises	-10.7916
▁flow	-10.7921
▁names	-10.7923
▁excuse	-10.7925
▁assurance	-10.7926
▁storage	-10.793
▁Bush	-10.793
▁absurd	-10.7936
▁avoided	-10.7937
▁examining	-10.7938
▁motions	-10.7945
▁borne	-10.7947
▁sites	-10.7962
▁acted	-10.7962
▁GMOs	-10.7972
▁adequately	-10.7976
▁OSCE	-10.7979
▁relative	-10.7986
yes	-10.799
▁productivity	-10.7995
▁airport	-10.7999
▁everywhere	-10.8003
▁destroy	-10.8005
discrimination	-10.8021
▁apparently	-10.8021
▁completion	-10.8027
▁F	-10.805
▁privacy	-10.8052
▁consultations	-10.8054
▁game	-10.8057
▁safeguards	-10.8065
▁Ashton	-10.8068
▁Hence	-10.8068
▁partnerships	-10.8084
▁emerged	-10.8094
▁closure	-10.8098
▁Verheugen	-10.8101
by	-10.8109
▁clauses	-10.8112
▁observations	-10.8118
▁Santer	-10.8134
▁leaves	-10.8138
▁consistently	-10.8138
▁focusing	-10.8139
▁reporting	-10.814
▁Scotland	-10.8142
▁tackled	-10.8146
▁card	-10.8157
▁scientists	-10.8164
▁notes	-10.8182
▁accused	-10.8184
▁arrived	-10.8185
▁sums	-10.8189
▁attend	-10.8198
▁2009.	-10.8198
▁minor	-10.8205
▁cope	-10.8207
▁Switzerland	-10.8208
▁murder	-10.8211
▁damaging	-10.8216
▁detention	-10.8222
▁delegations	-10.8236
f	-10.8247
▁character	-10.8249
▁precautionary	-10.8258
▁productive	-10.8261
▁initially	-10.8271
▁reserves	-10.8273
▁sections	-10.828
▁train	-10.8287
▁programming	-10.83
▁shift	-10.8313
▁consolidate	-10.8315
▁enables	-10.8324
▁Fischler	-10.8325
▁35	-10.8328
▁rigorous	-10.8332
▁irregularities	-10.8333
▁distributed	-10.8334
▁repression	-10.835
▁Congo	-10.835
▁false	-10.835
h	-10.8351
▁Schulz	-10.8359
▁deficits	-10.8366
▁personnel	-10.8369
▁testing	-10.8374
▁Brok	-10.8376
▁corresponding	-10.8378
▁30%	-10.8384
▁gross	-10.8399
▁autumn	-10.8401
▁fought	-10.8401
▁progressive	-10.8404
▁cheap	-10.8407
▁volume	-10.8408
▁Tampere	-10.8426
▁Stockholm	-10.8426
▁exclusive	-10.8433
▁investigate	-10.8433
▁recommended	-10.8439
▁straight	-10.8443
▁enabled	-10.8444
▁explicitly	-10.8445
▁enshrined	-10.8452
▁touch	-10.8455
▁ensured	-10.8456
▁imperative	-10.8459
▁democratically	-10.8462
▁deny	-10.848
▁continuation	-10.8487
▁MEP	-10.8494
▁struck	-10.8494
▁heads	-10.8495
))	-10.8514
▁sold	-10.8516
▁Whilst	-10.852
▁story	-10.8529
▁desired	-10.8534
▁fundamentally	-10.8535
▁2006,	-10.854
▁statistical	-10.8545
of	-10.8552
▁Liberties	-10.8554
▁shipping	-10.8563
▁Would	-10.8563
PL	-10.8569
▁exemption	-10.858
us	-10.858
▁ship	-10.8581
▁repercussions	-10.8589
▁vocational	-10.8589
▁fulfilled	-10.8589
▁meets	-10.8597
▁notion	-10.8608
▁answered	-10.8612
▁Tibet	-10.8615
▁football	-10.8632
▁soldiers	-10.8638
it	-10.8655
▁laying	-10.8659
▁wherever	-10.8669
▁surprise	-10.8674
▁attached	-10.8681
▁expert	-10.8683
▁simplified	-10.8684
▁delivered	-10.869
▁removal	-10.8702
▁Special	-10.8702
friendly	-10.8704
▁handling	-10.8704
ar	-10.8707
▁seekers	-10.8709
▁initiated	-10.8711
▁planet	-10.8712
▁seat	-10.8718
▁attractive	-10.8728
▁exposed	-10.8728
▁sole	-10.8732
▁socially	-10.8733
▁micro	-10.8734
▁participants	-10.8735
▁flights	-10.8735
▁middle	-10.8736
▁Iranian	-10.8737
▁helps	-10.8739
▁embargo	-10.8745
▁Helsinki	-10.8745
▁hazardous	-10.8746
▁sell	-10.8755
▁disadvantaged	-10.8755
M	-10.8761
▁twice	-10.8763
▁harmonise	-10.877
▁openly	-10.8772
▁component	-10.8772
▁exploit	-10.8779
en	-10.8788
▁lifelong	-10.8791
▁adapted	-10.8795
▁ended	-10.8797
▁pace	-10.8798
▁hunger	-10.8798
▁detriment	-10.88
▁farm	-10.8805
medicinal	-10.8809
▁sex	-10.8812
▁innocent	-10.8816
▁lists	-10.8821
▁Estonia	-10.8824
▁democratisation	-10.8825
▁parliamentarian	-10.8833
▁forestry	-10.8833
▁title	-10.8834
▁fallen	-10.8843
▁O	-10.8851
▁speculation	-10.8851
▁preparatory	-10.8851
▁transferred	-10.8853
▁GUE	-10.886
▁pressing	-10.8874
▁object	-10.8877
▁ownership	-10.8878
▁sale	-10.8906
▁responses	-10.8909
▁logic	-10.8912
▁Youth	-10.8912
▁inevitably	-10.8922
▁feature	-10.8922
▁multiannual	-10.8922
▁internationally	-10.8926
▁assured	-10.8926
NGL	-10.8931
▁saving	-10.8934
initiative	-10.8942
▁Everyone	-10.8949
▁presidential	-10.8958
▁foot	-10.896
▁facility	-10.8967
▁inequalities	-10.8967
▁obstacle	-10.8968
▁USD	-10.8968
de	-10.8974
▁Institute	-10.8976
▁concessions	-10.8982
▁researchers	-10.8985
▁dependence	-10.8994
▁homes	-10.9
▁islands	-10.9003
▁AIDS	-10.9005
▁originally	-10.9009
▁distance	-10.9013
▁stricter	-10.9014
▁cent	-10.9014
▁foodstuffs	-10.9017
▁discipline	-10.9022
▁biofuels	-10.903
▁principal	-10.9037
▁linguistic	-10.9039
▁accurate	-10.9055
▁80%	-10.9057
▁wished	-10.9057
▁western	-10.9057
▁enterprise	-10.9059
▁errors	-10.9059
▁Romanian	-10.9062
▁Federal	-10.9066
▁transposition	-10.9075
▁donors	-10.9084
▁inspections	-10.9088
▁V	-10.9088
▁monopoly	-10.9093
▁Day	-10.9093
▁race	-10.9093
▁constraints	-10.91
▁40%	-10.9102
▁grave	-10.9107
▁inappropriate	-10.9109
▁broadly	-10.911
▁Algeria	-10.9111
▁disabilities	-10.9111
▁posts	-10.9126
placing	-10.9128
ion	-10.9129
▁closing	-10.9129
▁systematically	-10.9129
▁Vienna	-10.9139
▁travelling	-10.9139
▁comparable	-10.9148
▁won	-10.9152
▁stopped	-10.9157
▁practically	-10.9158
▁potentially	-10.9159
▁Fourthly	-10.9166
▁generate	-10.9167
▁findings	-10.918
▁routes	-10.9183
▁automatically	-10.9184
▁constituency	-10.9193
▁stick	-10.9202
▁recycling	-10.9202
▁adverse	-10.921
▁tape	-10.9218
▁class	-10.922
▁refusal	-10.9221
▁serves	-10.9224
02	-10.9224
▁blind	-10.9225
▁thirdly	-10.9229
▁composition	-10.923
▁characterised	-10.923
▁2007,	-10.9233
▁irrespective	-10.9239
ALE	-10.9241
▁Annex	-10.9248
▁producer	-10.9255
▁horizontal	-10.9256
▁stating	-10.9258
▁draftsman	-10.9258
▁wholeheartedly	-10.9258
▁bases	-10.9261
▁euros	-10.9271
▁pillars	-10.9271
▁remained	-10.9275
▁criticised	-10.9277
▁demanded	-10.9279
▁pharmaceutical	-10.9279
▁adjustment	-10.9279
▁recorded	-10.9283
▁persecution	-10.9285
▁deciding	-10.9285
▁appreciation	-10.9295
▁Globalisation	-10.9295
▁deadlines	-10.9296
▁His	-10.9297
▁assessing	-10.9297
▁complied	-10.9322
▁telling	-10.9323
off	-10.9325
▁2007.	-10.9329
▁Latvia	-10.9339
depth	-10.9344
▁criticisms	-10.9346
▁survival	-10.936
▁Galileo	-10.936
▁floods	-10.9361
▁Mexico	-10.9369
▁abandon	-10.9377
▁presents	-10.9378
▁marks	-10.9384
▁den	-10.9386
▁stimulate	-10.939
▁70	-10.939
▁minds	-10.9392
▁delicate	-10.9397
▁missions	-10.9403
▁civilians	-10.9405
u	-10.9406
▁decade	-10.941
▁era	-10.9423
▁intelligent	-10.9424
▁guilty	-10.9425
▁label	-10.943
▁unit	-10.9431
▁1992	-10.9438
▁Timor	-10.9444
▁Wednesday	-10.9444
U	-10.9449
▁objections	-10.9451
▁appalling	-10.9451
▁worried	-10.9453
▁Third	-10.9461
▁comitology	-10.9463
▁resumed	-10.9473
▁channels	-10.9473
▁2008,	-10.9476
▁xenophobia	-10.9491
▁mother	-10.9495
▁retirement	-10.95
▁onto	-10.9503
▁rating	-10.9505
▁2010,	-10.9512
▁assessed	-10.9516
▁coordinating	-10.9538
▁remark	-10.955
▁demonstration	-10.9552
▁wake	-10.9557
▁Kurdish	-10.9557
▁2004.	-10.9558
▁interference	-10.9567
▁authorised	-10.9569
▁K	-10.9572
▁reminded	-10.9575
▁lesson	-10.9577
▁root	-10.9579
employed	-10.9579
▁incidents	-10.9587
▁estimates	-10.9593
▁camps	-10.9596
▁subjected	-10.9601
▁design	-10.9602
▁sports	-10.9609
▁arrangement	-10.961
▁formally	-10.961
▁protectionism	-10.9613
▁adaptation	-10.962
▁ideological	-10.9622
▁atmosphere	-10.9624
▁indirect	-10.9624
▁offences	-10.9626
▁satellite	-10.9629
▁articles	-10.964
▁Saddam	-10.9643
▁2,	-10.965
▁differ	-10.9657
▁obtaining	-10.9658
▁references	-10.9658
▁town	-10.9662
▁tuna	-10.9672
▁attach	-10.9693
▁grants	-10.9694
▁contradiction	-10.9697
▁genocide	-10.9701
▁scheduled	-10.9701
▁withdrawn	-10.9704
▁punishment	-10.9706
▁relief	-10.972
▁topics	-10.9728
▁realised	-10.9736
▁zero	-10.974
▁2006.	-10.976
▁conscience	-10.9765
▁quick	-10.9766
▁silence	-10.9767
▁Verts	-10.9768
▁Christians	-10.9772
T	-10.9774
▁consists	-10.9775
▁returned	-10.9775
▁passing	-10.9788
▁pays	-10.9793
▁remit	-10.9795
▁persuade	-10.9796
▁audiovisual	-10.9797
▁victory	-10.9798
▁empty	-10.9798
▁HIV	-10.9807
▁federal	-10.9811
▁2013	-10.9815
▁arises	-10.9821
COD	-10.9827
▁Hamas	-10.9827
▁born	-10.9835
▁Should	-10.9836
▁thoroughly	-10.984
IT	-10.984
▁cease	-10.9841
▁banana	-10.9843
▁beneficiaries	-10.9846
▁moratorium	-10.9846
▁alarming	-10.9849
▁everyday	-10.985
▁transfers	-10.9852
▁generous	-10.9855
▁reviewed	-10.9858
▁patient	-10.9861
▁avoiding	-10.9864
▁unprecedented	-10.9866
P	-10.9867
▁2011	-10.987
▁exclude	-10.9871
▁Federation	-10.9885
▁remarkable	-10.9886
▁revolution	-10.9889
▁heavily	-10.9895
▁Democrat	-10.99
▁analyse	-10.9901
▁2008.	-10.9904
ising	-10.9909
▁addresses	-10.9919
▁translation	-10.9922
▁arrested	-10.9939
▁differently	-10.9942
▁Hague	-10.9945
▁fashion	-10.9955
▁clarified	-10.9964
▁Code	-10.9974
▁contributes	-10.999
▁workforce	-10.9995
▁Asian	-11.0004
▁foster	-11.0011
▁indicates	-11.0012
▁terror	-11.0013
▁pesticides	-11.0017
▁quantity	-11.0024
▁Black	-11.0024
▁anywhere	-11.0025
▁macro	-11.0043
▁trends	-11.0044
▁bottom	-11.0044
▁corporate	-11.0044
▁emphasize	-11.005
▁mine	-11.0051
▁Baroness	-11.0054
▁incomes	-11.0079
▁Congress	-11.0084
▁posed	-11.0095
▁registered	-11.0099
▁integral	-11.0104
▁Madrid	-11.0104
▁normally	-11.0108
▁affair	-11.0112
▁creative	-11.0112
▁ultimate	-11.0113
▁governed	-11.0116
▁devote	-11.0117
▁incident	-11.0121
▁praise	-11.0121
▁exert	-11.0124
▁instability	-11.0133
▁indispensable	-11.0144
▁dual	-11.0145
▁organization	-11.0146
▁stresses	-11.0147
▁Or	-11.0152
▁modest	-11.0152
▁reverse	-11.0153
▁book	-11.0153
▁attempting	-11.0158
▁cast	-11.0163
▁towns	-11.0185
▁smoking	-11.0185
▁warrant	-11.019
▁describe	-11.0192
▁90	-11.0197
▁solving	-11.0206
▁rational	-11.0211
▁uses	-11.0213
▁400	-11.0214
▁served	-11.022
▁map	-11.0224
▁Through	-11.0225
▁divide	-11.0233
▁prerequisite	-11.0234
▁diverse	-11.0235
▁facilitating	-11.0235
ised	-11.0244
▁irresponsible	-11.0255
▁monopolies	-11.0255
▁witnessed	-11.0258
▁abolished	-11.0258
▁reinforced	-11.0268
▁resort	-11.0271
▁criticise	-11.0273
▁cycle	-11.0275
▁livestock	-11.0276
▁gases	-11.0279
▁investing	-11.0284
▁emphasises	-11.0291
ment	-11.0297
▁whenever	-11.03
▁dream	-11.0305
▁responding	-11.0306
▁Apart	-11.0307
▁wise	-11.0315
▁removing	-11.0317
▁lowest	-11.0318
▁civilisation	-11.0319
▁cells	-11.0321
▁drop	-11.0326
▁cattle	-11.0327
▁philosophy	-11.0327
▁identification	-11.0327
CNS	-11.0327
▁stem	-11.0337
▁Kinnock	-11.0337
▁adding	-11.0339
▁wonderful	-11.0346
▁assembly	-11.0348
▁concepts	-11.0349
▁enjoyed	-11.0355
▁combination	-11.0357
▁isolation	-11.0358
▁Caucasus	-11.0358
▁disparities	-11.0358
▁rare	-11.0367
▁Law	-11.0367
▁democracies	-11.0368
▁enthusiasm	-11.0368
▁isolated	-11.0369
▁patents	-11.0371
▁enforce	-11.0377
▁orientation	-11.0388
▁Le	-11.0395
le	-11.04
▁believed	-11.04
▁sustained	-11.0401
▁satisfy	-11.0402
▁2005.	-11.0405
▁von	-11.041
▁licences	-11.042
▁Nordic	-11.0422
▁genetic	-11.043
wing	-11.0441
▁CFSP	-11.0441
▁topical	-11.0445
▁profound	-11.0449
▁1993	-11.0451
▁inevitable	-11.0451
▁Rather	-11.0451
▁appeared	-11.0452
▁strive	-11.046
▁caught	-11.0461
▁steel	-11.0461
▁roll	-11.0462
▁survive	-11.047
▁recession	-11.0472
▁strikes	-11.0476
▁precedent	-11.0482
▁availability	-11.0482
▁fault	-11.0492
▁recognising	-11.0503
▁Taiwan	-11.0503
▁advances	-11.0508
▁poorer	-11.0508
▁Eurostat	-11.0509
▁doors	-11.0509
▁abolish	-11.0513
▁interventions	-11.0521
▁licence	-11.0524
▁frankly	-11.0525
▁computer	-11.0534
▁donor	-11.0535
▁workplace	-11.0536
▁illegally	-11.0537
▁relationships	-11.054
▁claimed	-11.0542
▁inequality	-11.0543
▁condemnation	-11.0546
▁dioxide	-11.0556
▁radio	-11.056
▁Each	-11.0566
▁limiting	-11.0575
▁unlike	-11.0575
▁pointing	-11.0577
▁interpreted	-11.0578
▁publicly	-11.058
▁transnational	-11.058
▁aspirations	-11.0581
▁Paris	-11.0587
▁Democracy	-11.0587
▁expenses	-11.0589
▁shame	-11.0593
▁maybe	-11.0601
▁Blair	-11.0608
▁Nigeria	-11.0628
▁Montenegro	-11.0629
▁energies	-11.064
▁Against	-11.064
▁Resolution	-11.064
▁footing	-11.0648
old	-11.0657
▁audit	-11.0658
▁emerge	-11.0671
▁organized	-11.0672
▁uphold	-11.0681
▁definitive	-11.0691
▁confirms	-11.0703
▁manufacturing	-11.0704
▁flag	-11.0704
ranging	-11.0711
▁mental	-11.0712
▁messages	-11.0716
▁1999.	-11.072
▁Prize	-11.0725
▁disappointment	-11.0725
▁1%	-11.0726
▁indirectly	-11.0727
▁occupied	-11.0736
▁securing	-11.0746
▁Neither	-11.0746
▁flight	-11.0748
▁Monti	-11.0749
▁drinking	-11.075
▁focuses	-11.075
▁tremendous	-11.0755
▁Quite	-11.0757
▁encouragement	-11.0758
▁recognize	-11.0768
▁multinational	-11.077
é	-11.077
▁rid	-11.077
▁burdens	-11.0774
▁wars	-11.0778
▁gratitude	-11.0778
▁disadvantage	-11.0778
▁broken	-11.0779
▁preference	-11.078
▁handled	-11.0781
▁Indonesia	-11.0799
▁requiring	-11.08
▁Neighbourhood	-11.0811
▁neighbour	-11.0816
▁combine	-11.0822
▁earmarked	-11.0822
▁location	-11.0824
▁threatening	-11.0829
▁remote	-11.083
▁Frontex	-11.0832
▁safer	-11.0834
▁fleets	-11.0839
▁split	-11.0843
▁Conciliation	-11.0843
▁Until	-11.0843
▁pose	-11.0844
▁postponed	-11.0844
▁recital	-11.0856
▁concluding	-11.0865
ally	-11.0865
▁perform	-11.0872
▁vague	-11.0873
▁wind	-11.0874
▁abandoned	-11.0879
▁sectoral	-11.0883
▁multinationals	-11.0885
▁publication	-11.0888
▁scandal	-11.0888
▁abortion	-11.0889
▁Yesterday	-11.0897
▁delayed	-11.0898
▁suspension	-11.0908
▁Olympic	-11.091
▁remedy	-11.0912
▁dairy	-11.0919
▁quantities	-11.0919
▁faster	-11.0942
▁Guinea	-11.095
▁pragmatic	-11.0951
▁conjunction	-11.0952
▁preferred	-11.0952
▁tariff	-11.0956
▁roots	-11.0959
▁overwhelming	-11.0961
▁elimination	-11.0963
▁Peace	-11.0963
▁depth	-11.0973
▁doctors	-11.098
▁Thanks	-11.0983
▁Kong	-11.0984
▁reproductive	-11.0986
ant	-11.0991
▁exploited	-11.0999
SV	-11.1
▁aiming	-11.1006
▁York	-11.1017
▁privatisation	-11.102
▁input	-11.1023
▁displaced	-11.1028
▁Arctic	-11.1029
▁banning	-11.1029
▁moves	-11.1034
▁1,	-11.1036
▁tend	-11.1038
▁initiate	-11.1043
▁expressly	-11.1056
▁warming	-11.1061
▁Ecofin	-11.1062
▁Milosevic	-11.1072
▁Among	-11.1072
▁3,	-11.108
▁intelligence	-11.1084
▁enforced	-11.1085
▁secondary	-11.1099
▁positively	-11.1101
▁problematic	-11.1102
▁Hussein	-11.1106
▁signals	-11.1106
▁Hong	-11.1117
▁foods	-11.1127
▁complaint	-11.1132
▁invested	-11.1136
▁explicit	-11.1149
▁pluralism	-11.115
▁Freedoms	-11.1155
▁teachers	-11.1155
▁Colombia	-11.116
▁judiciary	-11.1161
▁determining	-11.1172
▁feasible	-11.1172
▁dedicated	-11.1184
▁pity	-11.1196
▁merit	-11.1197
▁generated	-11.1197
accession	-11.12
▁harmonization	-11.1206
▁complexity	-11.1207
▁player	-11.1209
▁brutal	-11.1215
▁Relations	-11.1217
▁broadcasting	-11.122
▁4,	-11.1224
▁administrations	-11.1225
▁await	-11.1228
▁driven	-11.1231
▁Goals	-11.1233
▁2003.	-11.1236
▁strange	-11.1237
▁violated	-11.1241
▁coast	-11.1242
▁minors	-11.1243
▁convey	-11.1245
▁regulating	-11.1252
▁adjustments	-11.1258
▁derogation	-11.1266
▁understandable	-11.1267
▁biological	-11.1283
▁implies	-11.1285
▁Board	-11.1285
▁expand	-11.129
▁hide	-11.1296
▁symbolic	-11.1296
▁weaknesses	-11.1296
▁controlling	-11.131
▁promotes	-11.131
▁shortage	-11.1313
▁2012	-11.1315
E	-11.1315
▁urged	-11.1315
▁telephone	-11.1316
▁transmission	-11.1319
▁OECD	-11.1319
▁faces	-11.1321
▁belonging	-11.1321
▁explanations	-11.1329
▁Process	-11.133
▁bill	-11.1338
rs	-11.1348
▁integrating	-11.1353
▁Certainly	-11.1354
▁pipeline	-11.1357
▁feels	-11.1358
▁separation	-11.1364
▁Beijing	-11.1364
▁east	-11.1368
▁communicate	-11.1374
▁units	-11.1382
▁2002.	-11.1384
▁150	-11.1386
▁renewal	-11.1388
F	-11.1396
▁dear	-11.1397
▁Frattini	-11.1398
▁deliberately	-11.14
▁halt	-11.14
▁concentrated	-11.1402
▁specified	-11.141
▁radioactive	-11.141
▁agents	-11.1424
▁Chancellor	-11.1433
NL	-11.1436
G	-11.1443
▁Paragraph	-11.1444
▁deregulation	-11.1445
▁establishes	-11.146
▁backed	-11.146
▁IMF	-11.1468
▁Martin	-11.1469
▁Perspective	-11.1472
▁execution	-11.1473
▁preservation	-11.1479
▁announcement	-11.1484
▁runs	-11.1487
▁famous	-11.149
▁eligible	-11.149
▁48	-11.1491
▁simplifying	-11.1492
▁gets	-11.1494
▁zones	-11.1504
▁swift	-11.1511
▁selection	-11.1515
▁online	-11.1516
▁holds	-11.1519
▁rejecting	-11.1522
man	-11.1526
▁ex	-11.153
▁invitation	-11.153
▁trouble	-11.1531
▁suppliers	-11.1534
▁imbalances	-11.1541
▁platform	-11.1542
▁Communities	-11.1548
▁analyses	-11.1551
▁encourages	-11.1563
▁bananas	-11.1563
▁Organization	-11.1571
▁copyright	-11.1571
▁circulation	-11.1583
▁guide	-11.1587
▁surplus	-11.1594
▁traceability	-11.1594
▁mines	-11.1597
▁medicine	-11.1601
▁girls	-11.1606
▁unified	-11.1606
▁symbol	-11.1611
▁Laeken	-11.1618
▁margin	-11.1623
▁components	-11.1629
▁university	-11.163
)).	-11.1644
▁reconcile	-11.1651
▁earth	-11.1653
▁defended	-11.1654
▁acquired	-11.1666
▁Balkan	-11.1671
▁arisen	-11.1678
z	-11.1679
▁lend	-11.168
▁demonstrations	-11.1682
▁Freedom	-11.1683
▁Muslim	-11.1684
ch	-11.1686
▁entrepreneurs	-11.169
el	-11.17
▁Darfur	-11.17
▁fragile	-11.17
▁Working	-11.1705
▁professionals	-11.1707
▁complement	-11.1708
▁prevail	-11.1708
▁continuous	-11.171
▁wall	-11.171
▁narrow	-11.1711
▁spectrum	-11.1712
▁unsatisfactory	-11.1712
▁Washington	-11.1712
▁coalition	-11.1712
▁charter	-11.1712
▁accepts	-11.1716
▁ties	-11.1718
▁37	-11.1723
▁sadly	-11.1726
▁consult	-11.1737
▁quarter	-11.1741
▁Anyone	-11.1747
▁lawyers	-11.1748
▁tension	-11.1754
▁enhancing	-11.1759
▁grown	-11.1761
▁Re	-11.1763
▁tensions	-11.1764
▁derogations	-11.1766
▁threaten	-11.1769
▁reassure	-11.1769
▁salaries	-11.1771
▁explanatory	-11.1771
▁weekend	-11.1771
▁substantive	-11.1781
▁SIS	-11.1784
▁Forum	-11.1785
▁existed	-11.1789
▁Slovak	-11.179
▁entails	-11.1793
▁worker	-11.1794
▁Swoboda	-11.1794
▁demonstrating	-11.1795
▁exemptions	-11.1795
▁knew	-11.1806
▁cofinancing	-11.1807
▁deprived	-11.1808
▁responded	-11.1813
▁residents	-11.1814
▁wishing	-11.1815
▁mountain	-11.1816
▁Round	-11.1818
▁located	-11.1818
▁toxic	-11.1818
▁sensitivity	-11.183
▁journey	-11.1838
▁pensioners	-11.184
▁macroeconomic	-11.1843
▁seats	-11.1854
▁Regions	-11.1865
▁fulfilling	-11.1867
▁abstain	-11.1868
▁owners	-11.1876
▁packaging	-11.1878
▁tabling	-11.1878
▁consolidated	-11.188
▁Articles	-11.1884
▁eliminating	-11.189
▁formulated	-11.1891
▁officially	-11.1898
▁Adjustment	-11.1902
▁approving	-11.1902
▁subsidy	-11.1902
▁Industrial	-11.191
▁ends	-11.1912
▁hoping	-11.1914
▁momentum	-11.1915
▁match	-11.1916
determination	-11.1919
▁courageous	-11.1925
▁seemed	-11.1929
▁Moscow	-11.1938
▁Climate	-11.1938
▁tourist	-11.1938
▁cloning	-11.195
▁diplomacy	-11.195
▁60%	-11.195
▁witness	-11.1952
▁guidance	-11.1962
▁preserving	-11.1962
▁airline	-11.1964
▁depending	-11.1969
for	-11.1973
▁supranational	-11.1975
▁bears	-11.198
▁Christmas	-11.1987
▁undermining	-11.1987
▁newspaper	-11.1995
▁detrimental	-11.1995
▁intolerable	-11.1999
▁senior	-11.1999
▁ministerial	-11.1999
▁revealed	-11.2
▁advocates	-11.2002
▁learnt	-11.2003
▁escape	-11.2006
▁Danube	-11.2011
▁suddenly	-11.2012
▁3%	-11.2012
▁postpone	-11.2021
use	-11.2025
known	-11.2028
▁Vietnam	-11.2035
▁misleading	-11.2037
▁stabilisation	-11.2037
▁indications	-11.2041
▁toys	-11.2044
▁tariffs	-11.2044
▁customers	-11.2045
▁listed	-11.2047
▁optimistic	-11.2049
▁socialist	-11.2052
▁formed	-11.2056
▁definite	-11.2058
▁cod	-11.207
▁worthwhile	-11.2072
5-	-11.2077
▁definitions	-11.2078
▁censure	-11.2083
▁25%	-11.2084
▁blocked	-11.2088
▁carriers	-11.2089
▁2007-2013	-11.2095
▁frontiers	-11.2096
▁proves	-11.2105
▁petitions	-11.2106
▁III	-11.2107
▁organising	-11.2108
▁underlined	-11.2111
▁pursuit	-11.2121
▁prostitution	-11.2121
▁REACH	-11.2121
▁45	-11.213
▁Barnier	-11.2133
▁attended	-11.2137
▁purchase	-11.214
▁earthquake	-11.2142
▁Afghan	-11.2142
▁compensate	-11.2144
▁Equality	-11.2146
▁surprising	-11.2156
▁offence	-11.2166
▁Albanian	-11.2168
▁issuing	-11.217
▁infringements	-11.2171
▁seas	-11.2172
▁arbitrary	-11.2174
▁merits	-11.2178
▁selling	-11.218
▁judges	-11.2182
▁applaud	-11.2184
▁reforming	-11.219
▁electorate	-11.2192
▁continuity	-11.2194
▁twelve	-11.2194
▁exact	-11.2198
▁operates	-11.2198
▁theory	-11.22
▁ending	-11.22
▁DG	-11.2204
▁wave	-11.2205
▁insecurity	-11.2205
os	-11.2205
▁fishery	-11.2207
▁Concerning	-11.2207
▁J	-11.2211
▁formula	-11.2215
▁awaiting	-11.2215
▁pick	-11.2222
▁expresses	-11.2237
▁propaganda	-11.2244
▁sees	-11.2245
▁swiftly	-11.2246
▁dates	-11.225
▁scenario	-11.2254
▁Area	-11.2256
▁hypocrisy	-11.2257
▁capacities	-11.2257
ling	-11.2257
▁God	-11.2259
▁33	-11.2265
▁refusing	-11.2269
▁software	-11.2269
▁lengthy	-11.2271
▁identifying	-11.2278
▁nationality	-11.2281
▁tendency	-11.2281
▁vigilant	-11.2281
▁ensures	-11.2284
▁College	-11.2294
▁complementary	-11.2294
▁noticed	-11.2296
▁streets	-11.2297
▁coins	-11.2301
▁phrase	-11.2303
▁convincing	-11.2305
▁pan	-11.2317
▁disappointing	-11.2321
▁Islands	-11.2325
▁Directorate	-11.2329
▁gaps	-11.2338
▁veto	-11.2341
▁caution	-11.2344
▁Serbian	-11.2347
▁distortions	-11.2351
▁accountable	-11.2365
▁Poettering	-11.2369
▁eco	-11.2371
▁fruitful	-11.2376
▁summary	-11.2382
teroperability	-11.2382
▁thoughts	-11.2384
▁autonomous	-11.2388
▁transportation	-11.2389
il	-11.2392
▁biotechnology	-11.2394
▁disability	-11.2394
▁publish	-11.2395
▁delivery	-11.2398
▁San	-11.24
▁32	-11.2421
▁inspectors	-11.2424
▁successes	-11.2425
▁career	-11.2426
▁opponents	-11.2429
▁judgments	-11.2432
▁Cuban	-11.2432
▁mixed	-11.2435
à	-11.2445
▁Palacio	-11.2445
▁excise	-11.2446
▁geared	-11.2447
▁ad	-11.2453
▁acquire	-11.2455
▁Gender	-11.2458
▁engagement	-11.2471
▁counterfeiting	-11.2475
▁Sever	-11.2481
▁sheep	-11.2483
▁wholly	-11.2485
▁inland	-11.249
▁smooth	-11.2493
▁write	-11.2494
▁mobilise	-11.2494
▁Haiti	-11.2496
▁ECHO	-11.2496
▁Bolkestein	-11.2496
▁officers	-11.2503
▁permits	-11.2504
▁attitudes	-11.2506
▁financially	-11.2508
▁centuries	-11.2509
▁contradictory	-11.2509
▁reformed	-11.251
▁frequent	-11.252
▁authors	-11.2533
▁white	-11.2535
▁watch	-11.2537
▁jeopardise	-11.2546
▁automatic	-11.2547
▁fill	-11.255
▁restriction	-11.2559
▁Next	-11.256
▁discovered	-11.2562
▁update	-11.2566
▁allies	-11.2571
▁mutually	-11.2582
▁alleged	-11.2584
O	-11.2585
▁mercury	-11.2585
▁mobilisation	-11.2586
at	-11.2595
▁owe	-11.2596
▁Basque	-11.2597
▁disappear	-11.26
▁newly	-11.2604
▁structured	-11.2606
▁sooner	-11.2609
▁constituents	-11.261
▁Surely	-11.2611
▁deterioration	-11.2611
▁partial	-11.2614
▁reactions	-11.2617
▁Yugoslav	-11.2624
▁thinks	-11.2625
te	-11.2626
▁undermined	-11.2627
▁pull	-11.2634
▁condemning	-11.2636
▁Ukrainian	-11.2637
ES	-11.2638
▁Much	-11.265
▁5%	-11.2652
▁papers	-11.2656
▁textiles	-11.2659
ise	-11.2659
▁station	-11.266
▁tolerate	-11.2662
▁bigger	-11.2663
▁wanting	-11.2665
▁compare	-11.2674
▁Southern	-11.2676
▁devastating	-11.2676
▁Mugabe	-11.2676
▁realities	-11.2678
▁knowing	-11.2682
▁neutral	-11.2686
▁privileged	-11.269
▁seriousness	-11.2696
▁adapting	-11.2696
▁indigenous	-11.2702
▁killing	-11.2707
▁excessively	-11.2708
▁allowances	-11.2713
▁Small	-11.2715
▁advocated	-11.2717
▁Herzegovina	-11.2718
comprehensible	-11.2722
▁belongs	-11.2723
▁meaningful	-11.2727
▁deliberations	-11.2736
▁rhetoric	-11.2753
▁redundancies	-11.2754
▁tested	-11.2764
▁apologise	-11.2779
▁cold	-11.2781
▁transformation	-11.2781
▁recognized	-11.2782
▁N	-11.2782
▁user	-11.2783
▁slowly	-11.2784
▁classification	-11.2807
vis	-11.2807
▁outline	-11.2816
▁incompatible	-11.2819
▁refrain	-11.283
▁immense	-11.2831
▁bridge	-11.2832
▁Finance	-11.2833
▁hitherto	-11.2833
▁reception	-11.2833
▁certification	-11.2833
N	-11.2837
▁organs	-11.2846
▁memory	-11.2846
▁returning	-11.2852
▁misunderstand	-11.2855
▁prejudice	-11.2859
▁alliance	-11.286
being	-11.2864
▁Iceland	-11.2872
▁suspend	-11.2876
▁charged	-11.2876
▁teaching	-11.2876
▁painful	-11.2884
▁restricting	-11.2887
▁sentences	-11.2889
▁translated	-11.29
▁costly	-11.2904
▁contamination	-11.2912
▁70%	-11.2913
▁manoeuvre	-11.2913
▁film	-11.2927
▁cheaper	-11.2927
disproportionate	-11.2928
ta	-11.2932
▁Chernobyl	-11.2939
▁Turning	-11.2939
▁inclusive	-11.2939
▁conventional	-11.2947
▁recourse	-11.2952
▁proportionality	-11.2952
▁liberalization	-11.2952
▁EP	-11.2953
▁entail	-11.2957
▁profession	-11.2965
▁Norway	-11.2966
▁theme	-11.2978
▁Together	-11.2979
▁plus	-11.298
▁Communication	-11.298
▁departments	-11.2982
▁mix	-11.2982
▁expecting	-11.2991
▁interfere	-11.2992
▁reunification	-11.2992
is	-11.2996
▁differing	-11.3003
▁Jean	-11.3006
▁exempt	-11.3006
▁voices	-11.3007
▁Confedera	-11.3016
▁intense	-11.3018
▁liberty	-11.3019
▁Putin	-11.302
▁speaks	-11.302
▁collected	-11.3022
▁disregard	-11.3024
▁supporters	-11.3028
▁rescue	-11.3031
▁Cotonou	-11.3033
▁weakness	-11.3033
▁weaken	-11.3038
▁5,	-11.3053
▁agreeing	-11.3055
▁Political	-11.3058
▁ideology	-11.306
▁techniques	-11.3062
▁Director	-11.3063
▁newspapers	-11.3064
▁Fortunately	-11.3073
▁unclear	-11.3073
▁buying	-11.3077
▁feelings	-11.3084
▁Sakharov	-11.3087
▁continually	-11.3087
▁mentioning	-11.3088
▁awarded	-11.3089
▁books	-11.3089
▁chair	-11.3092
▁poses	-11.3098
▁preferences	-11.3098
▁vitally	-11.3103
▁assumed	-11.3104
▁W	-11.311
▁ingredients	-11.311
▁Accordingly	-11.312
▁site	-11.3123
▁clothing	-11.3128
▁allocate	-11.3139
▁Media	-11.3141
▁cooperative	-11.3143
▁Further	-11.3154
▁laundering	-11.3156
▁exceed	-11.316
▁launching	-11.3161
▁competitors	-11.3162
▁billions	-11.3163
un	-11.3163
ad	-11.3164
▁reputation	-11.3168
▁dare	-11.3169
ul	-11.3175
▁modes	-11.3177
▁adhere	-11.3183
▁Chair	-11.3185
▁slaughter	-11.3185
▁dimensions	-11.3195
▁Three	-11.3195
▁disarmament	-11.3195
▁handle	-11.3199
▁throw	-11.3201
call	-11.3208
▁prisons	-11.3212
▁incapable	-11.3223
▁survey	-11.3225
▁transform	-11.3228
▁limitations	-11.3231
▁contradict	-11.3233
▁forecasts	-11.3238
▁murdered	-11.3241
▁Whether	-11.325
▁objection	-11.3253
▁founding	-11.3256
▁recommends	-11.3261
▁proactive	-11.3262
▁appropriately	-11.3264
▁Conservative	-11.3267
▁countryside	-11.3267
▁drastic	-11.3278
▁suspect	-11.3278
x	-11.3281
▁finished	-11.3283
▁pending	-11.3292
▁olive	-11.3294
▁formulate	-11.3304
▁ridiculous	-11.3305
▁petition	-11.3307
▁destination	-11.3308
▁severely	-11.3309
▁artificial	-11.3318
▁breaking	-11.3326
▁conditional	-11.3331
▁impunity	-11.3333
▁Seventh	-11.3333
▁profitable	-11.3334
▁bio	-11.3334
▁argued	-11.3336
▁retained	-11.3341
▁marking	-11.3341
▁Michel	-11.3345
▁scandalous	-11.3345
▁Indian	-11.335
ce	-11.3352
5-00	-11.3352
▁handed	-11.3356
▁viewed	-11.3357
▁assent	-11.3361
▁participated	-11.3367
▁Meanwhile	-11.3375
▁capabilities	-11.3375
▁Euratom	-11.3375
▁Erika	-11.3375
▁Has	-11.3385
▁revise	-11.3387
▁settle	-11.3387
▁Mercosur	-11.3389
▁recover	-11.3391
▁tens	-11.3396
▁mentions	-11.3397
▁75	-11.3399
▁eurozone	-11.3403
▁pornography	-11.3416
▁Personally	-11.3417
▁manufacture	-11.3429
regulation	-11.3431
▁prohibited	-11.3433
▁touched	-11.3435
▁calm	-11.3442
▁Equal	-11.3443
▁liberties	-11.3444
▁Foundation	-11.3444
co	-11.3457
way	-11.3468
▁highlighting	-11.3471
▁attempted	-11.3477
line	-11.348
▁reinforcing	-11.3487
▁MEDA	-11.3487
▁technically	-11.3495
▁Posselt	-11.3501
▁stood	-11.3501
▁mainstreaming	-11.3504
▁600	-11.3504
▁organisms	-11.3506
▁cooperating	-11.3515
▁promising	-11.3515
▁90%	-11.3515
▁asks	-11.3517
▁2.	-11.352
▁prompt	-11.3521
▁referendums	-11.3525
▁professions	-11.3528
▁entirety	-11.3529
less	-11.354
▁psychological	-11.3542
we	-11.3542
▁duration	-11.3543
▁silent	-11.3543
ur	-11.3543
▁Customs	-11.3545
▁instances	-11.3548
operation	-11.355
▁boundaries	-11.3557
▁anybody	-11.3558
▁simpler	-11.3561
▁domain	-11.3564
▁abide	-11.3573
▁settled	-11.3573
▁precondition	-11.3576
&	-11.3579
▁hearings	-11.358
▁fairer	-11.3581
▁redundant	-11.3586
▁finds	-11.359
▁injured	-11.36
▁supplied	-11.36
▁deemed	-11.3601
▁commerce	-11.3604
▁receives	-11.3612
▁alter	-11.3621
▁activists	-11.3625
▁fossil	-11.3628
▁dismantling	-11.3628
▁UEN	-11.3628
▁venture	-11.3636
▁exposure	-11.3643
▁weapon	-11.3648
R	-11.3651
▁maternity	-11.3657
▁viability	-11.3657
▁punished	-11.3659
▁worry	-11.3664
▁Islam	-11.3672
▁2001.	-11.3673
▁disagreement	-11.3677
▁appreciated	-11.3677
▁additives	-11.368
▁destroying	-11.3684
▁Again	-11.3685
▁departure	-11.3686
▁Sri	-11.3686
▁34	-11.37
▁excellence	-11.37
▁debts	-11.3705
▁insisted	-11.371
▁measured	-11.3711
▁guiding	-11.3714
▁wrote	-11.3714
▁hoc	-11.3718
▁distinguish	-11.3724
▁conferences	-11.3726
Europe	-11.3736
▁1.	-11.3743
▁guided	-11.3745
▁requesting	-11.3746
▁underlines	-11.3748
▁installations	-11.3751
▁CFP	-11.3758
▁informing	-11.3761
▁decrease	-11.3762
▁mothers	-11.3765
▁Azerbaijan	-11.377
▁quantitative	-11.3771
▁Sahara	-11.3771
▁harmonising	-11.3772
▁likewise	-11.3774
▁ruled	-11.3775
▁shoulder	-11.3776
▁moderate	-11.3778
▁conducting	-11.3783
▁cautious	-11.3785
▁relevance	-11.3787
▁confronted	-11.3789
▁lifting	-11.3794
▁profile	-11.3794
▁vary	-11.3794
tic	-11.3795
all	-11.38
▁Watson	-11.3801
▁Slovenian	-11.3803
▁discriminatory	-11.3805
ists	-11.3807
▁welcoming	-11.3816
▁judged	-11.3819
▁accusations	-11.3828
▁advise	-11.3828
▁Cambodia	-11.3829
▁chose	-11.383
▁identical	-11.383
▁breaches	-11.3831
▁contents	-11.3834
▁suspicion	-11.3836
▁ILO	-11.3837
▁spreading	-11.3839
▁supplement	-11.3841
▁admitted	-11.3844
▁uncertain	-11.3845
▁opposing	-11.3845
▁peripheral	-11.3846
▁advisory	-11.385
▁Gothenburg	-11.3859
▁extradition	-11.3859
▁threatens	-11.3866
▁website	-11.3866
▁protests	-11.3866
▁distortion	-11.3866
▁dominant	-11.3874
▁unrealistic	-11.3874
▁letters	-11.3882
▁Bulgarian	-11.3884
building	-11.3896
▁veterinary	-11.3903
▁repair	-11.3907
▁ineffective	-11.3908
▁fell	-11.3911
▁separately	-11.3911
▁1980	-11.3918
▁deplore	-11.3923
▁55	-11.3924
how	-11.3926
▁L	-11.3927
▁striking	-11.3933
▁pushing	-11.3935
▁adjust	-11.3937
▁chapters	-11.394
ful	-11.3949
▁b	-11.3958
▁plain	-11.3961
▁somewhere	-11.3964
▁missed	-11.3964
▁prosecution	-11.3969
▁totalitarian	-11.3977
▁100%	-11.3978
▁replacing	-11.3994
▁partially	-11.3994
ies	-11.3994
▁sends	-11.3996
▁eat	-11.4
▁precedence	-11.4007
▁hatred	-11.4007
▁tone	-11.4021
▁coexistence	-11.4022
▁attaches	-11.4022
▁neo	-11.4026
ve	-11.404
state	-11.4045
▁blocking	-11.405
▁Gulf	-11.4051
▁pride	-11.4051
lo	-11.4052
▁attract	-11.4061
▁independently	-11.4066
▁parameters	-11.4074
▁diversification	-11.4081
▁airspace	-11.4081
▁EDF	-11.4081
▁transposed	-11.4082
productive	-11.4088
Maritime	-11.4091
▁altogether	-11.4096
▁minimal	-11.4106
▁thrust	-11.4111
▁facto	-11.4114
▁interpret	-11.4114
▁Conservatives	-11.4123
▁love	-11.4123
▁austerity	-11.4126
▁confined	-11.4127
▁sentenced	-11.4129
▁deepening	-11.4131
▁36	-11.4135
▁Al	-11.4138
▁Sarkozy	-11.4141
▁emphasising	-11.4151
▁Jerusalem	-11.4156
▁Taliban	-11.4156
▁anticipated	-11.4157
na	-11.4159
▁Sport	-11.4164
▁forcing	-11.4165
▁racist	-11.4172
▁industrialised	-11.4172
▁premature	-11.4184
▁Monitoring	-11.4186
▁mostly	-11.4191
▁proliferation	-11.4191
▁cultivation	-11.4201
▁exemplary	-11.4201
▁visits	-11.4205
ro	-11.4207
▁absent	-11.4216
▁rigour	-11.4216
▁incidentally	-11.4217
▁echo	-11.4217
▁asset	-11.4221
▁schedule	-11.4223
▁reactors	-11.4225
▁England	-11.4232
▁envisage	-11.4239
▁art	-11.4242
▁exercising	-11.4247
▁replacement	-11.4247
▁internally	-11.4256
▁produces	-11.426
▁safeguarded	-11.426
▁Tuesday	-11.4262
▁permission	-11.4262
▁earn	-11.4268
▁warn	-11.4269
▁imbalance	-11.4269
▁Innovation	-11.4277
▁disappeared	-11.4281
▁forth	-11.4289
▁Natura	-11.4292
▁Johannesburg	-11.4292
▁migratory	-11.4292
▁preferential	-11.4292
▁entities	-11.4293
▁vis	-11.4298
▁qualitative	-11.4306
▁Global	-11.4306
▁typical	-11.4306
▁decommissioning	-11.4308
▁globally	-11.4311
▁exercised	-11.4317
▁database	-11.4317
▁robust	-11.4321
▁inability	-11.4322
▁harsh	-11.4336
▁lift	-11.4338
▁currencies	-11.4338
▁plenty	-11.4354
▁confused	-11.437
▁opens	-11.4374
▁restoring	-11.4384
▁perpetrators	-11.4392
▁privilege	-11.4392
▁anyway	-11.4395
▁processed	-11.4398
▁repressive	-11.44
▁cash	-11.44
▁equipped	-11.44
▁globalised	-11.4403
▁strongest	-11.4404
speed	-11.4409
▁evil	-11.4409
▁records	-11.4423
▁Israelis	-11.4425
▁delivering	-11.4442
▁pressures	-11.4444
▁COM	-11.4459
▁announce	-11.4461
▁deeper	-11.4465
▁reconsider	-11.4467
▁teams	-11.4485
▁secured	-11.4486
▁judgement	-11.4487
▁disadvantages	-11.449
▁15%	-11.4494
▁upheld	-11.4494
rate	-11.4496
▁exceptionally	-11.4498
▁vessel	-11.4503
▁unite	-11.4504
▁deliberate	-11.4507
▁resume	-11.4507
um	-11.4508
▁aquaculture	-11.4508
▁Caribbean	-11.4508
▁Reding	-11.4514
▁linking	-11.4514
▁assumption	-11.4518
▁65	-11.4524
▁salary	-11.4524
▁Lomé	-11.4524
▁specialist	-11.4538
▁unresolved	-11.4539
age	-11.454
▁lacks	-11.4541
▁signatures	-11.4541
▁exceeded	-11.4543
▁Be	-11.4554
▁capitalist	-11.4561
▁Change	-11.4571
▁PHARE	-11.4571
▁Wallström	-11.4571
▁owing	-11.4571
▁mining	-11.4572
la	-11.4572
▁outbreak	-11.4583
▁reciprocity	-11.4587
▁eliminated	-11.4591
▁assurances	-11.4594
▁Environmental	-11.4595
▁taxpayer	-11.4597
▁protein	-11.4597
▁250	-11.4601
▁wisdom	-11.4602
▁confront	-11.4602
▁inspired	-11.4603
makers	-11.4608
▁aggressive	-11.4616
▁alive	-11.4618
▁Nobody	-11.4618
▁investigated	-11.462
▁restored	-11.4622
ization	-11.463
▁spare	-11.4632
▁7,	-11.4633
▁accompanying	-11.4634
▁entity	-11.4634
▁modernise	-11.4634
▁lived	-11.4634
▁motivated	-11.4635
▁39	-11.4635
▁screening	-11.4636
▁pushed	-11.4641
▁academic	-11.4645
▁bus	-11.4645
▁afterwards	-11.465
▁optimism	-11.465
▁speedy	-11.4655
▁El	-11.4659
▁scourge	-11.466
▁secretariat	-11.4661
drew	-11.4661
▁promptly	-11.4667
▁witnessing	-11.4675
▁dollar	-11.4677
▁Roth	-11.468
▁Eurojust	-11.4681
▁deployment	-11.4681
▁prohibition	-11.4691
▁complying	-11.4693
▁1998.	-11.4695
▁Jarzembowski	-11.4697
▁deficiencies	-11.4697
▁unification	-11.4697
▁expanding	-11.4708
▁street	-11.4709
▁paramount	-11.4713
▁divisions	-11.4714
▁employ	-11.4729
led	-11.4729
▁harassment	-11.4729
▁dependency	-11.4729
▁Far	-11.473
▁44	-11.4738
▁43	-11.4739
▁Somalia	-11.4745
▁purchasing	-11.4745
▁innovations	-11.4745
▁assisting	-11.4754
▁managers	-11.4758
▁collect	-11.4772
▁emphatically	-11.4777
▁submitting	-11.4777
entrepreneurship	-11.4778
03	-11.4783
▁stipulates	-11.4786
▁impressive	-11.4791
▁soft	-11.4791
▁presidencies	-11.4793
▁3.	-11.4793
▁redress	-11.4797
▁circle	-11.4805
(2)	-11.4805
▁ease	-11.4808
▁Nuclear	-11.4809
▁standardisation	-11.481
▁phenomena	-11.4819
▁benefited	-11.4821
▁frank	-11.4823
▁Corbett	-11.4825
▁gaining	-11.4825
▁boats	-11.4831
▁lobby	-11.4833
ia	-11.4838
▁occurs	-11.4843
▁chances	-11.4843
▁Questions	-11.4847
▁endeavours	-11.4849
▁hospital	-11.4853
▁excess	-11.4856
▁incorporating	-11.4857
▁simultaneously	-11.4858
▁Co	-11.4863
▁bold	-11.4871
▁nice	-11.4872
▁prize	-11.4872
▁conversion	-11.4873
▁cards	-11.4879
▁incorrect	-11.4879
▁sporting	-11.4885
▁precarious	-11.4889
▁thirty	-11.489
▁Unless	-11.489
▁houses	-11.4894
▁gains	-11.4897
▁description	-11.4902
▁Erasmus	-11.4906
▁TV	-11.4909
▁trialogue	-11.4918
▁acute	-11.492
▁breast	-11.4923
▁fairness	-11.4926
▁Part	-11.4927
▁trials	-11.4935
▁Sunday	-11.4938
▁insofar	-11.4938
▁Dr	-11.4943
date	-11.4944
▁Besides	-11.4955
▁benefiting	-11.4958
▁injustice	-11.4969
▁restoration	-11.4971
▁evaluating	-11.4971
▁duly	-11.4971
▁inherent	-11.4971
▁unlikely	-11.4973
month	-11.4979
oriented	-11.4984
▁mistaken	-11.4988
▁affordable	-11.4988
▁alike	-11.4995
▁journalist	-11.4997
▁creativity	-11.5004
▁rehabilitation	-11.5004
▁navigation	-11.5004
▁introduces	-11.5004
▁ASEAN	-11.5004
▁thrown	-11.5004
▁correspond	-11.5009
▁resist	-11.501
▁St	-11.5014
▁confine	-11.5016
▁scene	-11.5017
▁protectionist	-11.5021
▁2%	-11.5021
▁La	-11.5025
▁alert	-11.503
▁TACIS	-11.5036
▁radiation	-11.5036
▁straightforward	-11.5036
▁successive	-11.5039
▁suggesting	-11.504
▁margins	-11.5044
▁Sometimes	-11.5053
▁prosperous	-11.5053
▁Very	-11.5053
▁obligatory	-11.5053
▁machinery	-11.5069
▁utterly	-11.507
▁anticipate	-11.5082
▁compliment	-11.5083
▁channel	-11.5083
▁wood	-11.5085
▁oppression	-11.5086
▁Annual	-11.5086
▁barrier	-11.51
▁Cypriot	-11.51
▁pure	-11.5101
▁recruitment	-11.5102
▁imprisoned	-11.5103
▁vigorously	-11.5104
▁updated	-11.5105
▁relocation	-11.5116
▁Japanese	-11.5119
▁neglected	-11.5121
▁weaker	-11.5122
▁risen	-11.5124
▁damaged	-11.513
▁pricing	-11.5136
▁emergence	-11.5136
▁selected	-11.5139
▁bans	-11.5141
▁appoint	-11.5142
▁specify	-11.5145
▁Support	-11.5145
go	-11.5146
▁Oomen	-11.5152
▁page	-11.5152
▁dramatically	-11.5152
▁lifted	-11.5155
am	-11.5179
▁servants	-11.518
▁formation	-11.5181
▁individually	-11.5183
▁Pacific	-11.5186
▁signature	-11.52
▁rigid	-11.52
▁Ferrero	-11.5202
▁Good	-11.5202
▁adults	-11.5214
long	-11.5214
▁vaccination	-11.5217
▁multiple	-11.5219
▁shipbuilding	-11.5219
▁coverage	-11.5219
▁flood	-11.5224
▁occupational	-11.5225
(1)	-11.5231
▁annex	-11.5232
▁700	-11.5233
▁Armenia	-11.5235
▁Games	-11.5236
▁Spring	-11.5236
▁dying	-11.5236
▁overcoming	-11.5237
▁codes	-11.5242
▁intent	-11.525
▁kilometres	-11.5251
▁decides	-11.526
▁1989	-11.5261
▁maintains	-11.5263
▁politician	-11.5267
▁prevents	-11.5269
▁Pack	-11.5278
▁lawyer	-11.5301
▁imperialist	-11.5301
▁hidden	-11.5303
Russia	-11.5313
▁6,	-11.5314
▁surface	-11.5318
id	-11.5328
▁camp	-11.5335
▁observer	-11.5337
▁decentralised	-11.5337
▁democrats	-11.5339
▁nationalism	-11.5339
▁42	-11.534
▁Agreements	-11.5342
▁catastrophe	-11.5352
▁incredibly	-11.5354
Bendit	-11.5354
▁ELDR	-11.5354
▁permanently	-11.5363
▁Sixth	-11.5369
▁draws	-11.537
▁dominated	-11.5372
made	-11.5375
▁allegations	-11.538
▁virtue	-11.5386
▁120	-11.5387
▁wild	-11.5387
▁Berlusconi	-11.5388
▁Cohn	-11.5388
▁Non	-11.5394
▁fundamentalism	-11.5396
▁checked	-11.5398
▁devices	-11.5406
▁evaluated	-11.5408
▁95	-11.5416
Ruijten	-11.5422
Waldner	-11.5422
▁challenging	-11.5422
▁studied	-11.5422
▁smuggling	-11.5422
▁ethics	-11.5427
▁wasted	-11.5435
▁forefront	-11.5439
▁abolishing	-11.5439
▁classes	-11.544
▁overview	-11.544
▁saved	-11.5443
▁intensify	-11.5449
▁legislate	-11.5455
▁replied	-11.5456
▁govern	-11.5461
▁Progress	-11.5473
▁millennium	-11.5473
▁ignoring	-11.5473
▁Burmese	-11.5473
▁38	-11.5477
standing	-11.5478
do	-11.5481
▁fees	-11.5484
▁approaching	-11.5489
▁cornerstone	-11.549
▁Guantánamo	-11.549
▁Workers	-11.5491
▁concerted	-11.5491
▁reasonably	-11.5492
▁award	-11.5495
▁consulting	-11.5501
▁assistants	-11.5504
▁strengthens	-11.5504
▁Chile	-11.5507
▁admission	-11.5508
▁weather	-11.5515
▁League	-11.5525
▁unjustified	-11.5525
▁forgetting	-11.5525
▁disturbing	-11.5526
▁shameful	-11.554
▁crop	-11.5542
▁Scientific	-11.5542
▁suspected	-11.5545
▁sustain	-11.5549
▁settlements	-11.555
▁crossing	-11.5556
▁splendid	-11.5558
▁Enlargement	-11.5559
▁Agricultural	-11.5559
▁applicants	-11.556
▁summits	-11.5563
be	-11.557
▁Lehne	-11.5577
▁waiver	-11.5577
▁Socrates	-11.5577
▁Costa	-11.5577
▁goodwill	-11.5577
▁5.	-11.5583
▁tight	-11.5591
▁defeat	-11.5592
▁800	-11.5592
▁luck	-11.5593
▁acknowledges	-11.5593
▁Cancún	-11.5594
▁hygiene	-11.5594
▁imprisonment	-11.5594
▁stipulated	-11.5595
▁backwards	-11.5606
▁pave	-11.5608
▁Vitorino	-11.5611
▁Water	-11.5611
▁workable	-11.5614
▁guardian	-11.5621
▁seize	-11.5627
▁eve	-11.5628
▁illness	-11.5629
▁anxious	-11.563
▁trained	-11.5636
ated	-11.5636
▁harder	-11.5638
▁celebrate	-11.5645
▁completing	-11.5646
▁uranium	-11.5646
▁Thessaloniki	-11.5646
▁occurring	-11.5646
▁postponement	-11.5646
▁groundwater	-11.5647
looking	-11.5652
▁flying	-11.5653
ial	-11.5661
▁Lukashenko	-11.5664
▁advocating	-11.5664
▁assuming	-11.5664
▁Mann	-11.5685
▁cow	-11.5691
▁roles	-11.5694
▁underestimate	-11.5698
(	-11.5698
▁striving	-11.5699
▁validity	-11.5699
▁Section	-11.5699
▁transported	-11.5702
▁gallery	-11.5716
▁Nothing	-11.5716
▁gesture	-11.5717
▁confirmation	-11.5718
▁organ	-11.5718
▁encountered	-11.5718
▁timing	-11.5734
▁GSP	-11.5735
▁perceived	-11.5735
▁fortunately	-11.5735
▁frontier	-11.5736
▁4.	-11.5746
▁Tak	-11.5746
▁shut	-11.5751
▁incurred	-11.5752
▁contractual	-11.5752
▁Korean	-11.5754
▁reiterated	-11.5756
▁attain	-11.5761
▁1997.	-11.5762
▁provisional	-11.5764
▁Australia	-11.5768
▁urging	-11.5769
▁vice	-11.5769
▁passport	-11.577
▁cereals	-11.578
▁Work	-11.578
▁John	-11.5785
▁conscious	-11.5786
▁dubious	-11.5787
▁lorries	-11.5787
▁retention	-11.5787
▁scarcely	-11.5788
▁undermines	-11.5789
▁analysed	-11.5789
▁preserved	-11.5791
▁begins	-11.5797
▁Anti	-11.5799
▁exporting	-11.58
▁Regulations	-11.5801
▁vegetables	-11.5803
▁competing	-11.5805
▁gambling	-11.5805
▁Tibetan	-11.5806
▁switch	-11.5812
ability	-11.5818
▁poorly	-11.5821
▁accelerate	-11.5821
▁evolution	-11.5822
▁Böge	-11.5822
▁consolidating	-11.5822
▁treating	-11.5824
▁stepping	-11.5824
▁reserved	-11.5827
▁radically	-11.5827
▁humane	-11.583
▁49	-11.5838
▁river	-11.5838
▁incredible	-11.584
▁detained	-11.5841
▁repeating	-11.5841
▁Have	-11.5841
right	-11.5843
▁47	-11.5854
▁chaos	-11.5858
▁Network	-11.5859
▁counting	-11.5861
▁discover	-11.5865
▁Aid	-11.5865
▁guard	-11.5875
▁stimulating	-11.5876
▁coup	-11.5887
▁prevailing	-11.5887
▁explaining	-11.5889
▁catches	-11.5896
▁centralised	-11.5896
▁contradictions	-11.5901
▁unambiguous	-11.591
▁Initiative	-11.5913
▁alarm	-11.5918
▁claiming	-11.5926
▁understands	-11.5929
▁Barón	-11.593
▁PNR	-11.5931
▁vegetable	-11.5931
▁notification	-11.5939
▁fines	-11.594
▁Harbour	-11.5948
▁piracy	-11.5948
▁weakened	-11.5951
ir	-11.5952
▁prominent	-11.5964
▁imposition	-11.5966
▁rape	-11.5966
▁modification	-11.5968
▁driver	-11.5969
▁46	-11.5983
▁Ministry	-11.5984
▁communautaire	-11.5984
▁liable	-11.5984
▁expanded	-11.5988
▁corrected	-11.5989
▁retail	-11.6
▁Liikanen	-11.6002
▁replies	-11.6002
▁communist	-11.6006
▁underway	-11.6009
▁blow	-11.6015
▁eradicate	-11.6019
▁pointless	-11.6019
▁Swiss	-11.602
▁Accession	-11.6021
▁drought	-11.6022
▁lobbyists	-11.6026
▁t	-11.6029
▁alleviate	-11.6037
▁corrupt	-11.6038
▁proving	-11.6038
▁Chad	-11.6038
▁carries	-11.6038
▁unilaterally	-11.6042
▁quoted	-11.6044
RO	-11.6048
▁havens	-11.6052
▁calculated	-11.6057
▁translate	-11.6057
▁arrival	-11.6058
▁epidemic	-11.6059
ne	-11.6061
▁shocking	-11.6062
▁legislators	-11.6066
▁rejects	-11.6067
▁mergers	-11.6072
▁herself	-11.6075
▁deployed	-11.6076
▁conform	-11.608
land	-11.6085
▁Russians	-11.609
▁flags	-11.6091
▁compatibility	-11.6093
▁eradication	-11.6093
▁unknown	-11.6093
V	-11.6102
▁capita	-11.611
▁barely	-11.6111
▁allowance	-11.6115
im	-11.6122
class	-11.6123
▁passive	-11.6129
▁Lamy	-11.6129
▁readmission	-11.613
▁serving	-11.613
▁enormously	-11.6143
▁GM	-11.6147
▁slavery	-11.6148
▁holiday	-11.615
▁loan	-11.6151
▁quo	-11.6162
▁attacked	-11.6164
▁beautiful	-11.6164
▁hypocritical	-11.6164
▁Madeira	-11.6166
▁grass	-11.6167
▁shop	-11.617
▁complain	-11.6176
ine	-11.6182
▁virus	-11.6184
▁Opportunities	-11.6184
▁Consumers	-11.6185
▁proceeding	-11.6185
▁honesty	-11.6188
▁legality	-11.6197
▁bid	-11.6197
▁Administration	-11.6203
▁Scottish	-11.6203
▁Executive	-11.6203
▁mankind	-11.6203
▁display	-11.6214
▁underpin	-11.6221
▁imminent	-11.6221
▁visibility	-11.6222
▁Everything	-11.6223
▁male	-11.6223
▁accessibility	-11.623
▁expects	-11.6239
▁Crespo	-11.624
▁Professor	-11.624
▁distant	-11.624
▁mad	-11.6241
▁lastly	-11.6257
▁Whatever	-11.6261
▁tourists	-11.6265
▁Un	-11.6274
▁Instrument	-11.6277
▁Rehn	-11.6277
me	-11.6279
▁occupying	-11.6282
▁kill	-11.6289
▁reaffirm	-11.6289
▁diagnosis	-11.6296
▁chocolate	-11.6296
▁dictator	-11.63
▁unusual	-11.6313
▁Which	-11.6314
▁poultry	-11.6314
▁taught	-11.6314
▁Jacques	-11.6314
▁Serbs	-11.6317
▁Muslims	-11.6323
▁viewpoint	-11.6323
▁stabilise	-11.6331
▁Lanka	-11.6332
—	-11.6333
▁Alzheimer	-11.6333
▁aggression	-11.6333
▁phasing	-11.6333
▁exported	-11.6334
▁substitute	-11.6335
▁stressing	-11.6336
▁artists	-11.6343
▁illustrates	-11.6346
▁proportionate	-11.6351
▁readiness	-11.6352
▁sixth	-11.6359
▁transferr	-11.6362
▁hinder	-11.6364
▁tune	-11.6365
▁internet	-11.6371
▁estimate	-11.6374
▁IV	-11.6378
▁counterfeit	-11.6379
▁questionable	-11.6379
▁voiced	-11.638
▁intolerance	-11.6386
party	-11.6388
▁pretty	-11.6389
▁derived	-11.6392
▁capitalism	-11.6393
▁Independent	-11.6393
▁ratio	-11.6399
ti	-11.6399
▁c	-11.6407
▁Ethiopia	-11.6407
▁commodity	-11.6408
▁offensive	-11.6408
▁confidentiality	-11.6408
▁geopolitical	-11.6409
▁interaction	-11.6409
▁violate	-11.6411
down	-11.6412
▁suicide	-11.6412
We	-11.6413
▁appeals	-11.6414
▁gather	-11.6417
ten	-11.6417
▁fathers	-11.6417
▁shareholders	-11.6425
▁tender	-11.6428
▁undemocratic	-11.643
▁tunnel	-11.6431
▁connections	-11.644
▁turns	-11.6443
▁Bangemann	-11.6446
▁cotton	-11.6446
▁committing	-11.6446
▁refunds	-11.6447
▁convictions	-11.6449
developed	-11.6452
▁executions	-11.6456
▁2020.	-11.6459
▁insisting	-11.6463
▁Angola	-11.6464
▁Florence	-11.6465
▁Sadly	-11.6465
▁wines	-11.6465
▁council	-11.647
▁roadmap	-11.6484
▁secrecy	-11.6484
▁denounce	-11.6487
▁accord	-11.6497
▁clarifying	-11.6502
▁behave	-11.6514
▁prohibit	-11.6516
▁%.	-11.6519
▁timber	-11.6522
▁perception	-11.6527
▁employee	-11.6527
▁embark	-11.6531
▁blocks	-11.6537
▁architecture	-11.6541
▁ecosystems	-11.6544
▁adult	-11.6546
▁8,	-11.6554
+	-11.6559
▁analysing	-11.656
▁Cross	-11.656
ri	-11.6564
▁embryos	-11.6565
▁remembered	-11.6568
▁supportive	-11.6575
sighted	-11.6578
▁discretion	-11.6579
▁perpetrated	-11.658
▁Venezuela	-11.6597
US	-11.6597
▁fatal	-11.6598
▁reliability	-11.6598
▁dreadful	-11.6599
▁transaction	-11.6604
▁damages	-11.6607
▁slight	-11.6617
▁countless	-11.6618
▁persecuted	-11.6618
he	-11.6619
▁intra	-11.6619
▁trains	-11.6622
▁reviewing	-11.663
ring	-11.663
▁diet	-11.6636
▁incorporation	-11.6637
w	-11.6639
▁failures	-11.664
▁indicating	-11.6642
ting	-11.6648
▁deadlock	-11.6653
sided	-11.6656
▁deleted	-11.6658
ized	-11.6659
▁sorts	-11.666
▁illustrate	-11.6661
▁honestly	-11.6662
ma	-11.6663
▁reveals	-11.6668
▁legislature	-11.6676
▁Sharon	-11.6676
▁extremism	-11.6676
▁tries	-11.6676
)]	-11.6678
▁pages	-11.6678
DEM	-11.668
▁counterparts	-11.668
▁weakening	-11.6686
▁antibiotics	-11.6691
▁grasp	-11.6692
▁bombs	-11.6695
▁Barrot	-11.6695
▁González	-11.6695
▁Kurds	-11.6695
▁Quartet	-11.6695
▁sceptical	-11.6695
▁unreasonable	-11.6695
▁eligibility	-11.6695
▁quarters	-11.6704
intensive	-11.6708
▁frameworks	-11.6709
▁pieces	-11.6712
▁U	-11.6715
▁peacekeeping	-11.6716
▁sick	-11.6717
▁panel	-11.6721
▁SME	-11.6721
▁opted	-11.6722
▁farmer	-11.6725
▁watching	-11.6725
▁persist	-11.673
▁patience	-11.6734
▁Children	-11.6734
▁methodology	-11.6734
▁distinguished	-11.6738
▁Up	-11.6739
ent	-11.6742
▁electrical	-11.6744
▁?	-11.6746
▁forming	-11.6749
▁overlook	-11.675
▁cruel	-11.6752
▁desperate	-11.6752
▁misuse	-11.6753
▁concentrating	-11.6753
▁revising	-11.6753
▁52	-11.6753
▁equity	-11.6754
▁factories	-11.6754
▁nowhere	-11.6756
▁Take	-11.6767
▁starts	-11.677
▁levy	-11.6773
▁engineering	-11.6774
terrorism	-11.6786
▁annually	-11.6789
▁unequal	-11.6791
▁dissemination	-11.6792
▁preferable	-11.6793
▁arena	-11.6795
▁coordinator	-11.6799
▁flooding	-11.6801
05	-11.6807
▁unequivocal	-11.681
▁delete	-11.6811
▁Competition	-11.6812
▁ceasefire	-11.6812
▁condolences	-11.6817
▁adds	-11.682
▁smart	-11.6831
▁Wogau	-11.6832
▁box	-11.6833
▁shocked	-11.6834
▁visiting	-11.6834
▁abused	-11.684
▁themes	-11.6842
▁denying	-11.6849
▁earliest	-11.6851
▁indicative	-11.6851
▁lagging	-11.6851
▁thematic	-11.6856
▁somehow	-11.6864
▁Technology	-11.6871
▁tragedies	-11.6871
▁realize	-11.6872
▁en	-11.6872
▁minimise	-11.6873
▁hospitals	-11.6876
▁meal	-11.6877
▁consist	-11.6888
▁bought	-11.6891
▁growers	-11.6893
▁1996.	-11.6896
▁lesser	-11.6897
▁crew	-11.6898
▁councils	-11.6906
▁excluding	-11.6911
▁harmony	-11.6911
▁worries	-11.6911
▁store	-11.6916
▁2015	-11.6923
proliferation	-11.6924
▁vigorous	-11.6929
▁contempt	-11.693
▁David	-11.693
▁Delegation	-11.693
▁regrettably	-11.693
▁responsibly	-11.693
▁duplication	-11.6931
▁Delors	-11.6931
▁designated	-11.6931
▁shipyards	-11.6932
aside	-11.6935
▁reacted	-11.6939
▁punish	-11.6939
ter	-11.6945
▁9,	-11.6949
▁Annan	-11.6951
▁List	-11.6954
▁extremists	-11.6955
▁donation	-11.6962
Community	-11.6964
▁honoured	-11.6964
▁Governments	-11.6964
▁approached	-11.6965
▁persistent	-11.6969
▁pain	-11.6971
▁supposedly	-11.6977
regional	-11.6979
mo	-11.6984
▁fly	-11.6986
▁favoured	-11.6987
▁explore	-11.6989
▁shaping	-11.699
▁specialised	-11.6994
▁dollars	-11.6996
▁Right	-11.6997
▁premium	-11.6998
▁labels	-11.7001
▁mortality	-11.701
▁onwards	-11.701
▁visitors	-11.7017
▁resident	-11.7019
▁symbols	-11.702
▁investigating	-11.703
▁José	-11.703
▁overseas	-11.703
▁Management	-11.703
▁tied	-11.7031
▁km	-11.7033
▁performed	-11.7035
▁collecting	-11.704
▁upper	-11.704
▁al	-11.7044
▁hamper	-11.7048
▁biomass	-11.705
▁capability	-11.705
▁migrant	-11.7059
▁lending	-11.7063
mouth	-11.7064
▁influenced	-11.7064
trade	-11.7066
▁reveal	-11.7069
▁sudden	-11.7069
▁miss	-11.707
▁catastrophic	-11.707
▁somebody	-11.7072
▁frustration	-11.7079
▁hostage	-11.7079
▁collectively	-11.708
▁sessions	-11.7081
1)	-11.7081
ver	-11.7089
▁congestion	-11.7091
▁equitable	-11.7091
▁struggling	-11.7091
▁facilitation	-11.7091
▁feet	-11.7091
▁refuses	-11.7092
▁2013.	-11.7095
▁Moroccan	-11.7099
▁coin	-11.7101
▁selective	-11.711
▁verification	-11.7111
ate	-11.7112
▁organisational	-11.7117
▁boosting	-11.7117
▁packages	-11.7124
▁shorter	-11.7128
▁Business	-11.7131
▁Category	-11.7131
▁charging	-11.7132
▁outlook	-11.7132
▁lobbying	-11.714
▁engines	-11.7141
▁McCreevy	-11.7151
▁inconsistent	-11.7151
▁updating	-11.7151
▁reciprocal	-11.7152
ke	-11.7152
▁attending	-11.7169
▁Robert	-11.7171
▁Nepal	-11.7172
▁Seville	-11.7172
▁mediation	-11.7172
▁weakest	-11.7173
▁breeding	-11.7173
▁defenders	-11.7178
5-01	-11.7178
▁IND	-11.7181
▁bomb	-11.7182
AIDS	-11.7186
▁devise	-11.7191
▁music	-11.7191
▁Malmström	-11.7192
▁breakthrough	-11.7201
▁submission	-11.7201
▁formulation	-11.7201
▁counts	-11.7202
▁warnings	-11.7205
]	-11.7205
▁LIFE	-11.7213
▁51	-11.7219
▁sacrifice	-11.722
▁suit	-11.7221
▁predecessor	-11.7222
▁doctor	-11.7223
▁limitation	-11.7224
▁checking	-11.7225
hand	-11.7231
▁assert	-11.7231
▁Azores	-11.7233
▁Fontaine	-11.7233
▁protective	-11.7238
▁cure	-11.7241
▁tighten	-11.7244
ill	-11.7245
▁nowadays	-11.7253
▁experiments	-11.7255
▁credits	-11.7258
▁None	-11.7259
▁religions	-11.7272
▁Bonino	-11.7274
▁classified	-11.7274
▁Rio	-11.7274
▁sharp	-11.7275
▁stepped	-11.7275
▁Sir	-11.7281
j	-11.7288
▁fabric	-11.7291
▁engaging	-11.7295
▁WHO	-11.7295
▁authoritarian	-11.7295
▁extends	-11.7303
▁assigned	-11.7306
▁verify	-11.7308
▁commission	-11.7313
▁Belgrade	-11.7315
▁Dimension	-11.7315
▁invasion	-11.7315
▁Cox	-11.7315
▁contaminated	-11.7316
ol	-11.7316
▁neglect	-11.7326
▁yield	-11.7336
▁feasibility	-11.7336
▁resolutely	-11.7337
▁regulators	-11.7338
▁displayed	-11.7339
▁institute	-11.7344
▁reads	-11.7354
▁Air	-11.7355
▁eleven	-11.7356
▁Oostlander	-11.7357
▁ozone	-11.7357
▁rarely	-11.736
board	-11.7364
▁endanger	-11.7367
▁traditionally	-11.7368
▁arrests	-11.7375
▁auspices	-11.7377
▁controversy	-11.7377
▁2011.	-11.7378
▁commendable	-11.7378
▁personality	-11.738
ian	-11.7387
▁factory	-11.7388
▁copy	-11.7391
▁GNP	-11.7398
▁childcare	-11.7398
▁Cypriots	-11.7401
▁privileges	-11.7406
▁engine	-11.7407
▁vaccines	-11.7409
▁heat	-11.7416
▁accede	-11.7417
▁Looking	-11.7423
▁improves	-11.7431
FI	-11.7432
▁preconditions	-11.7433
▁Arafat	-11.744
▁stimulus	-11.744
▁illnesses	-11.744
▁legislator	-11.7453
▁rebuild	-11.7453
East	-11.7454
INI	-11.7458
▁distinct	-11.7459
▁dark	-11.7459
▁ultra	-11.7461
▁Velzen	-11.7461
▁choosing	-11.7461
▁enemy	-11.7461
▁Medina	-11.7461
▁conceal	-11.7461
▁neutrality	-11.7461
▁interconnection	-11.7461
▁Red	-11.7462
▁overlooked	-11.7464
▁headings	-11.7475
▁allocating	-11.7482
▁misery	-11.7482
▁Kazakhstan	-11.7482
▁Bay	-11.7483
point	-11.7489
▁congratulated	-11.7491
▁Countries	-11.7503
▁birds	-11.7505
▁alia	-11.7506
▁clubs	-11.7507
▁reflecting	-11.751
▁adopts	-11.751
▁colonial	-11.752
▁villages	-11.752
▁refuge	-11.7522
law	-11.7523
▁Lulling	-11.7524
▁arguing	-11.7524
▁foreseen	-11.7524
▁distort	-11.7524
▁certificates	-11.7536
▁instructions	-11.754
▁protects	-11.7542
▁verdict	-11.7545
▁uncontrolled	-11.7545
▁varied	-11.7545
▁labelled	-11.7545
▁gathering	-11.7553
▁temptation	-11.7556
▁father	-11.7556
▁premiums	-11.7558
▁specifications	-11.756
▁Society	-11.7566
▁tuberculosis	-11.7566
▁nonsense	-11.7566
▁75%	-11.7566
▁suited	-11.7569
▁130	-11.7572
▁student	-11.7577
▁spot	-11.758
▁Trans	-11.7583
case	-11.7583
▁mouth	-11.7584
▁smoke	-11.7585
▁Cologne	-11.7587
▁Tribunal	-11.7587
▁contracting	-11.7591
▁calculation	-11.7599
▁aforementioned	-11.7608
▁measuring	-11.7608
▁Saudi	-11.7608
▁Poverty	-11.7608
▁breakdown	-11.7609
▁adhered	-11.761
▁pollutants	-11.7621
▁locally	-11.7625
▁di	-11.763
▁revenues	-11.7636
▁nets	-11.7638
▁cite	-11.764
▁Certain	-11.7649
▁Cardiff	-11.7651
▁arriving	-11.7651
▁fifty	-11.7651
▁licensing	-11.7651
▁fragmentation	-11.7651
▁Recently	-11.7652
▁landscape	-11.7663
▁Di	-11.7663
▁Galicia	-11.767
▁comparative	-11.7671
▁accommodate	-11.7671
▁shock	-11.7675
▁admittedly	-11.7675
▁realisation	-11.7682
▁stone	-11.7684
▁standpoint	-11.7685
▁fostering	-11.7688
▁Inquiry	-11.7694
▁smoothly	-11.7696
▁province	-11.7706
▁spheres	-11.7708
▁unconditional	-11.7714
▁generating	-11.7716
▁EGF	-11.7718
▁documentation	-11.7719
▁defines	-11.772
ities	-11.772
▁reminder	-11.7723
▁subscribe	-11.7725
▁interpreters	-11.7726
▁besides	-11.7728
▁negotiators	-11.7737
▁Rothley	-11.7737
▁conformity	-11.7737
▁Life	-11.7737
▁seed	-11.7738
▁Equally	-11.7739
ry	-11.7743
▁eating	-11.7748
con	-11.7756
▁Mandelson	-11.7758
▁headquarters	-11.7758
▁convenience	-11.7758
▁finalised	-11.7763
▁1.5	-11.7763
▁deeds	-11.7768
▁confrontation	-11.777
▁west	-11.7771
▁ballot	-11.7771
▁operator	-11.7771
▁exploiting	-11.7776
▁dynamism	-11.778
▁referenda	-11.778
▁resignation	-11.778
▁manufactured	-11.7782
east	-11.7783
▁regain	-11.7791
ous	-11.7794
▁traders	-11.7795
▁Evans	-11.7801
▁UCLAF	-11.7802
▁generic	-11.7802
liberal	-11.7816
▁passports	-11.7822
▁atrocities	-11.7823
▁statutory	-11.7823
▁Mulder	-11.7823
▁Prestige	-11.7824
▁tongue	-11.7824
▁winter	-11.7824
▁entrusted	-11.7825
▁elite	-11.7836
▁manufacturer	-11.7837
▁Algerian	-11.7837
▁employer	-11.7837
▁Merkel	-11.7845
▁Prosecutor	-11.7845
▁maize	-11.7845
▁readily	-11.7845
▁inhumane	-11.7846
▁Bangladesh	-11.7865
▁unequivocally	-11.7868
▁desperately	-11.7869
▁accorded	-11.787
▁games	-11.7875
▁deprive	-11.7876
▁renew	-11.7878
▁disappearance	-11.788
▁Belarusian	-11.788
▁explains	-11.7881
first	-11.7882
▁injuries	-11.7889
▁petrol	-11.7889
▁Canary	-11.789
▁amounting	-11.7894
W	-11.7899
five	-11.7905
▁inspiration	-11.7909
▁unchanged	-11.791
▁dropped	-11.791
▁broadband	-11.7911
over	-11.7924
▁boat	-11.7925
▁cell	-11.7926
market	-11.793
▁Measures	-11.7933
▁Currently	-11.7933
▁1991	-11.7937
▁warned	-11.7937
▁Mauritania	-11.7953
▁disgrace	-11.7954
▁evasion	-11.7954
▁functional	-11.7955
▁EPP	-11.7955
▁Overall	-11.7955
▁fragmented	-11.7955
▁younger	-11.7955
▁Langen	-11.7957
▁reaches	-11.7962
▁thresholds	-11.7971
▁loud	-11.7973
▁obsolete	-11.7976
▁temporarily	-11.7976
▁reinforcement	-11.7977
▁fulfilment	-11.7977
▁decisively	-11.7987
▁predict	-11.7988
▁leap	-11.799
compliance	-11.7992
▁expectation	-11.7994
▁54	-11.7995
▁balances	-11.7996
Behrendt	-11.7998
▁Uzbekistan	-11.7999
▁correction	-11.8004
▁modify	-11.8013
▁imply	-11.8014
▁versions	-11.8017
▁socialists	-11.8017
▁drain	-11.8018
▁combining	-11.8021
▁legacy	-11.8043
▁loopholes	-11.8044
▁Former	-11.8045
▁worsening	-11.8046
▁speeding	-11.8048
minded	-11.8056
L	-11.8058
▁regrets	-11.806
▁Fifth	-11.8063
▁Byrne	-11.8065
▁slightest	-11.8065
▁discriminated	-11.8066
▁hearts	-11.8066
▁emphasized	-11.8068
▁corresponds	-11.8069
ak	-11.807
▁finger	-11.8079
▁cleaner	-11.808
decision	-11.808
▁par	-11.8083
▁Bourlanges	-11.8087
▁García	-11.8087
▁speculative	-11.8087
▁Dell	-11.8089
▁53	-11.809
▁endorses	-11.8091
▁file	-11.8101
▁reservation	-11.8102
v	-11.8106
▁studying	-11.8108
▁Technological	-11.811
▁Nobel	-11.811
▁Lama	-11.8111
▁civilised	-11.8113
▁evidently	-11.8116
▁machine	-11.8125
▁Obama	-11.8132
Plath	-11.8132
▁neoliberal	-11.8133
▁reduces	-11.8149
▁Burundi	-11.8154
▁brave	-11.8154
▁Randzio	-11.8154
▁reimbursement	-11.8154
▁Too	-11.8155
▁window	-11.817
▁appearance	-11.817
▁wrongly	-11.8175
▁arm	-11.8176
▁Jordan	-11.8176
▁executed	-11.8177
▁41	-11.8179
▁shed	-11.8179
▁prerogatives	-11.818
▁chaired	-11.8182
▁respectively	-11.8182
▁possession	-11.8192
▁modifications	-11.8197
▁conflicting	-11.8197
▁urges	-11.8199
▁Kyi	-11.8199
▁beneficiary	-11.8199
▁diesel	-11.82
▁conferred	-11.82
▁principally	-11.8203
life	-11.8214
▁Aviation	-11.8222
▁Supervisor	-11.8222
▁backdrop	-11.8222
▁Something	-11.8222
▁synergies	-11.8222
▁literally	-11.8222
▁foreseeable	-11.8222
▁sulphur	-11.8222
▁advised	-11.8224
▁dealings	-11.823
▁construct	-11.8234
▁brain	-11.8239
▁images	-11.8239
▁keeps	-11.8243
▁superfluous	-11.8245
▁buses	-11.8245
▁blue	-11.8245
Parliament	-11.8261
▁bulk	-11.8267
▁juncture	-11.8267
▁1970	-11.8267
▁remuneration	-11.8267
po	-11.8271
▁immigrant	-11.8284
▁56	-11.8293
▁gathered	-11.8293
▁characteristic	-11.8306
▁Yemen	-11.8311
▁confuse	-11.8311
▁Fourth	-11.8312
▁Juncker	-11.8313
▁Tomorrow	-11.8313
▁Sudanese	-11.8313
▁insistence	-11.8313
▁continuously	-11.8316
▁dis	-11.8317
▁withdrawing	-11.8319
▁hot	-11.8321
▁dictatorships	-11.8325
▁undesirable	-11.8336
▁profitability	-11.8336
▁cited	-11.8338
▁beliefs	-11.8338
▁la	-11.8339
▁responds	-11.834
▁moments	-11.8342
▁condemns	-11.8347
▁constructively	-11.8352
▁wondering	-11.8358
▁exchanging	-11.8358
▁polluting	-11.8359
ca	-11.8369
▁ceilings	-11.8374
▁frame	-11.8374
▁renewables	-11.8377
▁disgraceful	-11.838
▁continents	-11.8393
▁ally	-11.8394
▁g	-11.8395
▁milestone	-11.8398
▁marriage	-11.8398
▁courses	-11.8402
▁chief	-11.8403
▁Athens	-11.8404
▁dilemma	-11.8404
▁troika	-11.8404
▁motivation	-11.8404
▁populated	-11.8406
et	-11.8408
▁safely	-11.8418
▁questioned	-11.8422
▁restraint	-11.8422
Ivoire	-11.8427
▁intimidation	-11.8427
▁modernising	-11.8429
▁tolerated	-11.843
men	-11.8441
li	-11.8442
▁pledge	-11.8443
▁conservative	-11.8445
▁ideals	-11.8446
▁impacts	-11.8446
▁unwilling	-11.845
▁ECOFIN	-11.845
▁Ultimately	-11.845
▁extraordinarily	-11.845
▁Suu	-11.8451
▁Bear	-11.8451
ra	-11.8451
▁afforded	-11.8461
▁blackmail	-11.8464
▁extremist	-11.8468
▁cohesive	-11.8474
▁vacuum	-11.8474
▁concur	-11.8474
4-00	-11.8486
▁heating	-11.8486
▁biometric	-11.8491
▁odd	-11.8492
▁toll	-11.8494
▁proportions	-11.8494
▁Rwanda	-11.8495
▁demonstrators	-11.8497
▁malaria	-11.8497
▁incineration	-11.8498
▁Combat	-11.8499
▁Post	-11.8499
▁circles	-11.8503
▁reasoning	-11.8507
▁department	-11.8507
▁specialists	-11.8508
▁habits	-11.8514
▁rulings	-11.8515
▁virtual	-11.8519
▁Secretariat	-11.852
▁modulation	-11.852
▁precious	-11.852
▁Dialogue	-11.852
▁gold	-11.8521
▁objectively	-11.8523
▁accurately	-11.8524
ci	-11.8529
▁11,	-11.853
ba	-11.8531
▁cigarettes	-11.8534
pe	-11.8539
▁Bösch	-11.8543
▁coincidence	-11.8543
▁friendship	-11.8544
▁penalised	-11.8545
▁grips	-11.8556
▁gear	-11.8557
▁reminding	-11.856
▁Catholic	-11.8561
▁horse	-11.8562
▁impartial	-11.8565
▁Recent	-11.8565
▁securities	-11.8567
▁Wall	-11.8569
LT	-11.8573
10	-11.8573
▁inventions	-11.8575
▁undergoing	-11.8578
▁enjoys	-11.858
▁noon	-11.8585
▁Men	-11.8589
▁yourselves	-11.859
▁CIA	-11.859
▁describes	-11.8594
▁accelerated	-11.8597
▁incomplete	-11.86
▁imposes	-11.8608
▁holdings	-11.8611
▁hesitation	-11.8614
▁Castro	-11.8614
▁outrageous	-11.8614
▁Wales	-11.8614
▁destructive	-11.8614
▁Indonesian	-11.8616
▁Albanians	-11.8619
▁murders	-11.862
▁calculations	-11.8624
▁named	-11.8631
▁addiction	-11.8637
▁cancelled	-11.8637
▁Data	-11.8637
▁traffickers	-11.8637
▁infected	-11.8638
▁drink	-11.8648
▁abandoning	-11.8656
▁command	-11.8657
▁Incidentally	-11.8661
▁Sierra	-11.8661
▁incumbent	-11.8661
▁arose	-11.8661
▁Aung	-11.8663
▁solar	-11.8665
▁parental	-11.8666
Herzegovina	-11.8678
▁club	-11.868
▁prudent	-11.8683
▁quest	-11.8684
▁escalation	-11.8685
▁beforehand	-11.869
á	-11.8694
▁transpose	-11.8707
▁equip	-11.8708
▁Ankara	-11.8708
▁Chapter	-11.8708
▁Coelho	-11.8708
▁automotive	-11.8708
ov	-11.8709
▁performing	-11.8725
commerce	-11.8725
▁CE	-11.8727
CS	-11.8727
thirds	-11.8731
▁Ortega	-11.8732
▁relocations	-11.8735
democratic	-11.8748
▁score	-11.875
▁shops	-11.8752
▁12,	-11.8752
▁ancient	-11.8756
▁tsunami	-11.8756
▁Wynn	-11.8756
▁skilled	-11.876
▁comprehensible	-11.8767
national	-11.8771
▁deepen	-11.8773
▁quiet	-11.8777
▁exacerbate	-11.8778
▁Florenz	-11.878
▁observing	-11.878
▁redistribution	-11.878
▁Côte	-11.878
▁churches	-11.878
▁frozen	-11.878
▁hedge	-11.8781
▁federalist	-11.8791
▁super	-11.8793
▁relaunch	-11.8794
▁85	-11.8794
▁assisted	-11.8794
▁storm	-11.8799
▁corporations	-11.8801
▁Chirac	-11.8803
▁Dalai	-11.8803
▁Sustainable	-11.8803
▁ambiguous	-11.8803
▁Nielson	-11.8803
▁liquidity	-11.8804
▁termed	-11.8815
▁varying	-11.8816
▁director	-11.882
financial	-11.8821
▁agri	-11.8823
balanced	-11.8824
▁connect	-11.8825
▁o	-11.8827
▁Temporary	-11.8827
▁dividing	-11.8827
▁satisfactorily	-11.8827
▁delegated	-11.8829
▁liberalised	-11.8829
▁corridors	-11.8831
▁sanction	-11.8837
▁Others	-11.8844
▁hesitate	-11.885
▁publicity	-11.8851
▁influx	-11.8851
▁commodities	-11.8851
▁synergy	-11.8851
▁famine	-11.8851
▁ECR	-11.8852
▁accomplished	-11.8853
ating	-11.8854
▁relatives	-11.8854
▁profoundly	-11.8855
▁Croatian	-11.886
▁peacefully	-11.8864
▁6.	-11.8865
▁lowering	-11.8865
(3)	-11.8865
▁GMO	-11.8873
▁Amnesty	-11.8876
▁Cashman	-11.8876
▁calendar	-11.8876
▁justifies	-11.8877
▁devised	-11.8877
▁curb	-11.889
if	-11.8891
▁premises	-11.8895
▁Basel	-11.89
▁unaware	-11.8904
▁hectares	-11.8906
▁odds	-11.8906
▁insists	-11.8913
▁ecosystem	-11.892
▁theoretical	-11.8922
▁Radical	-11.8924
▁observance	-11.8924
▁varies	-11.8924
▁fed	-11.8927
ni	-11.8929
▁encounter	-11.8934
▁plea	-11.8941
▁norms	-11.8942
▁manipulation	-11.8948
▁asbestos	-11.8948
▁Unlike	-11.8948
▁Daphne	-11.8948
▁reaffirmed	-11.8952
▁retaining	-11.8959
▁Ford	-11.8968
ll	-11.897
▁reluctant	-11.8971
▁memorandum	-11.8973
▁recipients	-11.8975
▁altered	-11.8977
▁recommending	-11.8978
per	-11.898
financing	-11.8989
▁Faced	-11.8997
▁Presidencies	-11.8997
▁anxiety	-11.8997
▁decoupling	-11.8997
▁Prevention	-11.8997
▁beg	-11.9004
▁foreigners	-11.9007
▁enforcing	-11.9021
▁liberalising	-11.9022
▁overdue	-11.9022
▁Herman	-11.9025
▁possess	-11.9035
▁metres	-11.9038
▁prioritise	-11.9041
▁derive	-11.9042
▁prosecutor	-11.9043
▁secular	-11.9045
▁Schreyer	-11.9046
▁Karas	-11.9046
EL	-11.9053
▁forecast	-11.906
▁upholding	-11.9064
▁stopping	-11.9071
▁13,	-11.9072
development	-11.9087
COS	-11.9089
▁exhaustive	-11.9094
▁glass	-11.9095
▁salmon	-11.9095
▁bombing	-11.9101
▁pupils	-11.9103
▁undertook	-11.912
▁racial	-11.912
▁persuaded	-11.9123
▁City	-11.9124
▁supplemented	-11.9125
▁concludes	-11.9128
▁honey	-11.9131
▁electric	-11.9132
▁questioning	-11.9132
▁exciting	-11.9145
▁Nabucco	-11.9145
▁offset	-11.9145
▁ECSC	-11.9145
▁Maybe	-11.9146
▁importing	-11.9153
risk	-11.9164
▁trap	-11.9167
▁illusion	-11.9167
▁recipient	-11.9167
▁broaden	-11.9172
ut	-11.9186
▁tends	-11.9188
▁practise	-11.919
▁authorise	-11.9191
▁films	-11.9192
▁confidential	-11.9194
▁rice	-11.9195
▁ball	-11.92
▁operated	-11.9205
▁experiment	-11.9207
".	-11.9208
▁directors	-11.9209
▁shortages	-11.9209
ier	-11.921
producing	-11.9212
▁Rübig	-11.9219
▁discrepancies	-11.9219
▁unnecessarily	-11.9219
▁frequency	-11.922
▁grand	-11.9221
back	-11.9229
keeping	-11.9235
▁recitals	-11.924
▁blatant	-11.9243
▁tendencies	-11.9244
▁Likewise	-11.9244
▁chairmen	-11.9245
▁practised	-11.9246
▁Con	-11.9248
▁Arabia	-11.9248
▁adjusted	-11.9249
01	-11.9257
▁favours	-11.9264
▁endeavouring	-11.9267
▁harmonious	-11.9268
▁fortunate	-11.9268
▁resolute	-11.9268
▁mutilation	-11.9269
▁Staff	-11.9269
ud	-11.927
ge	-11.9274
▁notified	-11.9278
▁feeding	-11.9285
▁relying	-11.9294
▁unstable	-11.9294
▁Singapore	-11.9294
▁Georgian	-11.9296
▁bonds	-11.9302
▁iron	-11.9308
K	-11.9311
parliamentary	-11.9313
growing	-11.9313
)].	-11.9313
▁flu	-11.9316
▁liberalise	-11.9319
▁Fifteen	-11.932
▁unavoidable	-11.932
ka	-11.9323
▁usefulness	-11.9324
▁acknowledging	-11.9325
▁drift	-11.9337
upreme	-11.9341
▁Bali	-11.9342
▁emerges	-11.9343
▁barbaric	-11.9345
▁illustrated	-11.9347
▁household	-11.9349
nd	-11.9353
▁Admittedly	-11.937
▁Seattle	-11.937
▁Universal	-11.937
▁seventh	-11.9374
efficient	-11.9395
▁University	-11.9395
▁Rocard	-11.9396
▁convicted	-11.9396
▁unreservedly	-11.9396
▁underestimated	-11.9397
▁distorted	-11.9399
ance	-11.9402
▁dozens	-11.9405
▁patterns	-11.9407
▁web	-11.9408
▁expressions	-11.9414
▁intensified	-11.9421
▁Her	-11.9423
▁useless	-11.9429
▁closest	-11.943
▁58	-11.9436
▁Egyptian	-11.9445
▁emotional	-11.9446
▁confusing	-11.9446
▁justifiable	-11.9446
▁illicit	-11.9446
▁exacerbated	-11.9448
▁prompted	-11.9452
▁separated	-11.9458
▁freeze	-11.9463
▁waterways	-11.9464
political	-11.9464
▁pregnant	-11.9472
▁signatories	-11.9472
▁phone	-11.9472
▁Greenland	-11.9473
new	-11.9474
ransatlantic	-11.9474
▁rests	-11.9482
▁rooted	-11.9482
);	-11.9488
▁enthusiastic	-11.9496
▁passage	-11.9497
▁celebrating	-11.9498
▁referral	-11.9498
▁SWIFT	-11.9498
▁denial	-11.9498
▁surpluses	-11.9499
▁households	-11.9499
▁turnover	-11.95
▁insult	-11.9512
▁publishing	-11.9513
▁targeting	-11.9515
▁qualify	-11.9516
ever	-11.9517
▁unlawful	-11.9522
▁Dimas	-11.9523
specific	-11.9523
▁Argentina	-11.9523
▁Leonardo	-11.9524
▁drastically	-11.9524
▁originating	-11.9524
▁Lithuanian	-11.9525
▁approximation	-11.9529
tabilisation	-11.9531
▁travellers	-11.9532
▁realism	-11.9536
▁exceeding	-11.9537
▁ascertain	-11.9542
▁Lebanese	-11.9549
▁tougher	-11.9552
▁10,	-11.9564
▁Cup	-11.9565
▁degrees	-11.9566
▁appealing	-11.9571
▁Child	-11.9575
▁ICT	-11.9576
▁touches	-11.9576
▁skill	-11.9577
going	-11.9578
▁2012.	-11.9584
▁2014	-11.9586
evident	-11.9593
▁pretend	-11.9594
▁supporter	-11.9594
vi	-11.9597
▁Church	-11.96
▁blockade	-11.96
▁advisable	-11.9601
▁imagination	-11.9601
▁winner	-11.9602
▁Tunisian	-11.9602
▁outdated	-11.9602
No	-11.9604
▁shipowners	-11.9605
▁feedingstuffs	-11.9605
▁detect	-11.9617
▁7.	-11.9623
▁oblige	-11.9625
▁unjust	-11.9625
▁portfolio	-11.9627
▁Recommendation	-11.9627
▁destiny	-11.9627
▁bankruptcy	-11.9627
▁expectancy	-11.9627
▁output	-11.963
▁orders	-11.9634
▁tightening	-11.9636
▁combated	-11.9647
▁discourage	-11.9651
▁penalise	-11.9651
▁Hautala	-11.9653
▁Sterckx	-11.9653
▁Thailand	-11.9653
ted	-11.9653
▁repatriation	-11.9653
▁adjourned	-11.9654
▁upset	-11.9658
▁endless	-11.966
▁protocols	-11.9661
established	-11.9667
▁IT	-11.9667
annual	-11.9668
red	-11.9671
▁teach	-11.9672
▁inefficient	-11.9672
▁municipal	-11.9679
▁hierarchy	-11.9679
▁native	-11.9679
▁transmitted	-11.968
▁bargaining	-11.9682
▁rush	-11.9695
fire	-11.9695
▁optional	-11.9698
▁colour	-11.9701
▁policing	-11.9705
▁designation	-11.9706
▁interpretations	-11.9709
▁recalled	-11.9709
▁widening	-11.9711
▁supplying	-11.9716
▁Kaliningrad	-11.9731
▁doctrine	-11.9731
▁resumption	-11.9731
▁Blokland	-11.9731
▁Vigo	-11.9731
▁hunting	-11.9735
▁63	-11.974
▁outcomes	-11.9743
▁holders	-11.9744
▁dossiers	-11.9747
▁dragg	-11.9754
▁optimum	-11.9758
▁stabilising	-11.9758
▁unsustainable	-11.9758
▁Transparency	-11.9758
▁depleted	-11.9758
▁Titley	-11.9759
▁sky	-11.976
▁mobilised	-11.9761
▁attendance	-11.9765
hour	-11.9766
▁suffers	-11.9768
track	-11.9773
▁rectify	-11.9777
Nordic	-11.9778
▁edge	-11.9782
▁Oslo	-11.9784
▁deplorable	-11.9784
▁bloc	-11.9784
▁winners	-11.9784
▁seized	-11.9786
▁novel	-11.9787
▁soya	-11.9791
▁consisting	-11.9794
▁absorb	-11.9795
existent	-11.9796
▁importers	-11.9811
▁Saturday	-11.9811
▁irreversible	-11.9811
▁zu	-11.9811
▁FYROM	-11.9811
▁cancellation	-11.9811
▁expulsion	-11.9811
▁marginal	-11.9816
ton	-11.9817
▁format	-11.9821
▁57	-11.9826
▁progressing	-11.983
▁Verhofstadt	-11.9837
▁complies	-11.9837
▁ratifying	-11.9838
▁differentiated	-11.9839
▁detainees	-11.9839
▁transformed	-11.9843
▁exerted	-11.9845
▁forwarded	-11.9858
▁similarly	-11.9861
▁voluntarily	-11.9864
▁criticising	-11.9864
▁plight	-11.9864
▁grey	-11.9864
▁corner	-11.9865
▁exporters	-11.9872
▁Germans	-11.9874
▁sounds	-11.9886
▁Broek	-11.989
▁Sky	-11.989
▁indicator	-11.9892
▁esteem	-11.9892
▁scientifically	-11.9893
▁journeys	-11.99
HU	-11.9901
▁Institutions	-11.9902
▁delaying	-11.9909
war	-11.9914
▁Baringdorf	-11.9917
▁Berès	-11.9917
▁Feira	-11.9917
▁Mitchell	-11.9917
▁Guarantee	-11.9918
▁season	-11.9918
▁Canadian	-11.9918
▁disruption	-11.9918
▁undergo	-11.9919
▁ambiguity	-11.992
▁filled	-11.9924
▁representations	-11.9928
▁rebuilding	-11.9928
▁nutrition	-11.9931
▁stamp	-11.9935
▁render	-11.9936
ot	-11.9937
▁tactics	-11.9939
▁Draft	-11.9943
▁suppose	-11.9943
▁Region	-11.9943
compensatory	-11.9944
▁Lamfalussy	-11.9944
▁uncertainties	-11.9944
▁Capital	-11.9944
▁steady	-11.9944
▁balancing	-11.9944
▁unfounded	-11.9944
▁lively	-11.9948
▁capture	-11.9969
▁sacrificed	-11.9973
▁wealthy	-11.9977
▁phased	-11.9981
▁differs	-11.9983
00	-11.9992
▁freezing	-11.9998
▁pertinent	-11.9998
▁endorsement	-11.9999
▁Chechen	-12
▁rose	-12.001
▁backs	-12.001
needed	-12.0018
sharing	-12.0018
▁forever	-12.0022
▁automobile	-12.0025
▁vigilance	-12.0025
▁multilingualism	-12.0025
▁preceded	-12.0025
▁vain	-12.0025
▁indifferent	-12.0035
▁headed	-12.0044
which	-12.0045
▁Aznar	-12.0052
▁catalogue	-12.0052
▁destined	-12.0052
▁equilibrium	-12.0052
▁reap	-12.0053
▁shot	-12.0054
▁Ossetia	-12.0075
▁pockets	-12.0075
▁divorce	-12.0078
▁Lannoye	-12.0079
▁likelihood	-12.0079
▁Things	-12.0079
▁Regrettably	-12.0079
▁ETA	-12.0079
▁Jewish	-12.0079
▁multilateralism	-12.0081
▁pledged	-12.0081
▁square	-12.0084
ging	-12.0091
▁distribute	-12.0105
▁Cairo	-12.0106
▁Graefe	-12.0106
▁accommodation	-12.0106
▁despair	-12.0106
▁vicious	-12.0106
▁massacre	-12.0107
▁overnight	-12.0108
▁slogan	-12.0109
▁constituent	-12.0109
▁educated	-12.0109
▁rivers	-12.011
▁embarked	-12.011
decentralisation	-12.0111
▁ranging	-12.0123
▁Almost	-12.0134
▁impressed	-12.0135
▁confirming	-12.0136
▁progressively	-12.0139
▁capitals	-12.0151
▁rethink	-12.0154
▁returns	-12.0157
▁deteriorating	-12.0161
ex	-12.0163
▁bathing	-12.0163
▁ticket	-12.0164
▁hopeful	-12.017
establish	-12.0171
▁sittings	-12.0175
increasing	-12.0182
▁scandals	-12.0183
io	-12.0188
▁Hopefully	-12.0189
▁illustration	-12.0189
▁stories	-12.0189
▁violating	-12.0189
▁Movement	-12.0189
▁f	-12.0189
▁seconds	-12.0192
▁bloody	-12.0193
▁historically	-12.0199
▁breaks	-12.02
▁unrest	-12.0202
benefit	-12.021
discriminatory	-12.021
▁Almunia	-12.0216
▁prescribed	-12.0217
▁associate	-12.0218
▁4%	-12.0218
▁incidence	-12.0219
▁contributors	-12.0222
▁aids	-12.0225
▁continental	-12.0228
▁facilitated	-12.0229
▁sacrifices	-12.0231
▁2011,	-12.0236
▁occupy	-12.0236
▁outlines	-12.0243
▁church	-12.0243
▁McKenna	-12.0244
▁impasse	-12.0244
▁subsidised	-12.0245
minute	-12.0265
mail	-12.0269
▁penal	-12.0271
▁GATT	-12.0271
▁inadmissible	-12.0271
▁qualities	-12.0271
▁Assistance	-12.0271
▁Elles	-12.0271
▁directions	-12.0275
▁attacking	-12.0279
▁Directives	-12.0287
fi	-12.029
tra	-12.029
▁heed	-12.0296
▁Prague	-12.0299
▁baby	-12.0299
▁merger	-12.0303
▁qualification	-12.0303
▁disregarded	-12.0305
▁tenth	-12.0308
▁66	-12.031
▁crucially	-12.0312
za	-12.0314
private	-12.0321
▁reluctance	-12.0327
▁Leinen	-12.0328
ts	-12.0329
▁provider	-12.0332
DA	-12.0339
▁desertification	-12.0355
▁resettlement	-12.0355
▁occasionally	-12.0357
▁changeover	-12.0362
▁landfill	-12.0364
▁makers	-12.0365
▁envisages	-12.0367
bo	-12.0372
▁cosmetics	-12.0373
▁Speaking	-12.0383
▁Senate	-12.0383
▁Daul	-12.0383
▁catalyst	-12.0383
▁2.5	-12.0398
food	-12.0404
▁Alexander	-12.0411
▁denominator	-12.0411
▁intervening	-12.0411
▁entrepreneurial	-12.0411
▁synthetic	-12.0411
▁Due	-12.0412
▁Bonn	-12.0412
▁busy	-12.0414
▁summarise	-12.0414
▁350	-12.0414
▁guideline	-12.0415
qui	-12.0421
▁broadcast	-12.0435
▁dwell	-12.0437
▁Kenya	-12.0438
▁Bowis	-12.0439
▁generosity	-12.0439
▁heartfelt	-12.0439
▁composed	-12.0439
▁intercultural	-12.0439
▁Based	-12.044
▁quicker	-12.0442
▁Official	-12.0442
▁pandemic	-12.0443
ize	-12.0447
▁evaluations	-12.0451
▁Leone	-12.0451
):	-12.0453
style	-12.0458
▁Violence	-12.0467
▁inviting	-12.0468
▁hostile	-12.0468
▁Wallis	-12.0468
▁master	-12.0471
▁allocations	-12.0471
▁village	-12.0472
▁universally	-12.0479
▁benchmarks	-12.0489
▁King	-12.0489
▁enlarge	-12.0494
▁comprising	-12.0496
▁influenza	-12.0496
▁mobilising	-12.0496
▁repetition	-12.0496
▁coach	-12.0498
▁standardised	-12.0498
▁forums	-12.0499
▁meaningless	-12.0507
▁awarding	-12.0508
▁coasts	-12.0514
favoured	-12.0518
social	-12.0518
designate	-12.052
▁curious	-12.0523
▁Doyle	-12.0524
▁GBP	-12.0524
▁Training	-12.0525
▁customer	-12.053
▁Abkhazia	-12.055
▁bitter	-12.0551
▁Asylum	-12.0553
▁injury	-12.0553
▁intermediate	-12.0553
▁dedication	-12.0553
▁climatic	-12.0553
▁percent	-12.0553
▁allegedly	-12.0556
▁trees	-12.0558
▁craft	-12.0558
▁fluctuations	-12.0561
▁Needles	-12.0565
▁outright	-12.057
▁spiral	-12.0571
▁origins	-12.0575
▁arrange	-12.058
▁Collins	-12.0581
▁killings	-12.0582
▁chiefly	-12.0583
▁seafarers	-12.0583
▁communicated	-12.0585
▁motives	-12.0585
▁Syrian	-12.0587
▁noble	-12.0589
▁derivatives	-12.0591
▁chronic	-12.0605
▁challenged	-12.0606
▁fraudulent	-12.0608
▁mitigate	-12.0609
▁mature	-12.0609
▁jeopardising	-12.061
▁Progressive	-12.061
▁coordinators	-12.0629
▁clash	-12.0638
▁Gebhardt	-12.0639
▁annum	-12.0639
▁interfering	-12.0639
▁reconciling	-12.0639
▁Police	-12.0639
▁oversight	-12.0639
▁shopping	-12.0639
▁chamber	-12.0644
▁acquisition	-12.0644
▁infection	-12.0644
▁watered	-12.0645
omic	-12.0654
▁donations	-12.0657
▁token	-12.0659
effective	-12.0665
▁Experience	-12.0667
▁Pirker	-12.0667
▁62	-12.0675
▁fulfils	-12.0678
▁ignores	-12.0688
▁violates	-12.069
personnel	-12.069
▁appearing	-12.0691
Applause	-12.0696
▁acceding	-12.0696
▁magnificent	-12.0696
▁Road	-12.0696
▁Specifically	-12.0696
▁inclined	-12.0696
▁intensity	-12.0697
▁taste	-12.0702
▁occurrence	-12.0702
▁Institutional	-12.0704
▁overly	-12.0718
▁distances	-12.072
▁computers	-12.0725
▁Fischer	-12.0725
▁Ludford	-12.0725
▁identities	-12.0725
▁notwithstanding	-12.0725
▁Racism	-12.0725
▁allotted	-12.0725
▁laudable	-12.0725
▁forwards	-12.0725
▁Warrant	-12.0725
▁cleansing	-12.0726
▁abandonment	-12.0726
▁authorising	-12.0726
▁panic	-12.0727
▁mini	-12.0727
▁plane	-12.0728
op	-12.0729
▁richer	-12.0731
▁8.	-12.0731
▁insight	-12.0732
▁accompany	-12.0747
general	-12.0748
pre	-12.0749
nationalisation	-12.0749
▁Lampedusa	-12.0754
▁erosion	-12.0754
▁ashamed	-12.0754
▁Theato	-12.0754
▁unused	-12.0755
▁tankers	-12.0757
▁forty	-12.0759
▁doubled	-12.0764
▁Poles	-12.0765
(2001)	-12.0767
▁seeds	-12.0768
South	-12.0777
▁nationalist	-12.0778
▁elect	-12.0782
▁identifies	-12.0784
▁steadily	-12.0784
▁tantamount	-12.0784
▁stupid	-12.0784
▁consumed	-12.0785
▁richest	-12.0785
▁doubtful	-12.0786
▁letting	-12.0787
▁midst	-12.0787
▁predicted	-12.0787
▁NGO	-12.079
▁accessing	-12.079
▁corrections	-12.0795
99	-12.0802
ish	-12.0811
▁Arrest	-12.0813
▁moderation	-12.0813
▁unhappy	-12.0813
▁volatility	-12.0813
▁Špidla	-12.0813
▁Jackson	-12.0813
▁Recital	-12.0813
▁marginalised	-12.0813
▁grassroots	-12.0815
▁burning	-12.0816
▁wisely	-12.0817
▁explosion	-12.0819
▁forgive	-12.0824
▁spouses	-12.0829
▁tickets	-12.0839
▁cancel	-12.0842
▁Between	-12.0842
▁indignation	-12.0842
▁misgivings	-12.0842
▁postponing	-12.0842
▁stuck	-12.0842
▁batteries	-12.0842
▁Fifthly	-12.0844
▁rigorously	-12.0848
▁cluster	-12.0849
our	-12.0856
▁boycott	-12.0861
▁presently	-12.0863
▁ordered	-12.0864
▁surrender	-12.0869
troductory	-12.0872
▁Duisenberg	-12.0872
▁dignified	-12.0872
▁obesity	-12.0872
▁inquiries	-12.0872
▁differentiation	-12.0872
▁Eurodac	-12.0872
▁hugely	-12.0872
▁conditionality	-12.0872
▁Throughout	-12.0873
▁exit	-12.0873
▁Cold	-12.0875
▁Patent	-12.0878
▁shelter	-12.0878
▁intensively	-12.0878
▁staying	-12.0879
▁ratings	-12.0887
▁Lange	-12.089
▁routine	-12.0899
▁Haug	-12.0901
▁detected	-12.0904
▁premise	-12.0908
▁supplier	-12.0908
▁homeland	-12.0909
Various	-12.0911
▁sheet	-12.0911
▁2015.	-12.0913
▁successor	-12.0918
▁aged	-12.092
▁se	-12.0923
▁reward	-12.0928
sa	-12.093
▁ignorance	-12.0931
▁tropical	-12.0931
▁undeniable	-12.0931
▁unlimited	-12.0931
▁2000-2006	-12.0931
▁therapeutic	-12.0931
▁scoreboard	-12.0931
round	-12.0954
7-0	-12.0958
▁pleasant	-12.0959
▁benchmark	-12.096
▁suffice	-12.096
▁militarisation	-12.0961
▁predictable	-12.0961
▁attributed	-12.0961
▁Particularly	-12.0961
▁Level	-12.0962
▁sexes	-12.0962
▁preventative	-12.0962
▁doubtless	-12.0962
▁timetables	-12.0965
▁envoy	-12.0967
▁trip	-12.0971
▁staffing	-12.0972
▁mode	-12.0973
2001)	-12.0974
▁rises	-12.0976
▁dictators	-12.0984
▁distress	-12.0987
▁massacres	-12.0988
▁lorry	-12.099
▁undeclared	-12.099
!'	-12.0991
▁forcefully	-12.0992
▁develops	-12.0994
▁scenarios	-12.0996
▁timeframe	-12.1
▁prevails	-12.1003
▁habit	-12.1007
der	-12.1009
▁fits	-12.1009
▁Inter	-12.101
▁overhaul	-12.1018
▁conduc	-12.1018
▁deforestation	-12.102
▁Parties	-12.102
▁cargo	-12.102
▁arranged	-12.1022
▁classic	-12.1023
▁110	-12.1026
▁horror	-12.1027
▁polluter	-12.1033
si	-12.1033
▁inhuman	-12.1033
▁fronts	-12.1034
▁Access	-12.1035
elected	-12.104
▁fat	-12.1043
▁Conduct	-12.105
▁emergencies	-12.105
▁Nassauer	-12.105
▁devastated	-12.105
▁scepticism	-12.1051
▁Ministerial	-12.1053
▁dictate	-12.1057
▁pertain	-12.1059
▁Young	-12.1071
lu	-12.1071
▁norm	-12.1071
▁holidays	-12.1075
▁objects	-12.1076
▁cynical	-12.1078
▁paradox	-12.1079
▁degradation	-12.108
▁irrelevant	-12.108
▁prevailed	-12.1087
▁wheel	-12.109
active	-12.1095
au	-12.1096
40	-12.1102
ac	-12.1103
▁Title	-12.1109
▁Haarder	-12.111
▁advancing	-12.111
▁contemporary	-12.111
▁tiny	-12.111
▁tempted	-12.111
▁deaf	-12.111
▁artistic	-12.1111
▁comprises	-12.1114
▁feared	-12.1117
▁59	-12.1121
▁Four	-12.114
▁aftermath	-12.114
▁declining	-12.114
▁channelled	-12.114
▁populist	-12.114
▁fitting	-12.1141
▁stored	-12.1142
▁volumes	-12.1145
▁logistics	-12.1147
▁1995.	-12.1149
▁lifestyle	-12.1151
▁doping	-12.1152
▁platforms	-12.1156
Saharan	-12.1164
▁Ten	-12.1168
izing	-12.1169
▁fantastic	-12.1171
▁grain	-12.1171
▁detection	-12.1171
▁tortured	-12.1177
▁embrace	-12.1178
▁college	-12.1179
▁explosive	-12.1179
istic	-12.1179
▁backward	-12.1181
▁avail	-12.1182
▁clearing	-12.1183
▁bar	-12.1185
▁convert	-12.1189
ang	-12.1193
▁enjoying	-12.1194
▁surveys	-12.1195
▁da	-12.1195
▁flagrant	-12.1199
▁hiding	-12.1201
▁upgrading	-12.1201
▁reintegration	-12.1201
▁categorically	-12.1201
▁globalization	-12.1205
ig	-12.1209
▁reinforces	-12.1214
▁61	-12.1219
▁don	-12.122
side	-12.1222
▁generates	-12.1223
▁Uganda	-12.123
▁Helms	-12.1231
▁Twenty	-12.1231
▁motto	-12.1231
▁ASEM	-12.1232
▁Competitiveness	-12.1232
▁triggered	-12.1234
▁upcoming	-12.1235
▁passes	-12.1235
▁consume	-12.1238
generation	-12.1252
▁pigs	-12.1252
▁Guatemala	-12.1261
▁horrific	-12.1262
▁describing	-12.1262
▁remedies	-12.1262
▁unsafe	-12.1262
▁headway	-12.1263
▁advantageous	-12.1263
▁acknowledgement	-12.1263
▁lawmaking	-12.1268
▁temperature	-12.1271
ab	-12.1274
▁butter	-12.1276
▁couples	-12.1278
▁Izquierdo	-12.1293
▁mismanagement	-12.1293
▁Méndez	-12.1293
▁branch	-12.1293
▁sand	-12.1295
▁favourably	-12.1296
▁awful	-12.1311
▁shores	-12.1312
▁style	-12.1314
▁transparently	-12.1315
▁Kashmir	-12.1316
speaking	-12.1319
com	-12.1323
▁Rompuy	-12.1323
▁applause	-12.1323
▁Reconstruction	-12.1323
▁polls	-12.1326
▁seminar	-12.1333
▁machines	-12.1334
▁Did	-12.1335
▁databases	-12.1336
▁walls	-12.1337
▁reopen	-12.1345
▁factual	-12.1353
▁champion	-12.1353
▁dismantle	-12.1353
▁Either	-12.1354
▁Salafranca	-12.1354
▁civic	-12.1354
ng	-12.1356
▁endangered	-12.1359
▁Lord	-12.1364
so	-12.1371
ors	-12.1375
▁deploy	-12.1375
▁fix	-12.1375
▁answering	-12.1382
▁Gibraltar	-12.1385
▁globe	-12.1385
▁Savary	-12.1385
▁Basically	-12.1385
▁suppression	-12.1385
▁Refugees	-12.1386
▁Better	-12.1387
handed	-12.1387
▁establishments	-12.1388
▁disciplinary	-12.1389
▁registers	-12.139
▁inspire	-12.1394
▁Berg	-12.1405
▁Li	-12.1405
mi	-12.1408
▁gulf	-12.1416
▁Ferber	-12.1416
▁twin	-12.1417
▁hydrogen	-12.1417
▁recording	-12.1417
▁starch	-12.1418
▁Philippines	-12.1421
▁landing	-12.1424
▁waterway	-12.1429
▁investor	-12.1429
▁pig	-12.1432
▁16,	-12.1433
ight	-12.1436
▁steer	-12.1437
▁Along	-12.1447
roots	-12.145
▁compensated	-12.1451
▁Hungarians	-12.1462
ty	-12.1462
▁supplements	-12.1466
▁bridges	-12.1477
▁deem	-12.1478
▁perceive	-12.1478
▁achievable	-12.1479
▁crude	-12.1479
▁indifference	-12.1479
▁proximity	-12.1479
▁Terrorism	-12.148
▁travelled	-12.148
▁Drugs	-12.1495
owned	-12.1497
▁trigger	-12.15
▁fundamentalist	-12.1501
▁suspects	-12.1503
▁unexpected	-12.1508
▁Ambassador	-12.151
▁Grossetête	-12.151
▁Howitt	-12.151
▁complementarity	-12.151
▁preferably	-12.151
▁Ε	-12.151
▁67	-12.1513
▁plainly	-12.1514
▁nomination	-12.1521
▁concession	-12.1521
▁anger	-12.1523
▁Hans	-12.1524
▁miles	-12.1527
ethnic	-12.1534
▁cows	-12.1535
▁locations	-12.1536
▁Paul	-12.1541
▁subsidiary	-12.1542
▁unduly	-12.1542
▁deterrent	-12.1542
▁situated	-12.1542
▁customary	-12.1542
▁Mission	-12.1542
▁extraction	-12.1542
sh	-12.1545
▁clinical	-12.1546
▁Experts	-12.1546
▁coupled	-12.1549
In	-12.1549
▁levelled	-12.1552
▁cosmetic	-12.1553
ru	-12.1556
▁cleared	-12.1559
▁bankrupt	-12.1573
▁believing	-12.1573
▁adherence	-12.1573
▁absorption	-12.1573
▁Jews	-12.1578
▁coincide	-12.1583
▁joy	-12.1589
▁wellbeing	-12.1591
▁Pakistani	-12.1592
dumping	-12.1597
▁ring	-12.1598
▁Ra	-12.1601
▁evolve	-12.1603
▁SOLVIT	-12.1605
▁enemies	-12.1605
▁pregnancy	-12.1605
▁consultative	-12.1605
▁64	-12.1608
▁earned	-12.1612
▁homosexuals	-12.1615
▁gladly	-12.1621
ions	-12.1622
▁Kof	-12.1627
▁clients	-12.1627
4-03	-12.1631
▁mistrust	-12.1636
▁affirm	-12.1637
▁Dayton	-12.1637
▁backbone	-12.1637
▁purchases	-12.1644
ending	-12.1651
▁Bar	-12.1656
ph	-12.1656
▁authorisations	-12.1657
▁shifting	-12.1664
▁strain	-12.1665
▁Tajani	-12.1668
▁1988	-12.1668
▁Hughes	-12.1669
▁abundantly	-12.1669
▁breathe	-12.1669
▁whoever	-12.1687
▁Force	-12.1698
▁Buitenweg	-12.17
▁Crowley	-12.17
Burton	-12.1701
▁incorporates	-12.1702
▁administered	-12.1703
▁concentrations	-12.1705
▁Armenian	-12.1713
election	-12.1722
▁defects	-12.1724
raising	-12.1725
▁revive	-12.1731
▁Morillon	-12.1732
▁gravity	-12.1732
▁clashes	-12.1733
▁deposit	-12.1734
▁6%	-12.1735
▁commissioned	-12.1737
▁risky	-12.1745
▁select	-12.1755
4-04	-12.1761
▁junta	-12.1764
▁Martens	-12.1764
▁Country	-12.1765
van	-12.1767
▁fee	-12.177
▁files	-12.1775
▁extensively	-12.1776
▁fingerprints	-12.1776
▁dioxin	-12.1777
▁maximise	-12.1779
▁institutes	-12.1781
▁auditing	-12.1787
▁forge	-12.1789
▁ranks	-12.179
▁dry	-12.179
▁bordering	-12.1793
97	-12.1793
▁Kallas	-12.1797
▁scrapping	-12.1797
▁Review	-12.1797
▁constructed	-12.1801
▁benchmarking	-12.1805
▁fur	-12.1807
▁soul	-12.181
▁17,	-12.1811
▁broke	-12.1828
▁Malaysia	-12.1828
▁Functioning	-12.1829
▁Revolution	-12.1829
▁carcinogenic	-12.1829
▁Gradin	-12.1829
▁Farmers	-12.1829
▁branches	-12.183
▁flawed	-12.183
▁fusion	-12.183
▁eminent	-12.183
▁seasonal	-12.1831
▁traps	-12.1832
▁ice	-12.1834
▁waves	-12.1837
í	-12.1838
▁aspire	-12.184
▁basin	-12.1845
▁livelihoods	-12.1848
▁scrap	-12.1861
▁Monnet	-12.1862
▁Whitehead	-12.1862
▁contentious	-12.1862
▁valued	-12.1868
cut	-12.1869
▁critics	-12.1869
▁constitutions	-12.187
▁pledges	-12.187
air	-12.1872
▁Out	-12.1873
▁certificate	-12.1875
▁employing	-12.1876
▁Being	-12.1877
▁video	-12.1881
▁mail	-12.1881
▁resign	-12.1884
▁knock	-12.1887
▁eventual	-12.1892
▁elaborate	-12.1893
▁Andersson	-12.1894
▁Clinton	-12.1894
▁exhausted	-12.1897
▁Adam	-12.1897
▁hardest	-12.1899
▁row	-12.1901
ner	-12.1903
let	-12.1906
▁140	-12.1907
▁cigarette	-12.1907
▁cereal	-12.1907
▁websites	-12.1913
▁catching	-12.1924
▁Frassoni	-12.1927
▁cocoa	-12.1927
▁luxury	-12.1927
▁vulnerability	-12.1927
▁unregulated	-12.1927
▁spell	-12.193
▁adversely	-12.1933
▁attracted	-12.1933
ure	-12.1934
▁rationale	-12.1936
▁generalised	-12.1937
da	-12.1938
▁habitats	-12.1948
▁dialogues	-12.1955
(4)	-12.1957
▁subordinate	-12.1958
?'	-12.1959
▁overriding	-12.196
▁Sánchez	-12.196
▁Dührkop	-12.196
▁EPAs	-12.196
▁compelled	-12.196
ator	-12.196
▁ages	-12.196
▁exaggerated	-12.196
▁Ben	-12.196
▁leverage	-12.1961
▁tightened	-12.1964
▁Franco	-12.1965
▁motorways	-12.1966
run	-12.1973
China	-12.1986
▁VI	-12.199
▁Turkmenistan	-12.1992
▁distributing	-12.1992
▁negligence	-12.1992
▁Communism	-12.1993
▁Strip	-12.1993
▁ESDP	-12.1993
▁winning	-12.1993
▁denounced	-12.1995
like	-12.1996
itarian	-12.1997
▁insignificant	-12.1997
▁realising	-12.2002
▁discriminate	-12.2005
▁livelihood	-12.2006
▁exerting	-12.2016
▁expiry	-12.2025
▁genital	-12.2025
▁unpleasant	-12.2025
▁stems	-12.2028
ative	-12.2029
▁heated	-12.2039
▁legitimately	-12.2042
▁proportional	-12.2047
ence	-12.2052
▁homework	-12.2058
▁Trichet	-12.2059
▁magnitude	-12.2059
▁tripartite	-12.2059
▁cinema	-12.2059
▁mentality	-12.2059
▁witnesses	-12.206
▁decreased	-12.2062
▁appointments	-12.2063
ap	-12.2064
▁sun	-12.2067
▁trace	-12.2071
▁foresee	-12.2072
▁stipulate	-12.2072
▁worded	-12.2072
▁installation	-12.2073
▁reactor	-12.2075
▁proceeds	-12.2077
carbon	-12.2085
em	-12.2086
▁exceeds	-12.2086
▁disrupt	-12.2089
▁PVC	-12.2092
▁defensive	-12.2092
▁libraries	-12.2092
▁veal	-12.2092
▁vested	-12.2092
▁Alpine	-12.2092
▁formulating	-12.2093
▁Five	-12.2093
▁roughly	-12.2093
▁tighter	-12.2093
▁drinks	-12.2099
ide	-12.2102
onourable	-12.2105
▁Colleagues	-12.2125
▁deletion	-12.2125
▁Contrary	-12.2125
▁embryonic	-12.2125
▁speedily	-12.2126
▁grip	-12.2126
▁celebrated	-12.2128
▁listing	-12.2129
▁fixing	-12.2134
▁exercises	-12.2139
▁Pen	-12.214
▁angle	-12.214
▁rolling	-12.2149
▁precautions	-12.2151
founded	-12.2153
tor	-12.2158
▁intrinsic	-12.2159
▁Klaus	-12.2159
▁Schroedter	-12.2159
▁calculating	-12.2159
▁sentiments	-12.2169
▁provocation	-12.2173
▁sticking	-12.2185
▁prolong	-12.219
▁Veterinar	-12.2192
▁cumbersome	-12.2192
▁disclosure	-12.2192
▁tribunal	-12.2207
▁tables	-12.2208
▁instrumental	-12.2215
interest	-12.2217
▁auditors	-12.2224
win	-12.2226
▁Department	-12.2226
▁Position	-12.2226
▁preamble	-12.2226
▁standstill	-12.2226
▁Cultural	-12.2226
▁decreasing	-12.2226
▁utilisation	-12.2227
▁8%	-12.2228
▁Colombian	-12.2229
▁supreme	-12.2231
▁fleeing	-12.2233
▁diplomats	-12.2237
▁Ma	-12.2238
2)	-12.2238
▁smallest	-12.224
▁450	-12.2241
▁volunteers	-12.2247
▁systemic	-12.2255
que	-12.2256
▁paradoxical	-12.2258
▁Technical	-12.2258
▁characterise	-12.2259
▁History	-12.226
▁Minsk	-12.226
▁Napolitano	-12.226
▁initiating	-12.226
▁wife	-12.226
▁dissatisfaction	-12.226
▁undergone	-12.226
▁indefinitely	-12.226
▁Libyan	-12.2266
9/	-12.2273
▁lasted	-12.228
Africa	-12.2286
▁commence	-12.2292
▁gratifying	-12.2294
▁Company	-12.2294
▁mess	-12.23
▁bi	-12.2303
▁assassination	-12.2309
▁vaccine	-12.2309
▁rough	-12.2327
▁Implementation	-12.2328
▁maturity	-12.2328
▁sophisticated	-12.2328
▁Future	-12.2328
▁reproduction	-12.2328
▁George	-12.2329
▁favouring	-12.2331
▁pictures	-12.2333
▁Latvian	-12.2334
dis	-12.2336
▁patenting	-12.2338
▁interview	-12.2341
▁accusation	-12.2344
▁assertion	-12.2344
dvisory	-12.235
▁contend	-12.2354
▁diversify	-12.2354
5-04	-12.2357
▁finishing	-12.2359
(2000)	-12.236
▁Gil	-12.236
ably	-12.236
”	-12.2362
▁abilities	-12.2362
▁ESF	-12.2364
▁omission	-12.2378
▁interpreting	-12.2378
▁officer	-12.2393
vo	-12.2394
▁isolate	-12.2395
▁arrogance	-12.2396
▁monies	-12.2396
▁expelled	-12.2396
▁alcoholic	-12.2398
▁nominal	-12.2398
▁dreams	-12.2399
▁68	-12.2406
▁hormones	-12.2408
taking	-12.2417
▁powerless	-12.2421
▁Eritrea	-12.2428
▁Tax	-12.243
▁Flynn	-12.243
▁Sjöstedt	-12.243
▁1986	-12.243
▁FAO	-12.2431
ho	-12.2435
▁failings	-12.2436
▁sorted	-12.2442
▁prohibiting	-12.2443
▁dissidents	-12.2445
▁critically	-12.2455
▁Sa	-12.2462
▁Edinburgh	-12.2465
▁Recovery	-12.2465
▁Situation	-12.2465
▁scarce	-12.2467
▁reversed	-12.2469
▁walk	-12.2472
▁recovered	-12.2472
products	-12.2482
▁TEN	-12.2483
va	-12.2484
▁indiscriminate	-12.2487
▁crews	-12.2487
▁confess	-12.2487
▁obscure	-12.2498
▁Lamassoure	-12.2499
▁admiration	-12.2499
▁declaring	-12.2499
▁liaison	-12.2499
▁Eurogroup	-12.25
▁IMO	-12.25
2/	-12.2501
▁careers	-12.2513
▁seal	-12.2517
▁sat	-12.2517
▁Drug	-12.2517
▁Mo	-12.2527
sufficiency	-12.2528
▁stretch	-12.2531
▁Ocean	-12.2532
▁Six	-12.2534
▁Zaire	-12.2534
▁Mozambique	-12.2534
▁specifies	-12.2534
▁unthinkable	-12.2534
▁Stream	-12.2534
▁Maghreb	-12.2534
▁obliges	-12.2534
▁CITES	-12.2535
▁prerequisites	-12.2539
▁mountains	-12.2541
q	-12.2543
▁offenders	-12.2545
▁flat	-12.255
▁comprehensively	-12.2562
end	-12.2565
▁Airbus	-12.2569
▁Baghdad	-12.2569
▁Breyer	-12.2569
▁Deputy	-12.2569
▁coffee	-12.2569
▁domination	-12.2569
▁leisure	-12.2569
▁Liese	-12.2569
▁UNHCR	-12.2569
▁prosecuted	-12.257
▁incoming	-12.2571
▁disposed	-12.2571
▁converted	-12.2572
▁Arms	-12.2577
▁commented	-12.2584
▁nutritional	-12.2586
▁giant	-12.2587
▁Leon	-12.2597
▁audits	-12.2601
▁meanwhile	-12.2604
▁landmines	-12.261
▁humans	-12.2615
▁losers	-12.262
▁astonishing	-12.262
▁78	-12.2622
cost	-12.2625
▁Ta	-12.2629
▁reside	-12.2639
▁Front	-12.2639
▁happily	-12.2639
▁Habsburg	-12.2639
▁dictated	-12.2641
▁tonne	-12.2643
▁gene	-12.2657
▁harbour	-12.2657
30	-12.2661
▁budgeting	-12.2663
saving	-12.2666
▁conception	-12.2667
▁geographic	-12.2673
▁discrepancy	-12.2674
▁rapprochement	-12.2674
▁Cunha	-12.2674
▁Hatzidakis	-12.2674
▁irregular	-12.2674
▁Tony	-12.2676
▁tailored	-12.2676
▁annexed	-12.268
▁cap	-12.2685
▁owner	-12.2688
▁miracle	-12.2692
▁skin	-12.2693
▁bills	-12.2695
▁82	-12.2705
▁continual	-12.2708
▁Dupuis	-12.271
▁Trakatellis	-12.271
▁presumably	-12.271
▁unfavourable	-12.271
▁spiritual	-12.271
▁civilisations	-12.2713
▁Nigerian	-12.2715
▁96	-12.2729
▁compromised	-12.273
ow	-12.273
▁hostages	-12.273
▁notable	-12.2731
▁minimis	-12.2736
6-00	-12.2737
▁Schröder	-12.2745
▁permissible	-12.2745
▁slip	-12.2745
▁communism	-12.2745
▁Card	-12.2746
▁misused	-12.2747
▁strategically	-12.2748
▁drama	-12.2751
▁cleaning	-12.2754
▁constructing	-12.2756
▁Journal	-12.278
▁roaming	-12.2781
▁pronounced	-12.2781
tech	-12.2782
▁proclaimed	-12.2783
▁corrective	-12.2785
▁counteract	-12.2806
▁fats	-12.2807
▁anticipation	-12.2816
▁invaluable	-12.2816
▁predominantly	-12.2817
▁forceful	-12.282
▁waged	-12.2824
ga	-12.283
▁assumes	-12.2832
▁throwing	-12.2835
▁pattern	-12.2836
▁approves	-12.2839
▁mainstream	-12.2843
▁flourish	-12.2844
▁Alps	-12.2852
▁ceremony	-12.2852
▁prestige	-12.2852
▁unwanted	-12.2852
▁lying	-12.2852
▁Fatuzzo	-12.2852
▁totalitarianism	-12.2853
▁transporting	-12.2871
▁monthly	-12.2873
▁consequent	-12.2875
military	-12.2882
▁supervise	-12.2887
▁Tomlinson	-12.2888
▁correlation	-12.2888
▁influential	-12.2888
▁stagnation	-12.2888
▁evolving	-12.2888
▁Kyrgyzstan	-12.2888
▁formalities	-12.2889
▁conceived	-12.289
▁ruin	-12.2899
▁tanks	-12.2899
isunderstandings	-12.2901
▁appointing	-12.2904
▁Weber	-12.291
▁fruits	-12.2912
▁flee	-12.2914
▁remembering	-12.2914
▁v	-12.2917
ward	-12.2918
▁groupings	-12.292
▁Works	-12.2922
▁restructure	-12.2923
▁abstract	-12.2923
▁Thyssen	-12.2924
▁custody	-12.2924
▁mercy	-12.2924
▁appraisal	-12.2924
▁censorship	-12.2925
▁revolutionary	-12.2925
▁commissioners	-12.2926
▁inflicted	-12.2926
▁dismissed	-12.2927
▁artificially	-12.2928
▁thereof	-12.2929
▁Animal	-12.2944
▁appropriation	-12.2945
used	-12.2952
▁laboratories	-12.296
▁settling	-12.296
▁substitution	-12.296
▁wasting	-12.2961
▁hate	-12.2978
▁turnout	-12.2979
▁repeal	-12.2987
om	-12.2987
min	-12.2993
▁collaborate	-12.2995
▁xenophobic	-12.2997
(1999)	-12.2998
▁collapsed	-12.3003
▁19,	-12.3017
▁Nazi	-12.3018
▁paths	-12.3021
▁77	-12.3022
▁dismiss	-12.3026
▁crystal	-12.3033
▁Mechanism	-12.3033
▁Platform	-12.3033
▁cabotage	-12.3033
▁infectious	-12.3033
▁sharply	-12.3036
fledged	-12.3036
▁ears	-12.3037
▁illusions	-12.3037
▁Lucas	-12.3041
▁wipe	-12.3047
▁shocks	-12.3049
▁counted	-12.305
▁exhaust	-12.3051
▁treatments	-12.3051
▁carrier	-12.3054
stop	-12.3055
▁teacher	-12.3056
▁waited	-12.3059
▁86	-12.3061
▁thirds	-12.3065
▁Govern	-12.3069
▁Transnistria	-12.307
▁Lancker	-12.307
▁divergent	-12.307
▁hake	-12.307
▁1985	-12.307
▁municipalities	-12.307
▁codification	-12.307
▁downturn	-12.3072
▁definitively	-12.3075
▁pool	-12.3081
▁rebate	-12.3091
▁phases	-12.3099
▁administer	-12.31
green	-12.3102
▁apologies	-12.3107
▁bluefin	-12.3107
▁index	-12.3107
▁129	-12.3107
▁flagship	-12.3108
▁matches	-12.3108
▁reactionary	-12.3108
▁logistical	-12.3112
▁Turks	-12.3117
▁presupposes	-12.3121
sector	-12.3129
▁circumvent	-12.3139
▁relies	-12.3144
Weggen	-12.3144
▁transcend	-12.3144
▁69	-12.3144
▁provoked	-12.3145
▁unify	-12.3145
▁Africans	-12.3145
▁freed	-12.3148
▁Guidelines	-12.3148
▁Laos	-12.3149
sessions	-12.315
▁slaughtered	-12.3151
▁Ba	-12.3157
water	-12.3164
▁gangs	-12.3165
ie	-12.3165
▁attentive	-12.3179
▁mood	-12.3181
▁transposing	-12.3181
▁Unemployment	-12.3181
▁WEU	-12.3181
▁golden	-12.3182
▁takeover	-12.3182
gi	-12.3183
tan	-12.3188
▁eggs	-12.319
▁rumours	-12.3194
▁emotion	-12.3201
▁Look	-12.3211
terrorist	-12.3212
ah	-12.3217
▁Fraga	-12.3218
▁Holland	-12.3218
▁residing	-12.3218
6-02	-12.3219
▁deteriorated	-12.3219
▁cornerstones	-12.3219
▁progressed	-12.322
▁exempted	-12.3226
▁broadcasters	-12.3227
ning	-12.323
type	-12.3235
▁parent	-12.3236
▁abstaining	-12.3241
▁passion	-12.3242
▁posted	-12.3249
▁dealers	-12.3252
▁Goebbels	-12.3255
▁Maij	-12.3255
▁Visa	-12.3255
▁Negotiations	-12.326
▁extract	-12.3261
▁criminality	-12.3261
▁ecologically	-12.3265
▁specifying	-12.3272
▁discards	-12.3274
▁facilitates	-12.3276
▁mafia	-12.3278
▁mortgage	-12.3278
▁governmental	-12.3283
5-05	-12.3289
avier	-12.3291
▁McCarthy	-12.3293
▁Piebalgs	-12.3293
▁horrendous	-12.3293
▁reassuring	-12.3293
▁forbidden	-12.3293
▁liberation	-12.3293
▁surrounded	-12.3294
▁reacting	-12.3297
▁constituted	-12.3305
3(	-12.3307
▁tie	-12.3311
4-02	-12.3312
▁suspending	-12.3313
▁aspiration	-12.3316
▁prohibits	-12.332
▁comfort	-12.3322
▁relieve	-12.3324
▁stops	-12.3327
▁shield	-12.3327
▁improper	-12.3329
▁marketed	-12.3329
▁Earth	-12.333
▁Eurobarometer	-12.333
▁Maltese	-12.333
▁Observatory	-12.333
▁revival	-12.333
▁interdependence	-12.333
▁umbrella	-12.333
▁permitting	-12.3331
▁signatory	-12.3331
▁ENP	-12.3331
▁Rapporteur	-12.3336
▁clearance	-12.334
▁intervened	-12.334
▁closures	-12.3344
▁Jan	-12.3346
fold	-12.335
▁handing	-12.3352
▁campaigning	-12.3353
▁Bo	-12.3354
▁rebel	-12.3355
▁commonly	-12.3356
▁residues	-12.3362
▁Statement	-12.3366
▁spectacular	-12.3366
▁Genoa	-12.3368
▁Lambert	-12.3368
▁Mexican	-12.3368
▁Sellafield	-12.3368
▁inalienable	-12.3368
▁lobbies	-12.3368
▁underground	-12.337
▁nationally	-12.337
▁clock	-12.3371
▁widen	-12.3376
▁earthquakes	-12.3377
▁owned	-12.3388
▁9.	-12.3388
polluter	-12.3399
▁Alavanos	-12.3406
▁Kauppi	-12.3406
▁Munich	-12.3406
▁broadest	-12.3411
▁accounted	-12.3412
ster	-12.3416
▁outbreaks	-12.3418
longside	-12.3419
▁99	-12.3424
▁dominate	-12.3428
di	-12.3432
▁71	-12.3432
Alba	-12.3437
▁layer	-12.3439
▁bread	-12.3443
▁corps	-12.3443
16	-12.3443
▁Especially	-12.3444
▁eradicating	-12.3444
▁unrestricted	-12.3444
▁Making	-12.3444
▁invoked	-12.3445
▁Na	-12.3446
▁Whereas	-12.3446
▁infringed	-12.3447
▁opting	-12.3447
▁reassured	-12.3448
tu	-12.345
hi	-12.3451
▁portion	-12.3452
▁accuse	-12.3456
▁rebels	-12.3458
2000)	-12.3462
▁argues	-12.3463
ag	-12.3464
▁chains	-12.3464
▁gift	-12.3465
nterim	-12.3468
▁disagreements	-12.3468
J	-12.347
▁bone	-12.347
▁dozen	-12.3473
▁ample	-12.3473
▁Had	-12.3477
▁Valencia	-12.348
bi	-12.3482
▁Sacconi	-12.3482
▁Tannock	-12.3482
▁Uruguay	-12.3482
▁Warsaw	-12.3482
▁acquiring	-12.3482
▁apparatus	-12.3482
▁MEDIA	-12.3483
▁offshore	-12.3483
▁embarrassing	-12.3483
▁annexes	-12.3483
▁Peter	-12.3486
▁Quaestors	-12.3488
▁excludes	-12.3494
▁strengths	-12.3505
▁rain	-12.3506
seekers	-12.3518
aladministration	-12.352
▁Cappato	-12.352
▁announcing	-12.352
▁inconceivable	-12.352
▁documented	-12.3521
▁commissioner	-12.3521
▁72	-12.3523
▁wear	-12.3524
▁physically	-12.3531
▁decree	-12.3544
mer	-12.3545
▁hormone	-12.3545
▁Lo	-12.3545
art	-12.3545
sufficient	-12.3549
▁formerly	-12.3552
▁brilliant	-12.3557
▁tired	-12.3559
▁Giscard	-12.3559
▁Katiforis	-12.3559
▁teeth	-12.3559
▁undue	-12.3559
▁Eurocontrol	-12.3559
▁transplantation	-12.3559
▁Point	-12.3565
▁900	-12.3571
not	-12.3582
ns	-12.3582
▁mis	-12.3594
▁Wurtz	-12.3597
▁disparity	-12.3597
▁flesh	-12.3597
▁reorganisation	-12.3597
▁Interior	-12.3603
/01	-12.3605
ens	-12.3605
▁Burg	-12.3607
▁Lakes	-12.361
▁complaining	-12.3613
▁evade	-12.3621
▁Go	-12.3625
ations	-12.3625
▁salute	-12.3631
▁semi	-12.3632
▁bail	-12.3633
▁misguided	-12.3636
▁sterling	-12.3636
▁Jensen	-12.3636
▁Fava	-12.3636
▁Duff	-12.3636
▁Strategic	-12.3636
▁expired	-12.3637
▁excesses	-12.3637
▁ERDF	-12.3638
▁Heading	-12.3639
iv	-12.3642
▁Representatives	-12.3643
0)	-12.3655
▁Pope	-12.3663
▁encompass	-12.3664
▁diminish	-12.3664
▁cry	-12.3665
defined	-12.3667
▁18,	-12.3667
▁recast	-12.3672
▁solemn	-12.3673
▁invoke	-12.3674
▁lax	-12.3675
▁endorsing	-12.3675
▁Belder	-12.3675
▁employability	-12.3675
▁95%	-12.3676
▁nominated	-12.3676
▁Scandinavian	-12.3676
▁rock	-12.3676
▁experimental	-12.3678
▁rendered	-12.3679
▁biogas	-12.368
▁matched	-12.3684
▁conveyed	-12.3685
▁mandates	-12.3688
▁Marco	-12.3688
▁manifest	-12.3692
▁abstention	-12.3701
▁variable	-12.3701
▁exchanged	-12.3706
▁presidents	-12.3707
▁economics	-12.3709
▁beer	-12.371
▁Stalin	-12.3713
▁Brittan	-12.3713
▁compel	-12.3714
Proliferation	-12.3714
▁Seppänen	-12.3714
▁accuracy	-12.3714
▁observatory	-12.3714
▁perverse	-12.3714
▁vigour	-12.3714
▁Staes	-12.3714
▁dirty	-12.3714
▁amazed	-12.3714
▁childhood	-12.3714
▁flexicurity	-12.3715
▁polluted	-12.3716
▁cutbacks	-12.372
▁joke	-12.372
▁beet	-12.3727
▁actor	-12.3727
▁bees	-12.3732
▁variations	-12.3736
ped	-12.3739
▁invention	-12.374
-06	-12.3741
▁infringe	-12.3743
▁harmonize	-12.3752
▁agendas	-12.3753
▁Buzek	-12.3753
▁Istanbul	-12.3753
▁UNESCO	-12.3753
▁henceforth	-12.3753
▁sensibly	-12.3753
▁Marín	-12.3753
▁0.7%	-12.3753
▁verified	-12.3753
▁Pa	-12.3754
▁Independence	-12.3755
▁enacted	-12.3755
▁jeopardised	-12.3757
▁Times	-12.3759
▁multifunctional	-12.376
ko	-12.376
▁81	-12.3769
▁cooperated	-12.377
▁ran	-12.3772
▁adjusting	-12.3773
▁Generally	-12.3774
▁Roman	-12.3777
▁mineral	-12.378
▁homosexual	-12.378
▁notify	-12.3789
▁potato	-12.3792
▁Immigration	-12.3793
▁clarifies	-12.3793
▁Maaten	-12.3793
▁Administrative	-12.3793
▁quoting	-12.3793
▁enrichment	-12.3793
▁requisite	-12.3793
▁12%	-12.3794
▁speculators	-12.3794
▁Peru	-12.3795
▁son	-12.3797
▁Wise	-12.3799
▁Ban	-12.3803
▁MPs	-12.3814
▁haste	-12.3816
BC	-12.3818
▁slave	-12.3819
employment	-12.3825
catch	-12.3826
▁metals	-12.3829
▁bind	-12.383
▁superior	-12.3832
▁Catalan	-12.3832
▁doubling	-12.3832
▁intermediaries	-12.3832
▁Bertens	-12.3832
▁EBRD	-12.3833
▁enlargements	-12.3835
▁diplomas	-12.3843
▁2050	-12.3845
▁endeavoured	-12.3846
▁brand	-12.385
▁sentiment	-12.3859
0%	-12.3859
▁inflexible	-12.386
▁y	-12.386
▁mediator	-12.386
▁qua	-12.3871
▁Legislat	-12.3872
▁Guantanamo	-12.3872
▁astonished	-12.3872
▁conceivable	-12.3872
Estaing	-12.3872
6(	-12.3873
▁underpinning	-12.3873
▁interrupted	-12.3874
▁delegates	-12.3877
ck	-12.3879
▁clarifications	-12.3879
▁distributors	-12.388
4(	-12.3882
▁rightful	-12.3889
▁TENs	-12.3892
▁expose	-12.3899
▁boys	-12.3903
▁sympathetic	-12.3912
▁Respect	-12.3912
▁Simpson	-12.3912
▁Zealand	-12.3912
▁fourteen	-12.3912
▁opportune	-12.3912
▁raft	-12.3912
▁correspondence	-12.3912
▁unpaid	-12.3912
▁Channel	-12.3912
▁unbalanced	-12.3912
▁headlines	-12.3913
▁Stand	-12.3915
▁l	-12.392
▁logically	-12.3922
▁geographically	-12.3925
west	-12.3926
son	-12.3929
▁depriv	-12.3929
▁disappearing	-12.3934
les	-12.3937
▁exile	-12.3938
▁Nord	-12.3941
▁kick	-12.3942
▁sleep	-12.3944
business	-12.3945
Atlantic	-12.3945
▁bolster	-12.3949
▁Tibetans	-12.3949
▁loyal	-12.395
▁fierce	-12.395
▁subsidise	-12.395
▁Renault	-12.3952
▁munitions	-12.3952
▁Nicholson	-12.3952
▁35%	-12.3953
▁revealing	-12.3966
▁weigh	-12.3972
▁X	-12.3974
▁liquid	-12.3979
funded	-12.3979
▁bond	-12.398
ub	-12.3981
house	-12.3986
▁calculate	-12.3991
▁Reference	-12.3992
▁Ribeiro	-12.3992
▁Turmes	-12.3992
▁enlarging	-12.3992
▁rejoice	-12.3992
▁peak	-12.3992
▁lodged	-12.3993
▁FTA	-12.3994
▁magic	-12.3995
▁finalise	-12.3996
▁hole	-12.3996
▁reconciled	-12.3997
▁stereotypes	-12.3998
ina	-12.3998
▁caring	-12.4002
oc	-12.4004
▁disputed	-12.4004
▁dire	-12.4007
▁timescale	-12.4008
▁Us	-12.4015
/21	-12.4023
▁breath	-12.4023
Rapporteur	-12.4026
▁triumph	-12.4029
▁Chichester	-12.4032
▁Gollnisch	-12.4032
▁Varela	-12.4032
▁aegis	-12.4032
▁constituencies	-12.4032
▁justifiably	-12.4032
▁intact	-12.4032
▁persistence	-12.4032
▁Perry	-12.4032
▁dictatorial	-12.4032
▁alignment	-12.4033
▁properties	-12.4033
▁oppressed	-12.4034
▁printed	-12.4034
▁rewarded	-12.4036
▁13.	-12.4036
▁costing	-12.4038
▁attained	-12.4039
▁nurses	-12.404
SL	-12.4043
▁filling	-12.4055
▁taboo	-12.4061
▁celebration	-12.4061
▁pesticide	-12.4061
▁stream	-12.4063
lic	-12.4068
▁utter	-12.4068
▁utilise	-12.4071
ological	-12.4072
▁trivial	-12.4072
▁Brenner	-12.4073
▁devising	-12.4073
▁rectified	-12.4073
▁unpunished	-12.4073
▁Schuman	-12.4073
▁falsified	-12.4073
▁admissible	-12.4073
▁Madagascar	-12.4073
▁dating	-12.4073
▁hanging	-12.4077
ily	-12.4077
▁oceans	-12.408
ek	-12.4084
▁lifetime	-12.4084
▁nationalities	-12.4084
▁confronting	-12.4092
▁predecessors	-12.4095
▁Te	-12.4097
▁insecure	-12.4099
▁peer	-12.4102
▁horizon	-12.4102
tro	-12.4102
▁accomplish	-12.4103
▁prisoner	-12.4108
▁Hänsch	-12.4113
▁inconsistencies	-12.4113
▁varieties	-12.4113
▁haulage	-12.4113
▁Maes	-12.4114
▁Anna	-12.4114
▁Schmidt	-12.4116
▁del	-12.4116
▁wearing	-12.4121
▁discharges	-12.413
▁harvest	-12.4132
▁rounds	-12.414
▁shipments	-12.4141
ze	-12.415
▁+	-12.4151
▁prejudices	-12.4152
▁Senegal	-12.4154
▁Solbes	-12.4154
▁nightmare	-12.4154
▁lump	-12.4154
▁spokesman	-12.4154
▁Gaddafi	-12.4154
▁simplistic	-12.4154
▁comfortable	-12.4155
▁convenient	-12.4155
▁cadmium	-12.4155
▁enhancement	-12.4155
▁fourthly	-12.4165
▁125	-12.4186
▁Ho	-12.4188
member	-12.4188
▁passionate	-12.4194
▁expires	-12.4195
▁courtesy	-12.4195
▁hesitant	-12.4195
▁differentiate	-12.4196
ard	-12.4199
▁oldest	-12.4202
3)	-12.4214
▁recalling	-12.4217
▁pipelines	-12.4219
▁advisers	-12.4222
▁admire	-12.4225
▁Man	-12.4226
▁dogma	-12.4228
binding	-12.423
sea	-12.423
▁alliances	-12.4234
▁naive	-12.4235
▁Flanders	-12.4236
▁Linkohr	-12.4236
▁bizarre	-12.4236
▁laboratory	-12.4236
▁Space	-12.4236
▁Precisely	-12.4236
▁22,	-12.4237
▁1987	-12.4239
ik	-12.424
▁widest	-12.4242
▁con	-12.4245
▁marriages	-12.4247
euro	-12.4255
▁superpower	-12.4266
▁tenders	-12.4269
▁measurement	-12.427
American	-12.4271
▁entrust	-12.4275
▁simultaneous	-12.4276
▁educate	-12.4276
▁faithful	-12.4277
▁Essen	-12.4278
▁Galeote	-12.4278
▁avian	-12.4278
▁Borders	-12.4278
▁Budapest	-12.4278
▁Brazilian	-12.4279
▁EEAS	-12.428
▁majorities	-12.4283
▁warrants	-12.4284
▁n	-12.4288
▁tolls	-12.4291
▁morally	-12.4292
▁Abu	-12.4293
service	-12.4302
▁ambassador	-12.4309
▁detract	-12.4312
commercial	-12.4313
▁bounds	-12.4318
▁Gallagher	-12.4319
▁LEADER	-12.4319
▁commensurate	-12.4319
▁jungle	-12.4319
▁Rossa	-12.4319
▁Fair	-12.4319
▁Waste	-12.4321
▁prolonged	-12.4323
▁sweeping	-12.4324
▁defeated	-12.4326
▁retailers	-12.4329
▁lawful	-12.433
▁counterpart	-12.4341
▁ride	-12.4347
mentioned	-12.4353
7(	-12.4354
technological	-12.4354
▁unscrupulous	-12.4359
▁Schmid	-12.436
▁babies	-12.4361
▁levies	-12.4361
▁unquestionably	-12.4361
▁outlining	-12.4361
▁optimal	-12.4361
▁Tobin	-12.4362
▁Christianity	-12.4363
▁liberalism	-12.4365
8)	-12.4365
▁ceased	-12.4367
▁weighting	-12.4368
▁attracting	-12.4381
third	-12.4386
▁hectare	-12.4393
▁restricts	-12.4396
ification	-12.4398
▁Manuel	-12.4403
▁Müller	-12.4403
▁audience	-12.4403
▁tolerant	-12.4403
▁ferry	-12.4403
▁Morgan	-12.4403
▁stolen	-12.4403
▁Markov	-12.4403
▁accumulated	-12.4403
▁compiled	-12.4404
▁protesting	-12.4404
▁utilised	-12.4405
▁mindful	-12.4407
7/	-12.4409
▁handful	-12.441
▁translations	-12.4415
▁comparisons	-12.4419
▁Was	-12.4424
ai	-12.443
▁vertical	-12.4443
▁organize	-12.4443
▁Abbas	-12.4445
▁Mundus	-12.4445
▁Rasmussen	-12.4445
▁adequacy	-12.4445
▁degrading	-12.4445
▁unforeseen	-12.4445
▁veritable	-12.4445
▁brink	-12.4445
▁Iraqis	-12.4448
▁healthier	-12.4451
▁compliments	-12.4451
▁applauded	-12.4454
▁embryo	-12.4473
7)	-12.4473
▁Mov	-12.4476
▁district	-12.4477
stay	-12.4479
public	-12.4479
government	-12.4479
▁12.	-12.4479
▁kindly	-12.4481
▁unsuccessful	-12.4485
▁designations	-12.4487
Semitism	-12.4487
▁Lagendijk	-12.4487
▁reversal	-12.4487
▁Already	-12.4487
ão	-12.4487
▁Ramos	-12.4487
▁superstate	-12.4487
▁Frankly	-12.4487
▁ICAO	-12.4487
▁biased	-12.4489
int	-12.4489
▁endure	-12.4491
▁blamed	-12.4496
pro	-12.451
▁atypical	-12.4512
▁Romano	-12.4518
▁obstruct	-12.4519
▁Ko	-12.4522
▁downward	-12.4523
–	-12.4523
▁distrust	-12.4525
▁blank	-12.4529
▁Caudron	-12.4529
▁Naples	-12.4529
▁embassies	-12.4529
▁stoning	-12.4529
▁arable	-12.4529
▁TRIPS	-12.453
▁accumulation	-12.453
▁recreational	-12.453
▁ACTA	-12.453
6-03	-12.4534
▁Thors	-12.4539
▁provoke	-12.456
▁tyres	-12.4562
post	-12.4566
▁march	-12.4569
▁lip	-12.4572
▁Busquin	-12.4572
▁Kroes	-12.4572
▁SAVE	-12.4572
▁Voluntary	-12.4572
▁contravention	-12.4572
▁severity	-12.4572
▁communicating	-12.4572
▁Coordination	-12.4572
▁1960	-12.4572
▁7%	-12.4574
gen	-12.4578
▁hampered	-12.4578
,000	-12.4589
▁proceeded	-12.4603
▁prescription	-12.4605
-2013	-12.4613
▁INTERREG	-12.4614
▁Papayannakis	-12.4614
▁default	-12.4614
▁meagre	-12.4614
▁practicable	-12.4614
▁marketplace	-12.4618
▁rotation	-12.4619
ey	-12.462
ship	-12.4622
50	-12.4622
▁twofold	-12.4622
▁overlap	-12.4648
▁wreck	-12.4655
▁prosecute	-12.4656
▁Pre	-12.4657
▁Peijs	-12.4657
▁combustion	-12.4657
▁efficacy	-12.4657
▁vicinity	-12.4657
▁carpet	-12.4657
▁guise	-12.4657
▁Undertaking	-12.4658
▁marginalisation	-12.4658
▁remainder	-12.466
▁pioneering	-12.4662
▁brutally	-12.4664
▁shaped	-12.4668
ung	-12.4682
▁contributor	-12.4684
▁earnings	-12.4691
examine	-12.4693
▁88	-12.4693
amp	-12.4695
▁notorious	-12.4699
▁Port	-12.47
▁Ahern	-12.47
▁Opel	-12.47
▁dementia	-12.47
▁holistic	-12.47
▁vein	-12.4701
▁Tajikistan	-12.4701
▁gay	-12.4701
▁Zana	-12.4702
▁importation	-12.4702
▁praised	-12.4706
▁alas	-12.4711
res	-12.4712
▁hell	-12.4715
▁weekly	-12.4715
care	-12.4716
4-05	-12.4722
▁custom	-12.4733
▁technique	-12.4735
driven	-12.4738
▁disorders	-12.474
▁Car	-12.4741
▁Nicaragua	-12.4742
▁authoritative	-12.4744
▁Roure	-12.4744
▁Steel	-12.4744
▁underpinned	-12.4744
▁parity	-12.4744
▁hazards	-12.4746
enthusiastically	-12.4746
ET	-12.4748
▁maps	-12.475
Mr	-12.4756
▁unfairly	-12.4761
▁symptoms	-12.4762
▁pressed	-12.4762
human	-12.4766
▁satisfying	-12.4775
▁outrage	-12.4777
▁concise	-12.4786
▁Davies	-12.4787
▁Deprez	-12.4787
▁Diamantopoulou	-12.4787
▁Liberia	-12.4787
▁Norwegian	-12.4787
▁accelerating	-12.4787
▁starvation	-12.4787
▁trample	-12.4787
▁1950	-12.4788
▁Congolese	-12.4788
▁frustrated	-12.4788
▁sufferers	-12.4792
▁tractors	-12.4797
▁respectful	-12.4799
▁holder	-12.48
▁broadening	-12.4801
more	-12.4802
▁ironic	-12.4806
▁opposes	-12.481
▁contest	-12.4812
ler	-12.4815
▁agent	-12.4815
▁suppress	-12.4821
▁superficial	-12.4829
▁relocate	-12.483
▁Wijsenbeek	-12.4831
▁inconsistency	-12.4831
▁streamlining	-12.4831
▁primacy	-12.4831
▁drag	-12.4831
▁manages	-12.4831
▁enforceable	-12.4832
▁tide	-12.4833
▁realistically	-12.4833
▁Often	-12.4834
▁Pan	-12.4836
▁calmly	-12.4836
mp	-12.4839
▁distorting	-12.4848
ified	-12.4849
2002	-12.4851
work	-12.4856
▁factions	-12.4856
4/	-12.4863
▁accords	-12.4864
ious	-12.4864
▁cheque	-12.4866
cu	-12.4867
Article	-12.4868
▁revisit	-12.4872
Euro	-12.4873
▁Meeting	-12.4875
▁attributable	-12.4875
▁deputy	-12.4875
▁deferred	-12.4875
▁cruelty	-12.4875
▁beaten	-12.4875
▁complicity	-12.4875
▁inserted	-12.4877
ER	-12.4879
▁catering	-12.488
▁ambassadors	-12.4886
▁summ	-12.49
02)	-12.4901
ction	-12.4901
▁160	-12.4905
with	-12.491
▁empire	-12.491
▁ocean	-12.4911
▁tree	-12.4911
profit	-12.4913
▁boards	-12.4918
▁dissent	-12.4919
▁enquiry	-12.4919
▁hauliers	-12.4919
▁untenable	-12.4919
▁preceding	-12.4919
▁encompasses	-12.4919
▁determines	-12.4924
▁percentages	-12.4928
▁Long	-12.4928
▁bottlenecks	-12.4931
▁externally	-12.4933
5%	-12.4933
ha	-12.4935
▁persists	-12.4949
06	-12.4954
▁motorway	-12.4956
ber	-12.496
▁Particular	-12.4961
▁scrutinise	-12.4962
▁streamline	-12.4962
▁guilt	-12.4962
98)	-12.4962
▁Nowadays	-12.4963
▁analytical	-12.4963
▁scratch	-12.4963
▁crux	-12.4963
▁1979	-12.4963
▁cement	-12.4963
▁Pensioners	-12.4963
▁Ottawa	-12.4963
▁uniformity	-12.4966
▁halfway	-12.4966
▁unambiguously	-12.4967
▁troubled	-12.4968
ultiannual	-12.4969
▁complained	-12.497
▁additionality	-12.4971
▁declined	-12.4971
▁armaments	-12.4975
▁Ne	-12.4982
▁appreciates	-12.4987
▁suits	-12.4988
mb	-12.4989
▁toward	-12.4991
rd	-12.4994
▁recruit	-12.4997
▁Italians	-12.5
▁Hu	-12.5002
▁random	-12.5006
SMEs	-12.5006
▁Facility	-12.5008
▁Paasilinna	-12.5008
▁Spencer	-12.5008
▁admirable	-12.5008
▁bovine	-12.5008
▁diabetes	-12.5008
▁influencing	-12.5008
▁opium	-12.5008
▁wheat	-12.5008
▁Montreal	-12.5008
▁consular	-12.5008
▁advent	-12.5008
▁Army	-12.5008
▁exhibition	-12.5008
▁conversations	-12.5009
▁atomic	-12.5009
▁Eurobonds	-12.501
▁spared	-12.5011
▁posting	-12.5016
▁fled	-12.5018
▁shoulders	-12.5019
/2005	-12.5027
▁centred	-12.5028
▁thin	-12.504
▁rotat	-12.5041
German	-12.5046
▁compounds	-12.5051
▁Monterrey	-12.5052
▁measurable	-12.5052
▁terminology	-12.5052
▁proposition	-12.5052
▁Orden	-12.5052
▁blacklist	-12.5052
▁harmonized	-12.5054
non	-12.5059
▁Coal	-12.5063
▁multicultural	-12.5081
▁assault	-12.5087
road	-12.5089
▁plastic	-12.5089
existence	-12.509
▁speeded	-12.5091
▁recognizes	-12.5091
2002)	-12.5091
▁shoes	-12.5094
▁eager	-12.5095
▁contemplate	-12.5096
▁defends	-12.5096
▁colours	-12.5097
▁Kabul	-12.5097
▁MAI	-12.5097
▁Thomas	-12.5097
▁bury	-12.5097
▁undeniably	-12.5097
▁democratization	-12.5097
▁phones	-12.5099
▁purchased	-12.5102
▁entitlements	-12.5104
▁complications	-12.5106
▁3.5	-12.5109
));	-12.5111
▁breached	-12.5113
▁provinces	-12.5117
ny	-12.5117
▁Groups	-12.5122
▁inconvenience	-12.5123
▁jail	-12.5132
fraud	-12.5135
▁federation	-12.5135
▁0	-12.5135
▁entitlement	-12.5135
tariff	-12.5136
▁Rhine	-12.5142
▁Gargani	-12.5142
▁Martínez	-12.5142
▁ITER	-12.5142
▁impartiality	-12.5143
▁convened	-12.5143
▁discovery	-12.5145
▁appliances	-12.5149
▁Bos	-12.5149
▁liberals	-12.5175
▁treats	-12.5176
▁chicken	-12.518
▁obey	-12.5185
▁Equator	-12.5187
Bissau	-12.5187
▁López	-12.5187
▁geography	-12.5187
▁Hezbollah	-12.5188
▁ECJ	-12.5188
▁authorization	-12.5188
▁EIT	-12.5189
▁dismantled	-12.5189
▁Lu	-12.519
lin	-12.5194
▁exporter	-12.5195
▁scenes	-12.5196
▁loses	-12.5197
▁steering	-12.52
▁Ca	-12.52
▁bureaucrats	-12.5201
▁embarking	-12.5205
▁democrat	-12.5208
pa	-12.521
▁resorting	-12.522
▁87	-12.522
▁prerogative	-12.5226
▁desires	-12.5227
▁76	-12.5228
▁dust	-12.523
▁disseminate	-12.5231
▁renounce	-12.5231
▁Pérez	-12.5233
▁reprehensible	-12.5233
▁Still	-12.5233
▁axis	-12.5233
▁inherited	-12.5234
▁federalism	-12.5234
▁wholehearted	-12.5234
▁imagined	-12.5245
▁emotions	-12.5251
▁flaws	-12.526
ese	-12.5262
rapporteur	-12.5265
▁testify	-12.5269
▁regulates	-12.5269
▁92	-12.5271
▁motive	-12.5272
▁corridor	-12.5272
▁fortress	-12.5272
ip	-12.5273
▁desert	-12.5276
▁clever	-12.5277
▁lunch	-12.5278
▁cyanide	-12.5278
▁Schüssel	-12.5278
▁intensification	-12.5278
▁literature	-12.5278
▁reiterating	-12.5278
▁triangle	-12.5278
▁Lynne	-12.5278
▁eighteen	-12.5279
▁URBAN	-12.5279
▁residential	-12.5279
▁wholesale	-12.5279
▁ICC	-12.5279
▁amounted	-12.528
▁homeless	-12.5281
▁upgrade	-12.5282
▁resigned	-12.5283
▁behaving	-12.5287
▁storms	-12.5287
▁defender	-12.5287
▁180	-12.529
▁ch	-12.5294
▁unites	-12.5297
ups	-12.5303
▁oversee	-12.5303
▁tip	-12.5317
▁recipe	-12.5318
▁presume	-12.5323
▁glaring	-12.5324
▁homophobia	-12.5324
▁renovation	-12.5324
▁suffrage	-12.5324
▁objectivity	-12.5324
▁1967	-12.5325
▁vodka	-12.5325
▁depressing	-12.5325
▁wing	-12.5326
▁avoidance	-12.5326
▁Ha	-12.533
▁1994.	-12.5332
▁dynamics	-12.5336
▁monitors	-12.5336
▁enrich	-12.536
▁ca	-12.5362
▁comprise	-12.5363
distance	-12.5364
▁curtail	-12.5367
▁motivate	-12.5369
▁Large	-12.537
▁Miert	-12.537
▁equation	-12.537
▁paralysis	-12.537
▁prevalent	-12.537
▁unbundling	-12.537
▁pause	-12.5371
▁Echelon	-12.5371
▁boxes	-12.5371
▁doomed	-12.5372
▁fascist	-12.5373
▁st	-12.5373
▁scant	-12.5374
▁defer	-12.5379
▁employs	-12.5383
▁shifted	-12.5386
▁Karl	-12.5388
▁Camp	-12.5392
▁spur	-12.5403
▁align	-12.5406
▁depart	-12.5407
▁originate	-12.5411
matic	-12.5413
▁thirteen	-12.5416
▁Sarajevo	-12.5417
▁prudence	-12.5417
▁immoral	-12.5417
versus	-12.5417
▁omitted	-12.5417
▁emigration	-12.5417
▁legislating	-12.5417
▁elapsed	-12.5417
▁denies	-12.5417
institutional	-12.5419
▁professionalism	-12.5421
▁23,	-12.5422
▁Read	-12.5439
▁retreat	-12.5453
▁delegate	-12.5457
nuclear	-12.5457
▁envelope	-12.5457
-04	-12.5462
▁River	-12.5462
▁Congratulations	-12.5463
▁footwear	-12.5463
▁terribly	-12.5463
▁unanswered	-12.5463
▁Bonde	-12.5463
▁Confederation	-12.5463
CAP	-12.5464
▁obsession	-12.5464
▁unitary	-12.5464
▁tense	-12.5465
▁Tindemans	-12.5466
▁retraining	-12.5466
▁beat	-12.5466
che	-12.5473
▁succession	-12.5476
ins	-12.5477
▁outgoing	-12.5477
▁tendering	-12.5481
▁Po	-12.5484
outs	-12.5485
▁recovering	-12.5488
▁yields	-12.5488
▁nitrates	-12.5492
-00	-12.5495
▁realm	-12.5495
▁mo	-12.5498
competitive	-12.5503
▁cyber	-12.551
▁Hitler	-12.551
▁Purvis	-12.551
▁buried	-12.551
▁populism	-12.551
▁swept	-12.551
▁Blak	-12.551
▁Fabre	-12.551
▁Weiler	-12.551
▁Duma	-12.5511
▁slowdown	-12.5511
▁cultivated	-12.5511
▁deadly	-12.552
▁FP	-12.552
▁pet	-12.5521
▁hasty	-12.5525
▁slots	-12.5537
but	-12.5538
▁interrupt	-12.5546
▁74	-12.5546
▁talent	-12.5549
ari	-12.555
informed	-12.555
▁acid	-12.5551
▁divergence	-12.5552
▁supermarkets	-12.5555
Aubrespy	-12.5557
▁anticipating	-12.5557
▁illiteracy	-12.5557
▁lucrative	-12.5557
▁unbridled	-12.5557
▁unhealthy	-12.5557
▁nitrogen	-12.5557
▁casualties	-12.5557
▁pivotal	-12.5557
▁bogg	-12.5557
▁incitement	-12.5557
▁Discussion	-12.5557
▁interception	-12.5557
▁unwillingness	-12.5557
▁punishable	-12.5558
▁feedback	-12.5558
▁Blue	-12.5558
▁gun	-12.5562
▁loved	-12.5562
▁borrowing	-12.5562
▁EFD	-12.5566
las	-12.5566
▁deserved	-12.5568
▁sympathise	-12.5569
▁insufficiently	-12.557
▁Iron	-12.5576
▁culturally	-12.5577
▁r	-12.5581
ert	-12.5583
fer	-12.5585
▁impede	-12.5597
▁prescribe	-12.5597
▁yardstick	-12.5599
▁deportation	-12.5599
▁daughter	-12.5599
▁der	-12.5599
▁hardship	-12.56
▁bird	-12.56
▁Diamandouros	-12.5604
▁Garriga	-12.5604
▁compromising	-12.5604
▁destabilising	-12.5604
▁precision	-12.5604
▁Subcommittee	-12.5604
▁Casaca	-12.5604
▁Moura	-12.5604
▁Local	-12.5604
▁EAGGF	-12.5604
▁distinctive	-12.5606
▁carers	-12.5615
▁withstand	-12.5619
▁excuses	-12.5626
▁deter	-12.564
eastern	-12.5645
legislative	-12.5645
▁regulator	-12.5646
ble	-12.565
▁convene	-12.565
▁Quality	-12.5651
▁devastation	-12.5651
▁pragmatism	-12.5651
▁density	-12.5651
▁UKIP	-12.5652
▁regretted	-12.5653
▁planes	-12.5655
▁diminished	-12.5655
▁sine	-12.5659
▁selecting	-12.5662
▁discusses	-12.5666
den	-12.5681
▁tissues	-12.5688
▁le	-12.5691
▁crossed	-12.5693
ay	-12.5693
."	-12.5693
▁abduction	-12.5694
that	-12.5695
▁ear	-12.5695
▁Increasing	-12.5697
▁deteriorate	-12.5698
▁Borrell	-12.5699
▁Pursu	-12.5699
▁humiliation	-12.5699
▁paternity	-12.5699
▁Fukushima	-12.5699
▁theatre	-12.5699
▁NAFO	-12.57
▁IAEA	-12.57
▁fastest	-12.5701
▁concentrates	-12.5704
tur	-12.5704
▁Mayor	-12.5706
▁incur	-12.5726
▁suspicions	-12.5727
▁myth	-12.5741
▁hotel	-12.5743
ries	-12.5745
▁irrational	-12.5747
▁Major	-12.5747
▁Specific	-12.5747
▁Pinochet	-12.5747
▁fodder	-12.5747
▁inadequacy	-12.5747
▁verge	-12.5747
▁Macao	-12.5747
▁1976	-12.5747
▁spatial	-12.5747
état	-12.5748
▁invented	-12.5749
▁redouble	-12.5749
▁smokers	-12.575
▁businessmen	-12.575
▁Emissions	-12.5756
▁watched	-12.5757
▁pen	-12.576
ski	-12.5764
▁punishing	-12.5765
▁rooms	-12.5766
▁distinguishing	-12.5771
▁aeroplanes	-12.5787
▁Disease	-12.5791
▁concede	-12.5794
▁pluralist	-12.5795
▁Cresson	-12.5795
▁Troika	-12.5795
▁ministries	-12.5795
▁Tamil	-12.5795
▁extinction	-12.5795
▁inventory	-12.5795
▁Beyond	-12.5795
▁accustomed	-12.5796
▁remedied	-12.5796
▁addicts	-12.58
▁Z	-12.5809
▁1991,	-12.5813
▁foc	-12.582
▁Ka	-12.5829
▁tunnels	-12.5832
▁restate	-12.5834
mongst	-12.5835
▁lots	-12.5839
▁inefficiency	-12.584
you	-12.584
ki	-12.5842
▁amazing	-12.5842
▁Campania	-12.5843
▁Companies	-12.5843
▁DNA	-12.5843
▁Grosch	-12.5843
▁Honduras	-12.5843
▁Improvement	-12.5843
▁Instance	-12.5843
▁Keyser	-12.5843
▁Liechtenstein	-12.5843
▁Taoiseach	-12.5843
▁hostilities	-12.5843
▁outweigh	-12.5843
▁underlining	-12.5843
▁fauna	-12.5843
▁void	-12.5843
▁philosophical	-12.5843
▁GNI	-12.5844
aries	-12.5844
▁guess	-12.5844
▁pessimistic	-12.5844
▁Se	-12.5849
▁concealed	-12.585
▁hindered	-12.5851
▁diminishing	-12.5852
▁Moldovan	-12.5853
15	-12.5854
▁ideally	-12.5854
▁portal	-12.5855
PS	-12.5856
▁proteins	-12.5859
▁Ki	-12.5864
▁intensifying	-12.5864
▁shorten	-12.5866
hearted	-12.5877
▁refund	-12.5879
ó	-12.5884
▁tanker	-12.5889
▁coastline	-12.5889
▁shortfall	-12.5889
(2002)	-12.589
▁timid	-12.589
▁Current	-12.589
▁Gröner	-12.5892
▁Immunities	-12.5892
▁Söderman	-12.5892
▁jeopardy	-12.5892
▁sensitivities	-12.5892
▁Cabrol	-12.5892
▁loyalty	-12.5892
▁mountainous	-12.5892
▁1975	-12.5892
▁hungry	-12.5892
▁recycled	-12.5893
▁madness	-12.5893
▁Developing	-12.5894
▁frightening	-12.5894
▁lucky	-12.5895
▁elementary	-12.5896
▁170	-12.5896
ile	-12.5897
▁Togo	-12.5898
▁networking	-12.591
▁hindering	-12.5911
▁economical	-12.5925
▁avert	-12.5929
▁device	-12.5937
2(	-12.5939
▁provocative	-12.5939
▁destabilise	-12.5939
▁prosper	-12.594
▁Colom	-12.5941
▁sacred	-12.5941
▁Verification	-12.5941
▁insolvency	-12.5941
▁abducted	-12.5941
▁reimbursed	-12.5942
▁Andean	-12.5942
her	-12.5942
▁resisted	-12.5949
industrial	-12.5959
▁chairing	-12.5967
citizens	-12.5969
▁Bill	-12.5976
▁delight	-12.598
▁insert	-12.598
▁infections	-12.5981
▁handicaps	-12.5981
Palestinian	-12.5983
What	-12.5983
▁egg	-12.5984
▁republics	-12.5986
▁peculiar	-12.5989
▁Cederschiöld	-12.599
▁Figueiredo	-12.599
▁Pronk	-12.599
▁Thousands	-12.599
▁beauty	-12.599
▁cessation	-12.599
▁misunderstood	-12.599
▁sanitation	-12.599
▁segregation	-12.599
▁parcel	-12.599
▁Brown	-12.599
▁Eurovignette	-12.599
▁criticized	-12.5991
▁Zimbabwean	-12.5992
▁catastrophes	-12.5994
6-04	-12.5995
▁escaped	-12.5995
▁mainland	-12.5996
▁Campos	-12.5996
▁lightly	-12.5998
▁picked	-12.6001
▁distressing	-12.6002
▁traded	-12.6002
▁underdeveloped	-12.6005
du	-12.6007
▁complements	-12.6011
▁fortune	-12.6013
▁announcements	-12.6016
ack	-12.6027
▁revert	-12.6032
▁reviews	-12.6034
step	-12.6034
▁shipyard	-12.6036
▁authentic	-12.6038
▁satisfies	-12.6039
▁tandem	-12.6039
▁testimony	-12.6039
▁unjustifiable	-12.6039
▁Migration	-12.6039
▁theft	-12.604
07	-12.604
▁explored	-12.6042
▁modernised	-12.6046
ect	-12.6049
▁Mar	-12.6049
▁Am	-12.606
▁89	-12.6063
▁k	-12.6068
▁relax	-12.6078
▁telecoms	-12.6081
health	-12.6082
▁lever	-12.6083
▁phthalates	-12.6088
▁purse	-12.6088
▁Euromed	-12.6088
▁gentleman	-12.6088
▁fever	-12.6089
Member	-12.6089
▁appealed	-12.6093
▁93	-12.6094
▁79	-12.6099
%	-12.61
▁109	-12.6105
▁commended	-12.6106
ncreased	-12.6115
▁Panel	-12.6115
▁83	-12.6117
empt	-12.6121
▁cooperatives	-12.613
represented	-12.6132
▁Ad	-12.6136
▁tailor	-12.6136
▁loophole	-12.6136
▁shake	-12.6138
▁dispel	-12.6138
▁Bologna	-12.6138
▁Schnellhardt	-12.6138
▁credentials	-12.6138
▁indisputable	-12.6138
▁judging	-12.6138
▁probability	-12.6138
▁scarcity	-12.6138
▁suspicious	-12.6138
▁midnight	-12.6138
▁Frankfurt	-12.6138
▁circulating	-12.6138
▁Per	-12.6142
▁tour	-12.6145
▁overwhelmingly	-12.6146
▁Fiji	-12.6146
▁preparedness	-12.615
▁abstentions	-12.6155
▁endangering	-12.6156
▁consciences	-12.6157
▁arts	-12.6161
▁h	-12.6165
▁Maria	-12.6173
▁commenting	-12.6173
▁planting	-12.6175
▁spends	-12.6179
▁greet	-12.6181
▁Jo	-12.6181
State	-12.6182
▁Serb	-12.6182
▁hazard	-12.6186
▁pollute	-12.6186
▁dishonest	-12.6187
▁headline	-12.6187
▁Curtain	-12.6188
▁Miguélez	-12.6188
▁collateral	-12.6188
▁crossroads	-12.6188
▁James	-12.6188
▁Saint	-12.6188
▁potatoes	-12.6189
▁advancement	-12.619
▁Mari	-12.619
▁152	-12.6194
▁bombings	-12.6194
▁weighing	-12.6197
cultural	-12.6199
It	-12.6205
▁assumptions	-12.6206
▁screen	-12.6227
▁containers	-12.623
▁Reduc	-12.6231
▁fundamentalists	-12.6231
EGF	-12.6232
African	-12.6233
▁wip	-12.6237
▁grid	-12.6237
▁indebted	-12.6238
▁1984	-12.6238
▁crazy	-12.6238
▁leeway	-12.6238
▁turmoil	-12.6238
▁Muscardini	-12.6238
▁therapy	-12.6238
▁versa	-12.624
▁combatting	-12.6241
open	-12.6242
▁volunteering	-12.6243
▁Galician	-12.6243
▁atmospheric	-12.6243
▁scanners	-12.6244
▁divides	-12.6245
▁cooling	-12.6246
▁grows	-12.6254
▁worsen	-12.6258
ite	-12.626
ical	-12.6263
▁deposits	-12.627
financed	-12.6271
▁pharmaceuticals	-12.6271
nt	-12.6271
▁cartels	-12.6274
▁21,	-12.6279
uc	-12.6281
tre	-12.6282
compulsory	-12.6283
▁eighth	-12.6283
▁weakens	-12.6283
▁statutes	-12.6287
▁brother	-12.6287
▁arrogant	-12.6287
car	-12.6288
▁Morgantini	-12.6289
▁hostility	-12.6289
▁memories	-12.6289
▁probable	-12.6289
▁subsidising	-12.6289
▁unqualified	-12.6289
▁Schmitt	-12.6289
▁immune	-12.629
▁medication	-12.629
▁partisan	-12.629
▁blatantly	-12.6292
▁Pi	-12.6298
▁175	-12.6298
▁lag	-12.6302
▁minerals	-12.6305
▁justifying	-12.631
SEC	-12.6311
▁omissions	-12.6316
▁Decisions	-12.632
▁1.2	-12.6321
▁COP	-12.6324
4-06	-12.6324
▁dictates	-12.6327
▁viewpoints	-12.6329
▁bee	-12.6335
▁dated	-12.6335
▁Refugee	-12.6338
▁biofuel	-12.6338
▁rocket	-12.6338
▁resounding	-12.6339
▁intermodal	-12.634
▁Conditions	-12.634
▁Plus	-12.634
▁Srebrenica	-12.634
▁Wolf	-12.634
▁flexibly	-12.634
▁starving	-12.634
▁paramilitary	-12.634
#	-12.634
▁quorum	-12.634
▁cynicism	-12.634
▁Vietnamese	-12.634
▁dogmatic	-12.634
▁Improving	-12.634
▁possesses	-12.6341
▁interregional	-12.6341
▁missile	-12.6341
▁Conventions	-12.6345
▁correctness	-12.6347
▁loading	-12.6348
17	-12.6349
8(	-12.6352
▁designate	-12.6353
▁reign	-12.6365
▁Ro	-12.6367
▁economists	-12.6367
ja	-12.6375
eye	-12.6376
▁transmit	-12.6377
ou	-12.6383
▁plead	-12.6383
paragraph	-12.6384
▁epidemics	-12.6384
management	-12.6384
attached	-12.6384
▁harness	-12.6388
fighting	-12.6388
▁succeeding	-12.6388
▁conversation	-12.639
▁Illegal	-12.6391
▁Michael	-12.6391
▁arbitrarily	-12.6391
▁arbitration	-12.6391
▁heaven	-12.6391
▁stemming	-12.6391
▁PKK	-12.6391
▁Kiev	-12.6391
▁penalising	-12.6391
▁EPLP	-12.6391
▁sparsely	-12.6391
▁Science	-12.6391
▁manipulated	-12.6392
▁forged	-12.6393
▁IRA	-12.6399
fe	-12.64
▁98	-12.6403
▁Me	-12.6403
▁reopening	-12.6403
4-01	-12.6404
▁rein	-12.6406
start	-12.6417
▁Forest	-12.6417
cent	-12.6419
▁73	-12.6425
▁combines	-12.6434
▁cool	-12.6436
▁contravene	-12.644
▁verbal	-12.644
▁gauge	-12.6441
▁guarantor	-12.6441
▁Railway	-12.6441
▁enact	-12.6442
▁Oreja	-12.6442
▁comparing	-12.6442
▁nickel	-12.6442
▁Chief	-12.6442
▁despicable	-12.6442
▁spotlight	-12.6442
▁roof	-12.6442
▁Rack	-12.6442
▁fitted	-12.6442
▁prudential	-12.6443
▁patentability	-12.6443
▁affirmation	-12.6444
▁locked	-12.6445
▁138	-12.6445
▁practitioners	-12.6449
▁periodic	-12.6459
ast	-12.6463
▁advertisements	-12.6464
(97)	-12.6474
▁cat	-12.6483
▁load	-12.6487
▁overturn	-12.6489
▁brake	-12.6493
▁Anything	-12.6494
▁Catalonia	-12.6494
▁Catania	-12.6494
▁Ferreira	-12.6494
▁Schwaiger	-12.6494
▁colonies	-12.6494
▁synonymous	-12.6494
▁Kohl	-12.6494
▁carriage	-12.6494
▁Securities	-12.6494
▁Everybody	-12.6494
▁Cameroon	-12.6494
▁noticeable	-12.6496
▁pleasing	-12.6496
▁enriched	-12.6497
▁Cambodian	-12.6498
▁cycles	-12.6499
▁taxed	-12.65
▁Da	-12.6502
▁loose	-12.6503
▁accus	-12.6504
▁emphasizes	-12.6505
▁bankers	-12.6506
▁devot	-12.6507
▁spaces	-12.6515
ee	-12.6517
▁consign	-12.6534
people	-12.6537
▁usage	-12.654
reading	-12.6543
▁cloud	-12.6545
▁Banotti	-12.6545
▁Miranda	-12.6545
▁Souchet	-12.6545
▁acceleration	-12.6545
▁angry	-12.6545
▁frequencies	-12.6545
▁humiliating	-12.6545
▁punitive	-12.6545
▁petty	-12.6545
▁lady	-12.6545
▁Essentially	-12.6546
▁prioritising	-12.6546
pp	-12.6546
▁eagerly	-12.6547
▁sadness	-12.6547
00):	-12.6548
▁Estonian	-12.6548
lat	-12.655
▁sinking	-12.6551
▁immensely	-12.6552
▁Ali	-12.6552
▁defenceless	-12.6557
▁equals	-12.6559
▁feeds	-12.6559
bu	-12.6566
▁Dis	-12.6573
ran	-12.6576
labelling	-12.6578
▁fighters	-12.6593
▁reproach	-12.6594
▁Additional	-12.6596
▁receipt	-12.6597
▁twentieth	-12.6597
Ancona	-12.6597
▁Horn	-12.6597
▁Tehran	-12.6597
▁negotiator	-12.6597
▁panacea	-12.6597
▁volatile	-12.6597
▁portfolios	-12.6598
▁Parish	-12.6598
▁Ukrainians	-12.66
▁Border	-12.66
▁Grand	-12.66
ping	-12.6601
▁alarmed	-12.6606
▁needing	-12.6607
▁unionists	-12.6611
▁bas	-12.6614
▁destroys	-12.6619
▁satellites	-12.6621
▁Languages	-12.6622
▁sizes	-12.6624
▁disregarding	-12.6626
▁preclude	-12.6628
functioning	-12.6643
▁Unit	-12.6646
▁Clear	-12.6648
▁multilingual	-12.665
▁Scheme	-12.665
▁Sturdy	-12.665
▁Tobacco	-12.665
▁Vinci	-12.665
▁Vojvodina	-12.665
▁easing	-12.665
▁Earlier	-12.665
▁Militar	-12.665
▁eastward	-12.665
▁girl	-12.665
▁transplant	-12.665
▁aroused	-12.6651
▁85%	-12.6651
▁cogeneration	-12.6651
▁th	-12.6652
▁installed	-12.6652
▁wounded	-12.6652
▁attentively	-12.6652
▁stark	-12.6658
▁visions	-12.6658
my	-12.6659
▁districts	-12.6662
▁uniformly	-12.6669
▁engineers	-12.6671
▁avenues	-12.6674
▁genes	-12.6675
▁interconnected	-12.6687
Re	-12.669
▁hunt	-12.6695
▁Bjerregaard	-12.6702
▁Eurlings	-12.6702
▁Studies	-12.6702
▁Watts	-12.6702
▁apartheid	-12.6702
▁marvellous	-12.6702
▁Richard	-12.6702
▁Stevenson	-12.6702
▁imperialism	-12.6703
▁uprising	-12.6703
▁CMO	-12.6703
▁Turin	-12.6703
▁Proposal	-12.6703
ED	-12.6704
▁17%	-12.6704
▁Someone	-12.6708
▁workload	-12.6709
▁torn	-12.671
▁centralisation	-12.671
▁renewing	-12.672
▁103	-12.6724
▁uniting	-12.6744
▁Gas	-12.6744
enterprises	-12.6749
good	-12.6749
▁expire	-12.6755
▁foolish	-12.6755
egardless	-12.6755
▁implied	-12.6755
▁stalemate	-12.6755
▁Naval	-12.6755
▁Arias	-12.6755
▁Legislation	-12.6756
▁Near	-12.6756
▁Product	-12.6756
▁Papua	-12.6756
▁rationalisation	-12.6757
▁Learning	-12.6757
▁Considering	-12.676
▁Coming	-12.676
▁cheaply	-12.6765
▁harmless	-12.6767
▁pot	-12.6768
▁supervisors	-12.6776
ties	-12.6777
val	-12.6781
page	-12.6782
▁creditors	-12.6784
14	-12.6785
▁champions	-12.6792
▁reasoned	-12.6797
▁discredit	-12.6799
handling	-12.6802
▁guards	-12.6804
▁respectable	-12.6805
▁bull	-12.6808
▁lock	-12.6808
▁educating	-12.6809
▁inaccurate	-12.6809
▁intermediary	-12.6809
▁waive	-12.6809
▁Order	-12.6809
▁cloned	-12.6809
▁EMAS	-12.6809
▁fascism	-12.6809
▁Polo	-12.6809
▁blanket	-12.6809
ACP	-12.6809
▁Back	-12.681
▁brutality	-12.681
▁operative	-12.681
▁resistant	-12.6811
▁crack	-12.6812
▁94	-12.6816
▁complemented	-12.6821
▁halted	-12.6822
▁rent	-12.6822
▁withholding	-12.6829
half	-12.6829
rid	-12.6831
▁battles	-12.6833
▁Greeks	-12.6836
▁coexist	-12.684
▁112	-12.6849
Lisbon	-12.6856
▁dogs	-12.686
▁Holocaust	-12.6862
▁SLIM	-12.6862
▁bloodshed	-12.6862
▁consensual	-12.6862
▁exodus	-12.6862
▁Plooij	-12.6862
▁mitigation	-12.6862
▁perseverance	-12.6862
▁depopulation	-12.6862
▁predictability	-12.6862
▁morality	-12.6865
▁Directorates	-12.6871
ended	-12.6872
▁farce	-12.6879
ology	-12.6881
Scott	-12.6881
working	-12.6886
ris	-12.6887
▁horrors	-12.6902
ue	-12.6902
▁auction	-12.6907
▁deriv	-12.6911
cutting	-12.6913
▁Effort	-12.6916
▁Tillich	-12.6916
▁disseminating	-12.6916
▁ferries	-12.6916
▁naïve	-12.6916
▁ombudsman	-12.6916
▁paradigm	-12.6916
▁supervising	-12.6916
▁shaken	-12.6916
▁lapse	-12.6916
▁EEA	-12.6917
▁Never	-12.6918
▁Land	-12.692
▁Torres	-12.6924
▁insulting	-12.6931
▁remarked	-12.6932
▁contexts	-12.6939
od	-12.6945
▁1.3	-12.6953
▁rewards	-12.6957
▁EPA	-12.6959
including	-12.6964
▁hurt	-12.6964
▁yours	-12.6967
door	-12.6969
▁compound	-12.6969
▁equivalence	-12.697
▁fascinating	-12.697
▁multitude	-12.697
▁overarching	-12.697
▁prominence	-12.697
▁separating	-12.697
▁mockery	-12.697
▁glance	-12.697
▁emit	-12.697
▁NUTS	-12.697
▁chairmanship	-12.6971
▁evolved	-12.6972
▁summarised	-12.6973
▁sizeable	-12.6974
▁Medicines	-12.6978
2003)	-12.6981
12	-12.699
▁sustaining	-12.6993
ates	-12.7004
▁seminars	-12.7008
zi	-12.701
▁upwards	-12.701
▁disappoint	-12.7014
▁En	-12.7018
01)	-12.7019
much	-12.7019
▁crown	-12.702
▁Products	-12.7023
▁fraction	-12.7024
▁ideologies	-12.7024
▁tenacity	-12.7024
▁dawn	-12.7024
▁Farage	-12.7025
▁manpower	-12.7025
▁chooses	-12.7026
▁husband	-12.7026
▁supermarket	-12.7027
▁orientations	-12.7027
90	-12.7028
▁sailing	-12.7029
▁ante	-12.703
▁absorbed	-12.703
cal	-12.7031
▁Kok	-12.7041
▁dock	-12.7044
spot	-12.7047
▁workings	-12.7053
pi	-12.7054
▁na	-12.7055
▁specially	-12.7064
SK	-12.7065
head	-12.7066
▁legitimise	-12.7078
▁Angelilli	-12.7079
▁Jöns	-12.7079
▁dissatisfied	-12.7079
▁literacy	-12.7079
▁Veld	-12.7079
▁Sharia	-12.7079
▁charity	-12.7079
▁recurring	-12.7079
▁destabilisation	-12.7079
▁Renewable	-12.7079
▁Seychelles	-12.7079
▁flora	-12.7079
▁eroded	-12.708
▁cheapest	-12.708
▁redefine	-12.708
▁relaxed	-12.7082
▁ambiguities	-12.7083
fits	-12.7084
▁paved	-12.7086
ev	-12.7086
ermanent	-12.7087
▁safest	-12.7087
▁beverages	-12.7089
▁entailed	-12.709
▁geo	-12.7106
▁105	-12.7118
▁kills	-12.7123
▁paint	-12.7128
ium	-12.713
▁Bolivia	-12.7132
▁MacCormick	-12.7134
▁cheese	-12.7134
▁practising	-12.7134
▁reminiscent	-12.7134
▁susceptible	-12.7134
▁Álvarez	-12.7134
▁exacerbating	-12.7134
▁electors	-12.7134
▁tyranny	-12.7134
▁skies	-12.7134
▁Leyla	-12.7135
▁fruition	-12.7136
▁Fishing	-12.7137
▁virtues	-12.7138
▁rearing	-12.7139
▁2007-2013.	-12.714
▁prosecutors	-12.7141
▁prefers	-12.7154
60	-12.7162
lt	-12.717
▁Pro	-12.7171
sproportionately	-12.7175
▁contacted	-12.7178
▁preach	-12.7179
▁broadcasts	-12.7181
▁recalls	-12.7184
▁searching	-12.7186
▁Aids	-12.7187
Margallo	-12.7189
▁1956	-12.7189
▁Aelvoet	-12.7189
▁Buttiglione	-12.7189
▁McNally	-12.7189
▁Torture	-12.7189
▁sequence	-12.7189
▁warfare	-12.7189
▁copies	-12.7189
▁Smet	-12.719
▁GPS	-12.719
▁adaptability	-12.719
▁streamlined	-12.7191
▁instructed	-12.7191
▁persuasion	-12.7192
ker	-12.7192
▁universality	-12.7192
▁Ethiopian	-12.7193
turn	-12.7195
▁interact	-12.7195
▁goodness	-12.7198
▁97	-12.7219
▁Olympics	-12.7233
most	-12.7233
▁abortions	-12.7234
Yes	-12.7238
▁Kremlin	-12.7245
▁Responsibility	-12.7245
▁allergies	-12.7245
▁comparability	-12.7245
▁durable	-12.7245
▁unbelievable	-12.7245
▁powder	-12.7245
▁Kratsa	-12.7245
▁kidnapped	-12.7245
▁deviate	-12.7245
▁handicapped	-12.7245
▁presumption	-12.7245
▁Actually	-12.7245
▁nail	-12.7245
▁abusive	-12.7245
▁till	-12.7245
▁remarkably	-12.7245
▁pseudo	-12.7245
▁Boel	-12.7245
▁relaxation	-12.7245
▁School	-12.7248
▁uneven	-12.7248
▁Stubb	-12.7248
▁underlie	-12.7248
▁ruined	-12.7249
▁Sub	-12.7249
▁kilometre	-12.7249
▁Macedonian	-12.7254
▁dog	-12.7255
▁Mont	-12.7259
▁Dam	-12.7263
▁neglecting	-12.7264
CO	-12.7266
▁auditor	-12.727
▁26,	-12.7275
▁oils	-12.7278
▁Pe	-12.7286
▁reaffirms	-12.7289
▁savage	-12.7299
▁reintroduce	-12.7299
▁1408/71	-12.73
▁Integrated	-12.73
▁Trading	-12.73
▁appalled	-12.73
▁exaggeration	-12.73
▁Rapid	-12.73
▁denouncing	-12.73
▁Rojo	-12.73
▁unwise	-12.7301
▁interdependent	-12.7301
▁Spinelli	-12.7301
▁regeneration	-12.7302
▁supervised	-12.7303
▁shy	-12.7303
▁cabinet	-12.7304
▁worsened	-12.7304
▁mixture	-12.7304
▁behaved	-12.7304
▁loudly	-12.7305
▁reiterates	-12.7307
▁needless	-12.731
▁LDCs	-12.7314
▁2001/	-12.7316
tz	-12.7317
▁protested	-12.7323
other	-12.7329
hr	-12.7332
▁longest	-12.7339
ible	-12.7346
▁crash	-12.7346
finding	-12.735
emptive	-12.735
▁lapses	-12.7355
▁André	-12.7357
▁KLA	-12.7357
▁Miguel	-12.7357
▁etcetera	-12.7357
▁hurry	-12.7357
▁Money	-12.7357
▁scrapped	-12.7357
▁rally	-12.7357
▁quotation	-12.7357
▁doorstep	-12.7357
▁bridging	-12.7357
▁vehemently	-12.7357
▁certified	-12.7357
▁retired	-12.7358
▁empowered	-12.7359
▁regularity	-12.736
▁suppressed	-12.736
▁Qu	-12.7361
+2	-12.7362
▁phrases	-12.7366
▁flourishing	-12.7368
▁importer	-12.737
▁converting	-12.737
wa	-12.7372
nes	-12.7373
▁modifying	-12.7375
▁avoids	-12.7377
.6	-12.7378
▁enhances	-12.7381
▁stayed	-12.7384
▁invitations	-12.7385
▁withdrew	-12.7388
1999	-12.7393
fair	-12.7399
▁jump	-12.7403
▁anonymous	-12.7411
▁Addiction	-12.7413
▁Bahrain	-12.7413
▁Marques	-12.7413
▁Neves	-12.7413
▁Polledo	-12.7413
▁Weapons	-12.7413
▁adhering	-12.7413
▁apology	-12.7413
▁chaotic	-12.7413
▁diversified	-12.7413
▁frustrating	-12.7413
▁endemic	-12.7413
▁married	-12.7413
▁enquiries	-12.7413
▁fanaticism	-12.7413
▁Anglo	-12.7413
▁paedophilia	-12.7414
▁breadth	-12.7414
▁optimise	-12.7414
▁authorized	-12.7415
▁questionnaire	-12.7417
▁unconditionally	-12.7417
▁shortcoming	-12.7419
▁infant	-12.7419
▁dismissal	-12.7419
▁height	-12.7419
▁oneself	-12.7421
▁spirits	-12.7421
▁correcting	-12.7431
rich	-12.7433
utonomous	-12.7435
▁16.	-12.7444
▁pains	-12.7448
peripheral	-12.7464
▁Andalusia	-12.7468
▁conserve	-12.7469
▁commemorate	-12.7469
▁pilots	-12.7469
▁releasing	-12.747
▁Silva	-12.747
▁nerve	-12.747
▁disintegration	-12.747
▁unpopular	-12.747
▁onerous	-12.747
▁cake	-12.747
▁disturbed	-12.7472
▁complicate	-12.7473
▁republic	-12.7476
▁asserted	-12.7478
▁repealing	-12.7481
▁Programmes	-12.7492
▁pedestrians	-12.7494
ria	-12.7495
▁gu	-12.7502
04	-12.7502
▁halting	-12.7506
▁negatively	-12.7514
table	-12.7519
▁additions	-12.7523
▁bare	-12.7525
tter	-12.7525
▁publications	-12.7526
Matthews	-12.7527
▁Assessment	-12.7527
▁Integration	-12.7527
▁Orthodox	-12.7527
▁stumbling	-12.7527
▁investigative	-12.7527
▁Coast	-12.7527
▁dedicate	-12.7528
▁Chilean	-12.7528
▁admitting	-12.7528
▁circulated	-12.7529
▁birthday	-12.7529
▁manifestly	-12.7529
▁mg	-12.753
▁Whenever	-12.753
▁commonplace	-12.753
▁understandably	-12.753
▁weighed	-12.7531
dy	-12.7532
▁disorder	-12.7533
▁injustices	-12.7539
18	-12.7543
▁Carlos	-12.7543
▁delivers	-12.7544
par	-12.7547
han	-12.755
port	-12.7553
▁murderers	-12.7555
▁tar	-12.7557
▁tread	-12.7558
▁w	-12.7561
ned	-12.7564
ons	-12.7565
list	-12.7569
▁disciplines	-12.7573
▁infring	-12.7575
low	-12.7576
consuming	-12.7578
▁Markets	-12.7583
▁greed	-12.7583
ya	-12.7584
▁Assurance	-12.7585
▁Goldstone	-12.7585
▁Kirkhope	-12.7585
▁Radwan	-12.7585
▁illogical	-12.7585
▁revenge	-12.7585
▁sacrificing	-12.7585
▁unacceptably	-12.7585
▁utility	-12.7585
▁Phare	-12.7585
▁quantified	-12.7585
▁seemingly	-12.7585
SYN	-12.7585
▁unsuitable	-12.7585
▁umpteenth	-12.7585
▁misled	-12.7585
▁synthesis	-12.7585
▁fait	-12.7585
▁Porto	-12.7585
▁contravenes	-12.7586
▁instituted	-12.7588
▁incorrectly	-12.759
▁heroin	-12.7597
ger	-12.7598
/2004	-12.7599
only	-12.7601
▁pretending	-12.7601
▁metal	-12.7601
13	-12.7608
▁ski	-12.7608
▁print	-12.761
▁distorts	-12.7612
king	-12.7627
▁destinations	-12.7629
▁mislead	-12.7635
▁centrally	-12.7638
▁Bavaria	-12.7641
▁energetic	-12.7642
▁Dimitrakopoulos	-12.7642
▁Lahti	-12.7642
▁Venice	-12.7642
▁conspicuous	-12.7642
▁exploring	-12.7642
▁inextricabl	-12.7642
▁innocence	-12.7642
▁persuading	-12.7642
▁technocratic	-12.7642
▁unpredictable	-12.7642
▁salmonella	-12.7642
▁Menrad	-12.7642
▁organizing	-12.7643
▁Remember	-12.7643
▁fatalities	-12.7643
ug	-12.7643
▁attachment	-12.7643
▁Strengthening	-12.7643
▁cabin	-12.7643
▁firmness	-12.7648
▁dared	-12.7648
▁Rothe	-12.7649
▁Fa	-12.7649
▁landed	-12.765
▁survived	-12.765
▁chickens	-12.7651
▁thereafter	-12.7654
▁contention	-12.7655
▁altering	-12.7672
▁prey	-12.769
Robles	-12.7694
trafficking	-12.7694
25	-12.7696
▁criticize	-12.7699
▁inaction	-12.7699
▁lowered	-12.77
▁Aarhus	-12.77
▁Consensus	-12.77
▁Oettinger	-12.77
▁complacency	-12.77
▁dominance	-12.77
▁rubbish	-12.77
▁Charles	-12.77
▁manual	-12.77
▁shirk	-12.77
▁Gomes	-12.77
▁plurality	-12.7701
▁subsistence	-12.7701
▁battery	-12.7701
▁confiscated	-12.7701
▁Exchange	-12.7701
▁informative	-12.7701
▁salt	-12.7702
▁tragically	-12.7702
fly	-12.7703
▁shooting	-12.7707
▁directing	-12.7709
▁EURES	-12.7711
▁graduates	-12.7714
▁cater	-12.7717
80	-12.7719
▁Objectives	-12.7719
▁mayor	-12.7724
▁oriented	-12.7725
▁boarding	-12.7731
▁280	-12.7733
av	-12.7746
power	-12.7749
Youth	-12.7753
income	-12.7754
▁indulge	-12.7758
▁perpetuate	-12.7758
▁circulate	-12.7758
▁Brinkhorst	-12.7759
▁Herzog	-12.7759
▁Milan	-12.7759
▁Pöttering	-12.7759
▁awkward	-12.7759
▁blessing	-12.7759
▁electromagneti	-12.7759
▁junior	-12.7759
▁communicable	-12.7759
▁overlapping	-12.7759
▁Payment	-12.7759
▁Louis	-12.7759
▁armies	-12.7759
▁homosexuality	-12.7759
▁deserving	-12.7759
▁Trafficking	-12.776
▁acquainted	-12.776
▁Package	-12.776
▁tricky	-12.776
▁enlightened	-12.776
▁missiles	-12.7761
▁Additionally	-12.7761
▁2030	-12.7761
▁anchored	-12.7761
▁enduring	-12.7762
▁overfishing	-12.7763
▁attraction	-12.7766
▁Real	-12.7772
▁differential	-12.7778
▁leg	-12.7785
▁riots	-12.7786
▁designs	-12.7786
▁patented	-12.7788
▁replaces	-12.7788
.5%	-12.7789
▁profiles	-12.7794
▁orderly	-12.7801
▁wounds	-12.7805
▁sham	-12.7808
▁trick	-12.781
origin	-12.781
▁usefully	-12.7811
▁succeeds	-12.7812
▁122	-12.7815
▁ho	-12.7815
▁Important	-12.7816
ys	-12.7817
▁Appendix	-12.7818
▁futile	-12.7818
▁sacrosanct	-12.7818
▁coastguard	-12.7818
irresponsibility	-12.7818
▁spade	-12.7818
▁overtaken	-12.7818
▁Bowe	-12.7818
▁interactive	-12.7819
▁mildly	-12.7819
▁deported	-12.7819
▁cable	-12.7819
▁coping	-12.782
▁Unity	-12.782
▁owes	-12.7821
▁acceded	-12.7822
▁originated	-12.7822
▁rushed	-12.7824
▁episode	-12.7824
▁obstruction	-12.7825
size	-12.7834
und	-12.7834
▁consultants	-12.7836
▁Standards	-12.7838
▁shore	-12.7844
▁willingly	-12.7844
▁TACs	-12.7853
▁reflections	-12.787
grass	-12.7871
▁Interreg	-12.7875
▁Gasòliba	-12.7877
▁Giansily	-12.7877
▁Napoletano	-12.7877
▁diligence	-12.7877
▁imaginative	-12.7877
▁periphery	-12.7877
▁McMillan	-12.7877
▁alibi	-12.7877
▁Durban	-12.7877
▁Timorese	-12.7877
▁hammer	-12.7878
▁reinstate	-12.7878
eviating	-12.7879
▁reuse	-12.7881
▁1993.	-12.7881
▁logo	-12.7881
▁reassurance	-12.7884
▁corporation	-12.7884
▁tactical	-12.7887
▁intervals	-12.7888
▁provisionally	-12.7888
▁pulled	-12.789
▁bypass	-12.789
net	-12.789
▁regionalisation	-12.7897
ef	-12.7898
▁poll	-12.7904
▁sexually	-12.7905
▁poet	-12.7905
TA	-12.7912
▁admits	-12.7922
paid	-12.7923
▁137	-12.7924
can	-12.7926
▁band	-12.7931
▁Promot	-12.7932
▁Effective	-12.7935
▁conclusive	-12.7935
▁Credit	-12.7936
▁Imagine	-12.7936
▁Kreissl	-12.7936
▁Rapkay	-12.7936
▁Schörling	-12.7936
▁Zapatero	-12.7936
▁aerospace	-12.7936
▁competencies	-12.7936
▁devoid	-12.7936
▁escalating	-12.7936
▁indivisible	-12.7936
▁Memorandum	-12.7936
▁defective	-12.7937
▁sidelined	-12.7937
▁Peres	-12.7937
▁0.5	-12.7937
▁dispose	-12.7938
▁ETS	-12.7938
▁16%	-12.7938
▁dumped	-12.7938
▁inspect	-12.794
ren	-12.7942
▁markedly	-12.7949
ep	-12.7955
▁awaited	-12.7958
▁petitioners	-12.796
az	-12.7964
take	-12.7965
cha	-12.7969
EP	-12.7981
Dörfler	-12.7996
▁Bucharest	-12.7996
▁Credentials	-12.7996
▁Gorsel	-12.7996
▁Heritage	-12.7996
▁Issues	-12.7996
▁Mutual	-12.7996
▁Tanzania	-12.7996
▁sincerity	-12.7996
▁True	-12.7996
▁surprises	-12.7996
▁impending	-12.7996
▁draftsmen	-12.7996
▁protracted	-12.7996
▁oppressive	-12.7997
▁inertia	-12.7997
▁thread	-12.7997
▁Pasty	-12.7997
▁aggravated	-12.7997
▁materialise	-12.7997
▁BBC	-12.7998
▁screens	-12.7999
environmental	-12.8003
▁protagonists	-12.8011
▁freeing	-12.8012
▁creators	-12.8013
cy	-12.802
▁displaying	-12.802
▁outlets	-12.8022
sex	-12.8028
/2007	-12.8029
[...]
